#include "magic_wand_model_data.h"

// We need to keep the data array aligned on some architectures.
#ifdef __has_attribute
#define HAVE_ATTRIBUTE(x) __has_attribute(x)
#else
#define HAVE_ATTRIBUTE(x) 0
#endif
#if HAVE_ATTRIBUTE(aligned) || (defined(__GNUC__) && !defined(__clang__))
#define DATA_ALIGN_ATTRIBUTE __attribute__((aligned(4)))
#else
#define DATA_ALIGN_ATTRIBUTE
#endif

const unsigned char g_magic_wand_model_data[] DATA_ALIGN_ATTRIBUTE = {
  // Paste the data of the char array in `src/model.cc` here
  0x1c, 0x00, 0x00, 0x00, 0x54, 0x46, 0x4c, 0x33, 0x14, 0x00, 0x20, 0x00,
  0x04, 0x00, 0x08, 0x00, 0x0c, 0x00, 0x10, 0x00, 0x14, 0x00, 0x00, 0x00,
  0x18, 0x00, 0x1c, 0x00, 0x14, 0x00, 0x00, 0x00, 0x03, 0x00, 0x00, 0x00,
  0x18, 0x00, 0x00, 0x00, 0x2c, 0x00, 0x00, 0x00, 0xd8, 0x00, 0x00, 0x00,
  0x2c, 0x00, 0x00, 0x00, 0x80, 0x00, 0x00, 0x00, 0x78, 0x00, 0x00, 0x00,
  0x05, 0x00, 0x00, 0x00, 0x28, 0x07, 0x00, 0x00, 0x44, 0x06, 0x00, 0x00,
  0xbc, 0x03, 0x00, 0x00, 0xf8, 0x02, 0x00, 0x00, 0xac, 0x01, 0x00, 0x00,
  0x01, 0x00, 0x00, 0x00, 0xd0, 0x00, 0x00, 0x00, 0x14, 0x00, 0x00, 0x00,
  0x98, 0x32, 0x00, 0x00, 0x94, 0x32, 0x00, 0x00, 0x8c, 0x31, 0x00, 0x00,
  0xd8, 0x30, 0x00, 0x00, 0x30, 0x30, 0x00, 0x00, 0xbc, 0x2f, 0x00, 0x00,
  0x50, 0x2f, 0x00, 0x00, 0x00, 0x13, 0x00, 0x00, 0xec, 0x11, 0x00, 0x00,
  0x10, 0x10, 0x00, 0x00, 0xb4, 0x07, 0x00, 0x00, 0x6c, 0x32, 0x00, 0x00,
  0x68, 0x32, 0x00, 0x00, 0x64, 0x32, 0x00, 0x00, 0x60, 0x32, 0x00, 0x00,
  0x5c, 0x32, 0x00, 0x00, 0x58, 0x32, 0x00, 0x00, 0x54, 0x32, 0x00, 0x00,
  0x50, 0x32, 0x00, 0x00, 0x3c, 0x00, 0x00, 0x00, 0x00, 0x00, 0x00, 0x00,
  0x01, 0x00, 0x00, 0x00, 0x0c, 0x00, 0x00, 0x00, 0x08, 0x00, 0x0c, 0x00,
  0x04, 0x00, 0x08, 0x00, 0x08, 0x00, 0x00, 0x00, 0x08, 0x00, 0x00, 0x00,
  0x13, 0x00, 0x00, 0x00, 0x13, 0x00, 0x00, 0x00, 0x6d, 0x69, 0x6e, 0x5f,
  0x72, 0x75, 0x6e, 0x74, 0x69, 0x6d, 0x65, 0x5f, 0x76, 0x65, 0x72, 0x73,
  0x69, 0x6f, 0x6e, 0x00, 0xfa, 0xce, 0xff, 0xff, 0x04, 0x00, 0x00, 0x00,
  0x10, 0x00, 0x00, 0x00, 0x31, 0x2e, 0x35, 0x2e, 0x30, 0x00, 0x00, 0x00,
  0x00, 0x00, 0x00, 0x00, 0x00, 0x00, 0x00, 0x00, 0x0f, 0x00, 0x00, 0x00,
  0x4d, 0x4c, 0x49, 0x52, 0x20, 0x43, 0x6f, 0x6e, 0x76, 0x65, 0x72, 0x74,
  0x65, 0x64, 0x2e, 0x00, 0x00, 0x00, 0x0e, 0x00, 0x18, 0x00, 0x04, 0x00,
  0x08, 0x00, 0x0c, 0x00, 0x10, 0x00, 0x14, 0x00, 0x0e, 0x00, 0x00, 0x00,
  0x14, 0x00, 0x00, 0x00, 0x5c, 0x00, 0x00, 0x00, 0x60, 0x00, 0x00, 0x00,
  0x64, 0x00, 0x00, 0x00, 0x84, 0x00, 0x00, 0x00, 0x12, 0x00, 0x00, 0x00,
  0x58, 0x31, 0x00, 0x00, 0xe8, 0x30, 0x00, 0x00, 0x44, 0x30, 0x00, 0x00,
  0x9c, 0x2f, 0x00, 0x00, 0xf4, 0x2e, 0x00, 0x00, 0x94, 0x2e, 0x00, 0x00,
  0x2c, 0x2e, 0x00, 0x00, 0xd8, 0x11, 0x00, 0x00, 0xbc, 0x10, 0x00, 0x00,
  0xe0, 0x0e, 0x00, 0x00, 0x0c, 0x06, 0x00, 0x00, 0x28, 0x05, 0x00, 0x00,
  0xe8, 0x03, 0x00, 0x00, 0x3c, 0x03, 0x00, 0x00, 0x98, 0x02, 0x00, 0x00,
  0xd4, 0x01, 0x00, 0x00, 0x10, 0x01, 0x00, 0x00, 0x84, 0x00, 0x00, 0x00,
  0x01, 0x00, 0x00, 0x00, 0x00, 0x00, 0x00, 0x00, 0x01, 0x00, 0x00, 0x00,
  0x11, 0x00, 0x00, 0x00, 0x08, 0x00, 0x00, 0x00, 0x74, 0x05, 0x00, 0x00,
  0x94, 0x04, 0x00, 0x00, 0x78, 0x03, 0x00, 0x00, 0xbc, 0x02, 0x00, 0x00,
  0x30, 0x02, 0x00, 0x00, 0x50, 0x01, 0x00, 0x00, 0xa8, 0x00, 0x00, 0x00,
  0x10, 0x00, 0x00, 0x00, 0x04, 0x00, 0x00, 0x00, 0x6d, 0x61, 0x69, 0x6e,
  0x00, 0x00, 0x00, 0x00, 0x7a, 0xff, 0xff, 0xff, 0x00, 0x00, 0x00, 0x09,
  0x04, 0x00, 0x00, 0x00, 0x1c, 0x00, 0x00, 0x00, 0x10, 0x00, 0x00, 0x00,
  0x04, 0x00, 0x00, 0x00, 0xf6, 0xcf, 0xff, 0xff, 0x00, 0x00, 0x80, 0x3f,
  0x01, 0x00, 0x00, 0x00, 0x11, 0x00, 0x00, 0x00, 0x01, 0x00, 0x00, 0x00,
  0x10, 0x00, 0x00, 0x00, 0xa0, 0xfa, 0xff, 0xff, 0x19, 0x00, 0x00, 0x00,
  0x00, 0x00, 0x00, 0x19, 0x01, 0x00, 0x00, 0x00, 0x84, 0xcf, 0xff, 0xff,
  0x14, 0x00, 0x00, 0x00, 0x12, 0x00, 0x00, 0x00, 0x18, 0x00, 0x00, 0x00,
  0x30, 0x00, 0x00, 0x00, 0x20, 0x00, 0x00, 0x00, 0x02, 0x00, 0x00, 0x00,
  0x01, 0x00, 0x00, 0x00, 0x03, 0x00, 0x00, 0x00, 0x08, 0x00, 0x00, 0x00,
  0x49, 0x64, 0x65, 0x6e, 0x74, 0x69, 0x74, 0x79, 0x00, 0x00, 0x00, 0x00,
  0x02, 0x00, 0x00, 0x00, 0xff, 0xff, 0xff, 0xff, 0x03, 0x00, 0x00, 0x00,
  0x68, 0xd0, 0xff, 0xff, 0x00, 0x00, 0x0e, 0x00, 0x18, 0x00, 0x08, 0x00,
  0x0c, 0x00, 0x10, 0x00, 0x07, 0x00, 0x14, 0x00, 0x0e, 0x00, 0x00, 0x00,
  0x00, 0x00, 0x00, 0x08, 0x03, 0x00, 0x00, 0x00, 0x18, 0x00, 0x00, 0x00,
  0x0c, 0x00, 0x00, 0x00, 0x04, 0x00, 0x00, 0x00, 0x84, 0xcf, 0xff, 0xff,
  0x01, 0x00, 0x00, 0x00, 0x10, 0x00, 0x00, 0x00, 0x03, 0x00, 0x00, 0x00,
  0x0f, 0x00, 0x00, 0x00, 0x07, 0x00, 0x00, 0x00, 0x04, 0x00, 0x00, 0x00,
  0x0c, 0xd0, 0xff, 0xff, 0x14, 0x00, 0x00, 0x00, 0x11, 0x00, 0x00, 0x00,
  0x18, 0x00, 0x00, 0x00, 0x5c, 0x00, 0x00, 0x00, 0x4c, 0x00, 0x00, 0x00,
  0x02, 0x00, 0x00, 0x00, 0x01, 0x00, 0x00, 0x00, 0x03, 0x00, 0x00, 0x00,
  0x34, 0x00, 0x00, 0x00, 0x73, 0x65, 0x71, 0x75, 0x65, 0x6e, 0x74, 0x69,
  0x61, 0x6c, 0x2f, 0x64, 0x65, 0x6e, 0x73, 0x65, 0x5f, 0x31, 0x2f, 0x4d,
  0x61, 0x74, 0x4d, 0x75, 0x6c, 0x3b, 0x73, 0x65, 0x71, 0x75, 0x65, 0x6e,
  0x74, 0x69, 0x61, 0x6c, 0x2f, 0x64, 0x65, 0x6e, 0x73, 0x65, 0x5f, 0x31,
  0x2f, 0x42, 0x69, 0x61, 0x73, 0x41, 0x64, 0x64, 0x00, 0x00, 0x00, 0x00,
  0x02, 0x00, 0x00, 0x00, 0xff, 0xff, 0xff, 0xff, 0x03, 0x00, 0x00, 0x00,
  0x0c, 0xd0, 0xff, 0xff, 0xda, 0xfc, 0xff, 0xff, 0x00, 0x00, 0x00, 0x08,
  0x03, 0x00, 0x00, 0x00, 0x24, 0x00, 0x00, 0x00, 0x18, 0x00, 0x00, 0x00,
  0x0c, 0x00, 0x00, 0x00, 0x00, 0x00, 0x06, 0x00, 0x08, 0x00, 0x07, 0x00,
  0x06, 0x00, 0x00, 0x00, 0x00, 0x00, 0x00, 0x01, 0x01, 0x00, 0x00, 0x00,
  0x0f, 0x00, 0x00, 0x00, 0x03, 0x00, 0x00, 0x00, 0x0e, 0x00, 0x00, 0x00,
  0x06, 0x00, 0x00, 0x00, 0x03, 0x00, 0x00, 0x00, 0xe8, 0xfb, 0xff, 0xff,
  0x09, 0x00, 0x00, 0x00, 0x00, 0x00, 0x00, 0x09, 0x01, 0x00, 0x00, 0x00,
  0xcc, 0xd0, 0xff, 0xff, 0x14, 0x00, 0x00, 0x00, 0x10, 0x00, 0x00, 0x00,
  0x18, 0x00, 0x00, 0x00, 0x6c, 0x00, 0x00, 0x00, 0x5c, 0x00, 0x00, 0x00,
  0x02, 0x00, 0x00, 0x00, 0x01, 0x00, 0x00, 0x00, 0x10, 0x00, 0x00, 0x00,
  0x46, 0x00, 0x00, 0x00, 0x73, 0x65, 0x71, 0x75, 0x65, 0x6e, 0x74, 0x69,
  0x61, 0x6c, 0x2f, 0x64, 0x65, 0x6e, 0x73, 0x65, 0x2f, 0x4d, 0x61, 0x74,
  0x4d, 0x75, 0x6c, 0x3b, 0x73, 0x65, 0x71, 0x75, 0x65, 0x6e, 0x74, 0x69,
  0x61, 0x6c, 0x2f, 0x64, 0x65, 0x6e, 0x73, 0x65, 0x2f, 0x52, 0x65, 0x6c,
  0x75, 0x3b, 0x73, 0x65, 0x71, 0x75, 0x65, 0x6e, 0x74, 0x69, 0x61, 0x6c,
  0x2f, 0x64, 0x65, 0x6e, 0x73, 0x65, 0x2f, 0x42, 0x69, 0x61, 0x73, 0x41,
  0x64, 0x64, 0x00, 0x00, 0x02, 0x00, 0x00, 0x00, 0xff, 0xff, 0xff, 0xff,
  0x10, 0x00, 0x00, 0x00, 0xec, 0xd1, 0xff, 0xff, 0x00, 0x00, 0x0a, 0x00,
  0x10, 0x00, 0x04, 0x00, 0x08, 0x00, 0x0c, 0x00, 0x0a, 0x00, 0x00, 0x00,
  0x02, 0x00, 0x00, 0x00, 0x10, 0x00, 0x00, 0x00, 0x04, 0x00, 0x00, 0x00,
  0x01, 0x00, 0x00, 0x00, 0x0e, 0x00, 0x00, 0x00, 0x02, 0x00, 0x00, 0x00,
  0x0d, 0x00, 0x00, 0x00, 0x05, 0x00, 0x00, 0x00, 0xa8, 0xfc, 0xff, 0xff,
  0x16, 0x00, 0x00, 0x00, 0x00, 0x00, 0x00, 0x16, 0x01, 0x00, 0x00, 0x00,
  0x8c, 0xd1, 0xff, 0xff, 0x14, 0x00, 0x00, 0x00, 0x0f, 0x00, 0x00, 0x00,
  0x18, 0x00, 0x00, 0x00, 0x40, 0x00, 0x00, 0x00, 0x30, 0x00, 0x00, 0x00,
  0x02, 0x00, 0x00, 0x00, 0x01, 0x00, 0x00, 0x00, 0x70, 0x00, 0x00, 0x00,
  0x1a, 0x00, 0x00, 0x00, 0x73, 0x65, 0x71, 0x75, 0x65, 0x6e, 0x74, 0x69,
  0x61, 0x6c, 0x2f, 0x66, 0x6c, 0x61, 0x74, 0x74, 0x65, 0x6e, 0x2f, 0x52,
  0x65, 0x73, 0x68, 0x61, 0x70, 0x65, 0x00, 0x00, 0x02, 0x00, 0x00, 0x00,
  0xff, 0xff, 0xff, 0xff, 0x70, 0x00, 0x00, 0x00, 0x70, 0xd1, 0xff, 0xff,
  0x3e, 0xfe, 0xff, 0xff, 0x00, 0x00, 0x00, 0x05, 0x01, 0x00, 0x00, 0x00,
  0x38, 0x00, 0x00, 0x00, 0x2c, 0x00, 0x00, 0x00, 0x14, 0x00, 0x00, 0x00,
  0x00, 0x00, 0x0e, 0x00, 0x14, 0x00, 0x00, 0x00, 0x10, 0x00, 0x0c, 0x00,
  0x08, 0x00, 0x04, 0x00, 0x0e, 0x00, 0x00, 0x00, 0x03, 0x00, 0x00, 0x00,
  0x01, 0x00, 0x00, 0x00, 0x03, 0x00, 0x00, 0x00, 0x01, 0x00, 0x00, 0x00,
  0x01, 0x00, 0x00, 0x00, 0x0d, 0x00, 0x00, 0x00, 0x01, 0x00, 0x00, 0x00,
  0x0c, 0x00, 0x00, 0x00, 0x2c, 0xd2, 0xff, 0xff, 0x14, 0x00, 0x00, 0x00,
  0x0e, 0x00, 0x00, 0x00, 0x20, 0x00, 0x00, 0x00, 0x58, 0x00, 0x00, 0x00,
  0x40, 0x00, 0x00, 0x00, 0x04, 0x00, 0x00, 0x00, 0x01, 0x00, 0x00, 0x00,
  0x07, 0x00, 0x00, 0x00, 0x01, 0x00, 0x00, 0x00, 0x10, 0x00, 0x00, 0x00,
  0x22, 0x00, 0x00, 0x00, 0x73, 0x65, 0x71, 0x75, 0x65, 0x6e, 0x74, 0x69,
  0x61, 0x6c, 0x2f, 0x6d, 0x61, 0x78, 0x5f, 0x70, 0x6f, 0x6f, 0x6c, 0x69,
  0x6e, 0x67, 0x32, 0x64, 0x5f, 0x31, 0x2f, 0x4d, 0x61, 0x78, 0x50, 0x6f,
  0x6f, 0x6c, 0x00, 0x00, 0x04, 0x00, 0x00, 0x00, 0xff, 0xff, 0xff, 0xff,
  0x07, 0x00, 0x00, 0x00, 0x01, 0x00, 0x00, 0x00, 0x10, 0x00, 0x00, 0x00,
  0x28, 0xd2, 0xff, 0xff, 0x1a, 0xfe, 0xff, 0xff, 0x00, 0x00, 0x00, 0x01,
  0x24, 0x00, 0x00, 0x00, 0x18, 0x00, 0x00, 0x00, 0x04, 0x00, 0x00, 0x00,
  0x0c, 0xfe, 0xff, 0xff, 0x01, 0x00, 0x00, 0x00, 0x01, 0x00, 0x00, 0x00,
  0x00, 0x00, 0x00, 0x01, 0x01, 0x00, 0x00, 0x00, 0x0c, 0x00, 0x00, 0x00,
  0x03, 0x00, 0x00, 0x00, 0x0b, 0x00, 0x00, 0x00, 0x09, 0x00, 0x00, 0x00,
  0x02, 0x00, 0x00, 0x00, 0xd4, 0xd2, 0xff, 0xff, 0x14, 0x00, 0x00, 0x00,
  0x0d, 0x00, 0x00, 0x00, 0x20, 0x00, 0x00, 0x00, 0xb8, 0x00, 0x00, 0x00,
  0xa0, 0x00, 0x00, 0x00, 0x04, 0x00, 0x00, 0x00, 0x01, 0x00, 0x00, 0x00,
  0x15, 0x00, 0x00, 0x00, 0x01, 0x00, 0x00, 0x00, 0x10, 0x00, 0x00, 0x00,
  0x83, 0x00, 0x00, 0x00, 0x73, 0x65, 0x71, 0x75, 0x65, 0x6e, 0x74, 0x69,
  0x61, 0x6c, 0x2f, 0x63, 0x6f, 0x6e, 0x76, 0x32, 0x64, 0x5f, 0x31, 0x2f,
  0x52, 0x65, 0x6c, 0x75, 0x3b, 0x73, 0x65, 0x71, 0x75, 0x65, 0x6e, 0x74,
  0x69, 0x61, 0x6c, 0x2f, 0x63, 0x6f, 0x6e, 0x76, 0x32, 0x64, 0x5f, 0x31,
  0x2f, 0x42, 0x69, 0x61, 0x73, 0x41, 0x64, 0x64, 0x3b, 0x73, 0x65, 0x71,
  0x75, 0x65, 0x6e, 0x74, 0x69, 0x61, 0x6c, 0x2f, 0x63, 0x6f, 0x6e, 0x76,
  0x32, 0x64, 0x5f, 0x31, 0x2f, 0x43, 0x6f, 0x6e, 0x76, 0x32, 0x44, 0x3b,
  0x73, 0x65, 0x71, 0x75, 0x65, 0x6e, 0x74, 0x69, 0x61, 0x6c, 0x2f, 0x63,
  0x6f, 0x6e, 0x76, 0x32, 0x64, 0x5f, 0x31, 0x2f, 0x42, 0x69, 0x61, 0x73,
  0x41, 0x64, 0x64, 0x2f, 0x52, 0x65, 0x61, 0x64, 0x56, 0x61, 0x72, 0x69,
  0x61, 0x62, 0x6c, 0x65, 0x4f, 0x70, 0x2f, 0x72, 0x65, 0x73, 0x6f, 0x75,
  0x72, 0x63, 0x65, 0x00, 0x04, 0x00, 0x00, 0x00, 0xff, 0xff, 0xff, 0xff,
  0x15, 0x00, 0x00, 0x00, 0x01, 0x00, 0x00, 0x00, 0x10, 0x00, 0x00, 0x00,
  0x40, 0xd4, 0xff, 0xff, 0x00, 0x00, 0x0e, 0x00, 0x1a, 0x00, 0x08, 0x00,
  0x0c, 0x00, 0x10, 0x00, 0x07, 0x00, 0x14, 0x00, 0x0e, 0x00, 0x00, 0x00,
  0x00, 0x00, 0x00, 0x05, 0x01, 0x00, 0x00, 0x00, 0x3c, 0x00, 0x00, 0x00,
  0x30, 0x00, 0x00, 0x00, 0x14, 0x00, 0x00, 0x00, 0x00, 0x00, 0x0e, 0x00,
  0x18, 0x00, 0x17, 0x00, 0x10, 0x00, 0x0c, 0x00, 0x08, 0x00, 0x04, 0x00,
  0x0e, 0x00, 0x00, 0x00, 0x03, 0x00, 0x00, 0x00, 0x03, 0x00, 0x00, 0x00,
  0x03, 0x00, 0x00, 0x00, 0x03, 0x00, 0x00, 0x00, 0x00, 0x00, 0x00, 0x01,
  0x01, 0x00, 0x00, 0x00, 0x0b, 0x00, 0x00, 0x00, 0x01, 0x00, 0x00, 0x00,
  0x0a, 0x00, 0x00, 0x00, 0x2c, 0xff, 0xff, 0xff, 0x11, 0x00, 0x00, 0x00,
  0x00, 0x00, 0x00, 0x11, 0x01, 0x00, 0x00, 0x00, 0x10, 0xd4, 0xff, 0xff,
  0x14, 0x00, 0x00, 0x00, 0x0c, 0x00, 0x00, 0x00, 0x20, 0x00, 0x00, 0x00,
  0x58, 0x00, 0x00, 0x00, 0x40, 0x00, 0x00, 0x00, 0x04, 0x00, 0x00, 0x00,
  0x01, 0x00, 0x00, 0x00, 0x15, 0x00, 0x00, 0x00, 0x01, 0x00, 0x00, 0x00,
  0x08, 0x00, 0x00, 0x00, 0x20, 0x00, 0x00, 0x00, 0x73, 0x65, 0x71, 0x75,
  0x65, 0x6e, 0x74, 0x69, 0x61, 0x6c, 0x2f, 0x6d, 0x61, 0x78, 0x5f, 0x70,
  0x6f, 0x6f, 0x6c, 0x69, 0x6e, 0x67, 0x32, 0x64, 0x2f, 0x4d, 0x61, 0x78,
  0x50, 0x6f, 0x6f, 0x6c, 0x00, 0x00, 0x00, 0x00, 0x04, 0x00, 0x00, 0x00,
  0xff, 0xff, 0xff, 0xff, 0x15, 0x00, 0x00, 0x00, 0x01, 0x00, 0x00, 0x00,
  0x08, 0x00, 0x00, 0x00, 0x1c, 0xd5, 0xff, 0xff, 0x00, 0x00, 0x0e, 0x00,
  0x14, 0x00, 0x00, 0x00, 0x08, 0x00, 0x0c, 0x00, 0x07, 0x00, 0x10, 0x00,
  0x0e, 0x00, 0x00, 0x00, 0x00, 0x00, 0x00, 0x01, 0x30, 0x00, 0x00, 0x00,
  0x24, 0x00, 0x00, 0x00, 0x10, 0x00, 0x00, 0x00, 0x0c, 0x00, 0x10, 0x00,
  0x00, 0x00, 0x04, 0x00, 0x08, 0x00, 0x0f, 0x00, 0x0c, 0x00, 0x00, 0x00,
  0x01, 0x00, 0x00, 0x00, 0x01, 0x00, 0x00, 0x00, 0x00, 0x00, 0x00, 0x01,
  0x01, 0x00, 0x00, 0x00, 0x0a, 0x00, 0x00, 0x00, 0x03, 0x00, 0x00, 0x00,
  0x00, 0x00, 0x00, 0x00, 0x08, 0x00, 0x00, 0x00, 0x01, 0x00, 0x00, 0x00,
  0x0c, 0x00, 0x10, 0x00, 0x0b, 0x00, 0x00, 0x00, 0x0c, 0x00, 0x04, 0x00,
  0x0c, 0x00, 0x00, 0x00, 0x03, 0x00, 0x00, 0x00, 0x00, 0x00, 0x00, 0x03,
  0x01, 0x00, 0x00, 0x00, 0xf0, 0xd4, 0xff, 0xff, 0x14, 0x00, 0x00, 0x00,
  0x0b, 0x00, 0x00, 0x00, 0x20, 0x00, 0x00, 0x00, 0xb0, 0x00, 0x00, 0x00,
  0x98, 0x00, 0x00, 0x00, 0x04, 0x00, 0x00, 0x00, 0x01, 0x00, 0x00, 0x00,
  0x40, 0x00, 0x00, 0x00, 0x03, 0x00, 0x00, 0x00, 0x08, 0x00, 0x00, 0x00,
  0x7b, 0x00, 0x00, 0x00, 0x73, 0x65, 0x71, 0x75, 0x65, 0x6e, 0x74, 0x69,
  0x61, 0x6c, 0x2f, 0x63, 0x6f, 0x6e, 0x76, 0x32, 0x64, 0x2f, 0x52, 0x65,
  0x6c, 0x75, 0x3b, 0x73, 0x65, 0x71, 0x75, 0x65, 0x6e, 0x74, 0x69, 0x61,
  0x6c, 0x2f, 0x63, 0x6f, 0x6e, 0x76, 0x32, 0x64, 0x2f, 0x42, 0x69, 0x61,
  0x73, 0x41, 0x64, 0x64, 0x3b, 0x73, 0x65, 0x71, 0x75, 0x65, 0x6e, 0x74,
  0x69, 0x61, 0x6c, 0x2f, 0x63, 0x6f, 0x6e, 0x76, 0x32, 0x64, 0x2f, 0x43,
  0x6f, 0x6e, 0x76, 0x32, 0x44, 0x3b, 0x73, 0x65, 0x71, 0x75, 0x65, 0x6e,
  0x74, 0x69, 0x61, 0x6c, 0x2f, 0x63, 0x6f, 0x6e, 0x76, 0x32, 0x64, 0x2f,
  0x42, 0x69, 0x61, 0x73, 0x41, 0x64, 0x64, 0x2f, 0x52, 0x65, 0x61, 0x64,
  0x56, 0x61, 0x72, 0x69, 0x61, 0x62, 0x6c, 0x65, 0x4f, 0x70, 0x2f, 0x72,
  0x65, 0x73, 0x6f, 0x75, 0x72, 0x63, 0x65, 0x00, 0x04, 0x00, 0x00, 0x00,
  0xff, 0xff, 0xff, 0xff, 0x40, 0x00, 0x00, 0x00, 0x03, 0x00, 0x00, 0x00,
  0x08, 0x00, 0x00, 0x00, 0x44, 0xd5, 0xff, 0xff, 0x4e, 0xd6, 0xff, 0xff,
  0x04, 0x00, 0x00, 0x00, 0x00, 0x08, 0x00, 0x00, 0x5c, 0x77, 0x0d, 0x3e,
  0x5c, 0xbb, 0xc4, 0xbd, 0x6a, 0x4e, 0x2d, 0xbd, 0x9e, 0xcb, 0x81, 0xbe,
  0xa6, 0x1c, 0x4b, 0xbe, 0x9f, 0xb6, 0x93, 0xbd, 0x6e, 0x90, 0x80, 0x3e,
  0xa8, 0xc2, 0x96, 0x3e, 0x9c, 0xad, 0xc5, 0x3c, 0x17, 0x57, 0x3b, 0x3e,
  0x55, 0xa1, 0xf6, 0xbd, 0xe0, 0xc1, 0x06, 0xbc, 0x62, 0xee, 0x9e, 0xbd,
  0x67, 0xd1, 0xf7, 0xbd, 0x6c, 0x40, 0x19, 0xbd, 0x81, 0x3d, 0x49, 0x3e,
  0xb4, 0x61, 0xa7, 0xbd, 0x10, 0x5a, 0xf3, 0x3d, 0xa9, 0x32, 0x36, 0x3e,
  0x3d, 0xb5, 0x41, 0x3e, 0x23, 0x2e, 0x36, 0x3e, 0xed, 0x87, 0xb0, 0xbd,
  0x62, 0x09, 0xdc, 0xbd, 0x76, 0x65, 0x15, 0xbe, 0x27, 0x53, 0x06, 0xbd,
  0x60, 0x85, 0x71, 0xbe, 0xad, 0xb0, 0x41, 0xbe, 0x1f, 0xcf, 0x27, 0xbd,
  0x09, 0xf8, 0x3f, 0x3e, 0x33, 0x79, 0xec, 0xbd, 0xbb, 0xf0, 0xa5, 0x3c,
  0xcd, 0x39, 0x82, 0xbe, 0xec, 0x42, 0x78, 0x3e, 0xab, 0x04, 0x0b, 0x3d,
  0xdc, 0xb4, 0x1a, 0xbe, 0xc9, 0xd4, 0x98, 0x3d, 0xa2, 0x89, 0xc2, 0x3e,
  0x1c, 0xd0, 0x32, 0x3d, 0x53, 0x5e, 0x22, 0x3c, 0x5e, 0x2b, 0xbc, 0x3d,
  0x3e, 0x8e, 0x08, 0xbe, 0x9d, 0xc5, 0x40, 0x3e, 0x15, 0xdd, 0x2c, 0xbe,
  0xf8, 0x1f, 0x2c, 0xbe, 0xe2, 0x33, 0x60, 0x3e, 0xba, 0xc4, 0x10, 0x3c,
  0x43, 0x4c, 0x79, 0x3e, 0xd7, 0xfb, 0x19, 0xbe, 0x13, 0xf8, 0x6f, 0x3e,
  0xe9, 0x83, 0xa2, 0xbd, 0x87, 0xbb, 0x2d, 0xbe, 0x05, 0x8d, 0x27, 0xbd,
  0x22, 0x09, 0x16, 0x3d, 0xb2, 0x49, 0x86, 0x3d, 0x3c, 0xbd, 0x03, 0xbe,
  0x7e, 0xda, 0xe9, 0x3c, 0xbb, 0x3b, 0x35, 0xbd, 0x98, 0xee, 0x31, 0x3e,
  0x4b, 0x20, 0x02, 0xbe, 0xf4, 0xd1, 0xfe, 0xbd, 0x79, 0x89, 0xbc, 0x3d,
  0xf8, 0x79, 0x51, 0xbc, 0x6a, 0x9d, 0xb1, 0xbd, 0xa4, 0x6f, 0xf1, 0x3d,
  0xa6, 0xc2, 0xa4, 0xbe, 0x07, 0x17, 0x2d, 0xbe, 0x06, 0x19, 0x08, 0xbe,
  0x2e, 0xe2, 0xe7, 0x3d, 0x44, 0xf7, 0xca, 0xbe, 0x31, 0xd7, 0x35, 0xbf,
  0x0e, 0x16, 0x0b, 0xbf, 0xe6, 0xec, 0x48, 0xbe, 0x2a, 0xe6, 0xe4, 0xba,
  0x96, 0x65, 0x20, 0x3e, 0xaf, 0x11, 0x22, 0x3e, 0x69, 0x6b, 0x6e, 0x3e,
  0xee, 0x60, 0xb7, 0x3e, 0x7f, 0x56, 0x1b, 0x3c, 0xfc, 0xb5, 0xc5, 0xbd,
  0xf6, 0xf7, 0x5c, 0x3e, 0x4c, 0x2f, 0x96, 0xbd, 0x25, 0x02, 0xa8, 0x3b,
  0x04, 0x32, 0xa0, 0x3d, 0xae, 0x8b, 0xfa, 0xbc, 0x47, 0x49, 0x35, 0xbe,
  0xed, 0x33, 0x93, 0xbd, 0x8e, 0x36, 0x03, 0x3e, 0xb3, 0x81, 0x35, 0x3e,
  0x63, 0xd2, 0x71, 0x3c, 0x44, 0xcd, 0x92, 0xbd, 0x35, 0x69, 0x2a, 0xbd,
  0xc7, 0x0a, 0xbd, 0xbd, 0x0d, 0x0d, 0xd2, 0xbc, 0x90, 0x4b, 0x77, 0xbc,
  0x39, 0x82, 0xaf, 0x3d, 0xf9, 0x13, 0x45, 0x3e, 0x5d, 0x99, 0xa5, 0x3d,
  0x32, 0x0b, 0xa0, 0xbe, 0x4c, 0x46, 0xf0, 0xbc, 0x87, 0x9a, 0x5a, 0x3e,
  0x63, 0x33, 0x20, 0xbe, 0x8e, 0x2d, 0x09, 0x3e, 0x76, 0x18, 0xb1, 0xbd,
  0xc7, 0xdb, 0xc0, 0xbd, 0xbe, 0x66, 0x1c, 0x3d, 0x2c, 0x9e, 0x2e, 0x3e,
  0x73, 0xf6, 0x82, 0xbe, 0x4e, 0x06, 0x09, 0xbf, 0x7a, 0xcf, 0x85, 0xbe,
  0x5a, 0xd1, 0xcf, 0x3c, 0xca, 0x85, 0x01, 0x3e, 0x12, 0x97, 0x90, 0xbe,
  0xfe, 0x2f, 0xa0, 0xbd, 0xcb, 0x76, 0x92, 0xbe, 0x5b, 0x42, 0x4d, 0x3e,
  0x65, 0x11, 0x10, 0xbe, 0x21, 0x60, 0xee, 0x3d, 0x57, 0x83, 0x5f, 0xbe,
  0x1f, 0xae, 0x8b, 0xbd, 0x4c, 0xfd, 0x26, 0xbe, 0x7c, 0x91, 0xb2, 0xbe,
  0xeb, 0x44, 0xa5, 0x3d, 0x9c, 0x2f, 0xd0, 0xbd, 0x30, 0x32, 0x3d, 0xbd,
  0x60, 0xf9, 0x25, 0x3e, 0x3c, 0x0f, 0x3a, 0xbd, 0xd8, 0x18, 0x13, 0xbe,
  0x2f, 0x42, 0xbd, 0xbd, 0xea, 0xf5, 0x1d, 0xbe, 0xb1, 0x8b, 0x6a, 0xbe,
  0x53, 0x28, 0xc9, 0xbd, 0x01, 0x7b, 0x95, 0xbc, 0x0c, 0xc4, 0xbf, 0xbe,
  0x9e, 0x9b, 0xcd, 0xbe, 0xf0, 0xe7, 0xa3, 0xbe, 0x48, 0x29, 0xac, 0xbe,
  0xdd, 0x9a, 0x92, 0x3e, 0x56, 0x36, 0xf6, 0x3d, 0xa4, 0x7e, 0xc2, 0x3e,
  0x2a, 0x4d, 0x3c, 0x3e, 0x28, 0xf6, 0x6e, 0x3e, 0x2e, 0x07, 0xf1, 0xbd,
  0xbc, 0xbf, 0x54, 0x3e, 0x2e, 0xe2, 0xc1, 0x3d, 0x69, 0x44, 0xe7, 0x3d,
  0x91, 0xbc, 0x7f, 0x3d, 0x71, 0x90, 0x49, 0x3d, 0x67, 0x43, 0x4e, 0xbe,
  0x82, 0xfc, 0xfe, 0x3c, 0xe4, 0x94, 0x80, 0x3b, 0x67, 0x11, 0xfe, 0xbc,
  0x92, 0xdf, 0x1a, 0x3e, 0xa8, 0xe6, 0x4c, 0xbd, 0xec, 0xba, 0xef, 0xbd,
  0xab, 0x28, 0x08, 0xbc, 0x81, 0x51, 0x12, 0xbe, 0xe8, 0xca, 0x06, 0xbe,
  0xce, 0x2a, 0x67, 0xbc, 0xac, 0x21, 0x07, 0xbd, 0x6e, 0x65, 0x85, 0x3d,
  0x89, 0x9d, 0x97, 0x3c, 0xe4, 0xe2, 0xc7, 0x3c, 0x0e, 0xce, 0xc0, 0xbb,
  0x19, 0x71, 0x50, 0xbc, 0xbf, 0xd3, 0xca, 0x3e, 0x9e, 0x82, 0x0a, 0x3e,
  0xc3, 0x87, 0xf5, 0xbd, 0x86, 0x21, 0x63, 0xbe, 0x43, 0xa0, 0x84, 0x3d,
  0x55, 0x36, 0x65, 0x3e, 0x72, 0x80, 0xb0, 0xbd, 0x6b, 0xb2, 0xc3, 0xbd,
  0x36, 0xc7, 0x9d, 0x3c, 0x52, 0x83, 0x86, 0xbd, 0x0b, 0x53, 0x07, 0xbe,
  0xf8, 0x54, 0x55, 0xbe, 0xed, 0xa4, 0x69, 0xbe, 0x89, 0x09, 0x88, 0xbe,
  0x25, 0x99, 0x71, 0xbe, 0xc4, 0x8a, 0x48, 0xbe, 0xe3, 0x49, 0x70, 0x3d,
  0xf9, 0xba, 0xc6, 0xbd, 0xca, 0x47, 0x6f, 0xbe, 0x7a, 0x6d, 0x98, 0xbe,
  0x75, 0x8d, 0x3c, 0x3e, 0x9c, 0xe2, 0x91, 0x3e, 0x81, 0x0c, 0xcb, 0xbe,
  0x74, 0x44, 0x82, 0xbe, 0x9f, 0xcd, 0x3f, 0x3e, 0x88, 0x95, 0xa5, 0x3c,
  0x0e, 0xbd, 0x59, 0x3e, 0xd9, 0xd6, 0xf5, 0xbe, 0x55, 0x74, 0x7c, 0xbd,
  0x2c, 0xe7, 0x27, 0x3e, 0xef, 0xfa, 0x86, 0x3d, 0x70, 0x10, 0x9b, 0x3d,
  0x74, 0x70, 0x81, 0x3d, 0xae, 0x3b, 0x86, 0xbc, 0xe4, 0x87, 0xd7, 0xbd,
  0x42, 0x73, 0x9b, 0x3d, 0xf2, 0xbe, 0x53, 0xbe, 0x3f, 0xaa, 0x27, 0xbe,
  0xd0, 0x98, 0x61, 0xbd, 0xa9, 0x28, 0x93, 0xbe, 0x72, 0x93, 0x08, 0xbf,
  0x89, 0x52, 0x4e, 0xbd, 0x99, 0x5b, 0x28, 0x3e, 0x05, 0xd1, 0x38, 0xbe,
  0xb2, 0x04, 0xd7, 0x3d, 0xb4, 0x3a, 0xa2, 0xbd, 0x3b, 0xbf, 0x1d, 0xbe,
  0x3e, 0xb8, 0x40, 0xbe, 0xb5, 0xdf, 0xd9, 0xbe, 0x48, 0x23, 0x44, 0x3d,
  0x68, 0x04, 0x5e, 0xbe, 0x88, 0xfa, 0x9a, 0x3e, 0x63, 0x2e, 0xfc, 0xbd,
  0x4f, 0x3e, 0x1f, 0x3d, 0xd0, 0xbc, 0x9d, 0xbd, 0x25, 0xc2, 0x5a, 0x3d,
  0x62, 0xef, 0x55, 0x3d, 0xfe, 0x02, 0xcb, 0xbe, 0x3d, 0x1e, 0x64, 0xbe,
  0x74, 0xf2, 0x42, 0xbe, 0xe6, 0x95, 0xca, 0xbd, 0xb5, 0xde, 0xe8, 0x3e,
  0x04, 0x6b, 0x5e, 0x3e, 0xea, 0xf8, 0x0c, 0x3e, 0x9e, 0x5a, 0x91, 0x3e,
  0x9c, 0x18, 0x1c, 0xbe, 0x87, 0x78, 0x51, 0xbe, 0x94, 0xe9, 0x45, 0x3e,
  0xb4, 0x49, 0xb3, 0xbd, 0x00, 0x88, 0xbe, 0xbc, 0xa6, 0x49, 0xbc, 0x3e,
  0xfe, 0x07, 0xdd, 0x3e, 0x23, 0xf0, 0xdf, 0x3e, 0x9c, 0x9e, 0x2d, 0x3d,
  0x0f, 0xd7, 0x84, 0xbe, 0x90, 0x49, 0x1b, 0x3e, 0x5b, 0xff, 0x25, 0xbe,
  0x8a, 0x3f, 0xcd, 0x3d, 0xe1, 0x10, 0x14, 0xbc, 0x75, 0x2b, 0xaa, 0xbc,
  0xd4, 0xa1, 0xf8, 0xbc, 0x1b, 0x17, 0xd2, 0xbe, 0x2a, 0x03, 0x91, 0xbe,
  0xb6, 0x40, 0xf3, 0xbd, 0x28, 0x0f, 0xd8, 0x3b, 0xbf, 0x64, 0x0b, 0x3e,
  0x7e, 0x5d, 0x77, 0x3c, 0x9c, 0x08, 0x70, 0x3e, 0xff, 0x9a, 0xfc, 0xbd,
  0x76, 0x42, 0xdd, 0xbe, 0xb2, 0x7a, 0x06, 0xbf, 0x84, 0x7e, 0x89, 0xbd,
  0xb9, 0x97, 0x50, 0xbe, 0x87, 0x60, 0xce, 0x3e, 0x95, 0x07, 0x44, 0xbf,
  0x94, 0x39, 0x81, 0x3e, 0xa9, 0x06, 0x34, 0xbe, 0xf2, 0x20, 0xf6, 0xb8,
  0x0d, 0xb3, 0x37, 0xbe, 0x96, 0xaa, 0x96, 0xbe, 0x98, 0x76, 0xbc, 0xbe,
  0xe8, 0x7c, 0xa7, 0x3d, 0xb2, 0x77, 0x21, 0xc0, 0x6b, 0xc8, 0x98, 0xbe,
  0xbc, 0x47, 0x6a, 0xbf, 0x26, 0x7c, 0x18, 0x3e, 0xed, 0xdb, 0x01, 0xbd,
  0x01, 0xab, 0x36, 0xbe, 0xa6, 0x8f, 0x88, 0xbd, 0xc8, 0x11, 0x07, 0x3e,
  0x78, 0x19, 0x26, 0xc0, 0xd6, 0x92, 0x93, 0xbe, 0xc4, 0xa5, 0x90, 0xbe,
  0x74, 0xc8, 0xc7, 0x3c, 0x0a, 0xf7, 0x7b, 0x3b, 0xfe, 0xc8, 0x53, 0x3e,
  0x56, 0xd2, 0x48, 0x3e, 0xf9, 0x11, 0x67, 0x3c, 0xe0, 0x13, 0x17, 0xc0,
  0x4d, 0x34, 0x00, 0xbf, 0x4b, 0x11, 0x5e, 0x3e, 0x8c, 0x9f, 0x2e, 0x3e,
  0x6c, 0xce, 0x2c, 0x3e, 0xb6, 0x60, 0x1f, 0x3f, 0xe3, 0xdc, 0xe1, 0x3d,
  0x8f, 0xcc, 0x08, 0xbf, 0x28, 0x49, 0x11, 0xbe, 0xff, 0xdc, 0xdb, 0xbe,
  0xe9, 0x60, 0xf4, 0x3d, 0x93, 0xd2, 0xe1, 0xbd, 0x3d, 0xdc, 0x6e, 0x3e,
  0x72, 0x56, 0xdd, 0x3d, 0x0d, 0x24, 0xa5, 0x3e, 0x90, 0x32, 0x93, 0xbe,
  0xea, 0x1a, 0x52, 0xbe, 0x64, 0xbe, 0x85, 0xbe, 0x26, 0x2e, 0x44, 0x3d,
  0x88, 0x27, 0x0f, 0xbe, 0xa7, 0x24, 0x52, 0x3d, 0xb0, 0xb3, 0xfc, 0xba,
  0xd0, 0x86, 0xf1, 0xbc, 0xb3, 0x7b, 0x13, 0x3c, 0x10, 0x3d, 0xa1, 0xbd,
  0x4e, 0x40, 0x91, 0xbe, 0x5b, 0xe2, 0x2f, 0x3e, 0x95, 0x8a, 0xb6, 0xbd,
  0x87, 0x99, 0x80, 0x3d, 0xb5, 0x1c, 0x3a, 0xbd, 0xb4, 0xf2, 0xbd, 0xbd,
  0x80, 0x19, 0xef, 0xbc, 0x82, 0xb5, 0xa6, 0xbd, 0x13, 0x3a, 0xcf, 0xbd,
  0xfb, 0x2f, 0x49, 0xbe, 0x73, 0xd9, 0x82, 0xbd, 0xc8, 0xe0, 0x87, 0x3a,
  0x2f, 0x59, 0xa0, 0x3d, 0xf8, 0x41, 0x30, 0xbd, 0xb8, 0x6e, 0x72, 0x3e,
  0x07, 0xd7, 0x84, 0xbe, 0x05, 0x65, 0x9f, 0x3d, 0xc1, 0xf3, 0x0f, 0xbf,
  0x2d, 0xa0, 0x9a, 0xbd, 0x84, 0xb2, 0xa1, 0x3c, 0x28, 0x53, 0x31, 0xbe,
  0xc5, 0xb8, 0xa2, 0xbd, 0x4a, 0x6c, 0x97, 0xbd, 0x63, 0xe2, 0x42, 0xbf,
  0x56, 0xea, 0xf8, 0xbe, 0xd9, 0x72, 0x10, 0xbf, 0x96, 0x4e, 0x65, 0x3e,
  0xce, 0xe6, 0x45, 0xbd, 0x3f, 0x2a, 0x08, 0xbf, 0x7d, 0xf8, 0x1d, 0xbe,
  0xed, 0xba, 0xd0, 0x3e, 0xd2, 0x4f, 0x00, 0xc0, 0xe3, 0x24, 0x8d, 0xbf,
  0x68, 0x5a, 0xbb, 0xbf, 0x33, 0x1c, 0x8a, 0xbd, 0x7e, 0x9b, 0xcc, 0xbc,
  0xb4, 0x75, 0x40, 0xbf, 0xc5, 0xf2, 0x79, 0x3e, 0xb8, 0x14, 0x69, 0xbd,
  0x4e, 0xc1, 0xfa, 0xbf, 0x08, 0x0d, 0x4a, 0xbf, 0x4e, 0x58, 0x5f, 0xbf,
  0xc8, 0xde, 0xd4, 0xbc, 0x55, 0x76, 0x6d, 0x3e, 0xa4, 0x65, 0x98, 0xbe,
  0xe2, 0x31, 0x13, 0x3d, 0x37, 0xe7, 0x82, 0x3d, 0xd5, 0x30, 0x92, 0x3e,
  0x29, 0x6d, 0x9c, 0xbd, 0xdb, 0x69, 0xb2, 0x3e, 0x21, 0xed, 0xe7, 0x3d,
  0xf2, 0x9c, 0x86, 0x3d, 0x87, 0x5a, 0x9a, 0xba, 0x9d, 0x94, 0x86, 0xbd,
  0x98, 0xb6, 0x83, 0x3d, 0x9d, 0x87, 0x3c, 0xbc, 0xe5, 0x2e, 0x8b, 0x3e,
  0x18, 0xcd, 0x5a, 0xbc, 0x11, 0x99, 0x94, 0x3a, 0xce, 0x0b, 0x6b, 0x3d,
  0x7b, 0xb0, 0x44, 0xbe, 0xbd, 0xce, 0xea, 0x3d, 0x82, 0x3d, 0x20, 0xbe,
  0x67, 0xee, 0x76, 0xbe, 0x46, 0xc2, 0xa9, 0x3d, 0xf1, 0x43, 0x81, 0xbd,
  0xf4, 0xbf, 0xc3, 0x3c, 0x44, 0x3e, 0x01, 0xbe, 0xf0, 0x4e, 0xcc, 0xbd,
  0x21, 0x00, 0xdf, 0xbd, 0x9e, 0xf4, 0x92, 0xbd, 0xd0, 0xb0, 0x9c, 0x3d,
  0x80, 0x7e, 0x3e, 0xbe, 0x24, 0x71, 0x93, 0x3d, 0x8b, 0xfa, 0x14, 0x3d,
  0xa9, 0x4a, 0xd1, 0x3c, 0xfc, 0xea, 0x7f, 0xbe, 0x12, 0xfc, 0xd3, 0xbd,
  0x8d, 0xe2, 0x7a, 0xbe, 0x8f, 0xc1, 0x2d, 0xbe, 0x0b, 0x01, 0x87, 0xbe,
  0x83, 0x13, 0x54, 0x3e, 0xab, 0xb5, 0x5a, 0x3d, 0x8e, 0xf4, 0x04, 0x3d,
  0xbd, 0xa8, 0x9e, 0xbe, 0xbf, 0x08, 0x70, 0xbe, 0x8f, 0x72, 0xc8, 0xbd,
  0x6f, 0x2b, 0xf2, 0x3d, 0xd7, 0x88, 0x2c, 0xbe, 0x9c, 0xfd, 0x11, 0x3e,
  0x1a, 0xef, 0x44, 0x3a, 0x9d, 0x76, 0x1b, 0xbe, 0xc7, 0xe7, 0x30, 0xbe,
  0x16, 0xef, 0x91, 0xbe, 0x23, 0x02, 0xaf, 0x3d, 0x0d, 0xf9, 0x99, 0x3d,
  0x39, 0x21, 0x8f, 0x3e, 0x29, 0x24, 0x9d, 0x3e, 0x1a, 0x62, 0xa5, 0xbc,
  0xa2, 0x78, 0x3d, 0x3c, 0x75, 0xce, 0x20, 0x3e, 0xe2, 0x25, 0x24, 0xbd,
  0xd6, 0xd4, 0x9f, 0xbe, 0xb1, 0x21, 0xaf, 0xbe, 0x1b, 0x70, 0x13, 0xbd,
  0xd7, 0xcc, 0x46, 0xbe, 0x19, 0xfa, 0xb1, 0xbe, 0x83, 0xcb, 0x9f, 0xbe,
  0x3c, 0xf9, 0x3c, 0xbe, 0x1e, 0x3b, 0xe1, 0xbe, 0x0c, 0x87, 0x44, 0xbe,
  0x9b, 0xb5, 0xa2, 0x3d, 0x95, 0xbb, 0xb7, 0x3d, 0x7f, 0xad, 0x20, 0xbe,
  0x3c, 0x66, 0xa3, 0xbf, 0x62, 0x81, 0x95, 0xbf, 0x71, 0x47, 0x53, 0xbe,
  0x16, 0x8c, 0x6f, 0x3e, 0x8f, 0x61, 0xe5, 0x3d, 0xcd, 0x93, 0x38, 0xbe,
  0x9b, 0x49, 0x2c, 0x3d, 0x8d, 0xe8, 0xb6, 0x3e, 0x69, 0x9b, 0xe3, 0xbe,
  0x07, 0xa0, 0xed, 0x3d, 0x43, 0x67, 0x89, 0x3d, 0xb2, 0x43, 0x49, 0x3d,
  0x74, 0x0b, 0x95, 0xbd, 0xc9, 0xe7, 0x16, 0x3e, 0x48, 0x62, 0xa2, 0x3e,
  0xbe, 0xeb, 0x9d, 0x3c, 0xf6, 0xb1, 0x9e, 0xbe, 0x4f, 0xc1, 0xe8, 0xbb,
  0x26, 0x90, 0x51, 0x3e, 0x2b, 0x6a, 0xfc, 0x3b, 0x46, 0x12, 0x74, 0x3e,
  0x00, 0x3b, 0x0c, 0x3e, 0x25, 0x5a, 0x61, 0x3e, 0xd9, 0x76, 0x67, 0x3e,
  0x84, 0x44, 0x85, 0xbe, 0xd1, 0x99, 0x14, 0xbc, 0xe5, 0x63, 0x89, 0x3d,
  0x90, 0x92, 0x60, 0xbe, 0xd8, 0x81, 0x61, 0x3e, 0xba, 0xb2, 0x31, 0x3e,
  0x41, 0xe1, 0x3f, 0xbe, 0xf3, 0x63, 0x64, 0x3e, 0x60, 0xb3, 0x03, 0xbe,
  0x7a, 0x68, 0x80, 0xbd, 0x56, 0xd8, 0x38, 0x3d, 0x3c, 0xf4, 0x35, 0xbd,
  0x7f, 0xd8, 0x44, 0xbc, 0x2b, 0x21, 0xe2, 0x3e, 0x6f, 0x63, 0xcc, 0x3e,
  0xf4, 0x79, 0xa0, 0x3c, 0x90, 0x87, 0x28, 0xbc, 0x29, 0xe8, 0x8d, 0xbd,
  0xb5, 0xb3, 0x2b, 0x3e, 0x74, 0x67, 0xe4, 0xbb, 0x64, 0x8d, 0x60, 0x3e,
  0xd6, 0x6c, 0x69, 0x3d, 0x27, 0x99, 0xc2, 0x3d, 0xc7, 0xc9, 0x95, 0x3e,
  0x72, 0x40, 0xef, 0xbe, 0x88, 0xe7, 0xb4, 0xbe, 0x9a, 0xa8, 0xab, 0x3c,
  0x55, 0x2c, 0x01, 0xbe, 0x99, 0x1b, 0x93, 0x3d, 0x8c, 0x22, 0x60, 0x3e,
  0x32, 0x7a, 0x90, 0x3e, 0xde, 0x0d, 0xe0, 0x3d, 0x29, 0x80, 0x81, 0xbe,
  0x17, 0xef, 0x9d, 0xbe, 0xe8, 0xac, 0x36, 0x3e, 0x42, 0x41, 0x98, 0x3e,
  0x1c, 0x36, 0x50, 0xbe, 0x44, 0x32, 0x8b, 0xbc, 0x93, 0xd1, 0xc8, 0x3d,
  0x2c, 0xad, 0x10, 0xbe, 0x61, 0x72, 0x19, 0xbe, 0x17, 0x03, 0x3b, 0x3e,
  0xdd, 0x48, 0x11, 0x3d, 0x25, 0x7d, 0xc3, 0x3d, 0xaa, 0x64, 0x95, 0x3d,
  0xe2, 0x2f, 0x86, 0x3e, 0x3a, 0x0a, 0xd7, 0x3e, 0xf0, 0x24, 0x9a, 0x3e,
  0xa9, 0x8d, 0xc6, 0xbd, 0x5b, 0xdd, 0xb2, 0x3c, 0xc2, 0xd5, 0xc4, 0x3e,
  0x27, 0xef, 0x5a, 0x3d, 0x5a, 0xa9, 0x6f, 0xbe, 0xac, 0x81, 0xa7, 0xbe,
  0x12, 0xce, 0x4d, 0x3b, 0x21, 0xa9, 0x9b, 0xbe, 0x5b, 0xd5, 0x36, 0xbd,
  0x3f, 0x16, 0xd1, 0x3c, 0x2a, 0x02, 0xa0, 0xbd, 0x20, 0xed, 0xc2, 0xbd,
  0x99, 0xbf, 0x36, 0xbe, 0x39, 0xb0, 0x7b, 0xbc, 0xcd, 0x87, 0xa8, 0xbc,
  0x3a, 0xf8, 0xdb, 0xbd, 0x0c, 0x64, 0xbd, 0xbd, 0x73, 0x48, 0xe9, 0xbc,
  0x78, 0x1d, 0x1a, 0xbe, 0x26, 0xde, 0xff, 0xff, 0x10, 0x00, 0x00, 0x00,
  0x0a, 0x00, 0x00, 0x00, 0x1c, 0x00, 0x00, 0x00, 0x38, 0x00, 0x00, 0x00,
  0x04, 0x00, 0x00, 0x00, 0x10, 0x00, 0x00, 0x00, 0x04, 0x00, 0x00, 0x00,
  0x01, 0x00, 0x00, 0x00, 0x08, 0x00, 0x00, 0x00, 0x1a, 0x00, 0x00, 0x00,
  0x73, 0x65, 0x71, 0x75, 0x65, 0x6e, 0x74, 0x69, 0x61, 0x6c, 0x2f, 0x63,
  0x6f, 0x6e, 0x76, 0x32, 0x64, 0x5f, 0x31, 0x2f, 0x43, 0x6f, 0x6e, 0x76,
  0x32, 0x44, 0x00, 0x00, 0x9c, 0xdd, 0xff, 0xff, 0xa6, 0xde, 0xff, 0xff,
  0x04, 0x00, 0x00, 0x00, 0x80, 0x01, 0x00, 0x00, 0xbf, 0xd6, 0x91, 0x3e,
  0x28, 0x85, 0x8b, 0x3c, 0x7e, 0x15, 0x66, 0xbe, 0x5c, 0x5d, 0x20, 0x3e,
  0x2f, 0x45, 0x06, 0xbd, 0xe3, 0xfc, 0xad, 0xbe, 0x04, 0xf7, 0xd2, 0x3e,
  0xbf, 0x80, 0x4f, 0x3e, 0x1e, 0x43, 0x67, 0xbe, 0x59, 0xd0, 0xbd, 0x3e,
  0xe0, 0x51, 0xb2, 0xbd, 0x05, 0x31, 0xa1, 0x3d, 0x07, 0x0c, 0x38, 0x3d,
  0xb2, 0xdd, 0x3f, 0x3d, 0x61, 0x8f, 0x86, 0xbe, 0x92, 0xec, 0x0a, 0xbe,
  0x8c, 0x79, 0x08, 0x3d, 0xbd, 0xe9, 0x8e, 0xbe, 0x18, 0x57, 0x97, 0xbc,
  0xea, 0xf9, 0xd4, 0x3d, 0x58, 0x49, 0x0f, 0x3d, 0x2a, 0xbe, 0x19, 0xbe,
  0x54, 0x59, 0xf0, 0xbd, 0x25, 0x84, 0x5a, 0xbe, 0x6a, 0x6b, 0xa6, 0x3d,
  0xf2, 0x5c, 0x45, 0x3d, 0x0a, 0x8b, 0x2e, 0xbd, 0x79, 0xde, 0xef, 0xbc,
  0x64, 0x63, 0x53, 0xbe, 0x2e, 0x07, 0x1e, 0x3e, 0xae, 0x49, 0x16, 0xbd,
  0xcd, 0xa6, 0x00, 0xbe, 0x65, 0x4b, 0x26, 0xbe, 0xbc, 0x4e, 0xda, 0xbc,
  0x49, 0xa9, 0xa8, 0xbe, 0x5c, 0xf5, 0x0b, 0x3b, 0x7e, 0xf5, 0xc0, 0xbd,
  0x07, 0x3b, 0xb8, 0x3d, 0x3c, 0x5b, 0xf2, 0xbd, 0x92, 0xf9, 0x33, 0xbe,
  0x48, 0x8b, 0xcf, 0xbd, 0xe5, 0xc2, 0x32, 0x3d, 0xb0, 0x36, 0x9d, 0xbe,
  0x13, 0xad, 0x4d, 0xbe, 0x37, 0x50, 0x00, 0xbc, 0x4e, 0x17, 0x49, 0x3e,
  0x0c, 0x5a, 0x47, 0x3e, 0xf7, 0xf4, 0x43, 0xbe, 0x22, 0x55, 0x1b, 0xbf,
  0x62, 0x6c, 0x7b, 0xbc, 0x06, 0xed, 0x8d, 0xbe, 0xcb, 0x8b, 0x16, 0x3e,
  0xd7, 0x50, 0xd2, 0xbd, 0x4c, 0x97, 0x9e, 0xbe, 0x22, 0x59, 0xc7, 0x3c,
  0x7e, 0xc9, 0xbc, 0xbc, 0xb1, 0x54, 0x3d, 0x3d, 0x62, 0x01, 0xf0, 0x3e,
  0x63, 0x07, 0xc6, 0x3d, 0xc2, 0xab, 0x93, 0x3d, 0x0e, 0x1a, 0x0d, 0x3d,
  0x39, 0x8b, 0x51, 0x3e, 0x52, 0x0c, 0xd4, 0xbe, 0x02, 0xa3, 0xd7, 0x3d,
  0xfb, 0x51, 0x9f, 0x3d, 0xc6, 0x47, 0x90, 0x3d, 0x47, 0xb5, 0x58, 0xbd,
  0x01, 0xf1, 0xc8, 0x3d, 0x89, 0x6f, 0xbc, 0xbe, 0x07, 0x82, 0xc7, 0xbd,
  0x48, 0x99, 0x28, 0xbe, 0x4f, 0x79, 0xf4, 0xbc, 0xe8, 0xa8, 0x8e, 0x3e,
  0xea, 0xe5, 0x8f, 0x3d, 0xa5, 0xa9, 0x3e, 0xbd, 0xa7, 0xab, 0xb5, 0x3e,
  0x21, 0x88, 0xde, 0x3d, 0x0b, 0x4e, 0xcb, 0xbe, 0xfa, 0xf3, 0x40, 0x3d,
  0x8d, 0x35, 0x87, 0x3d, 0xca, 0x0b, 0x98, 0xbe, 0xf0, 0x40, 0xe5, 0x3e,
  0x3b, 0x81, 0xf8, 0xbd, 0xa9, 0xf8, 0x82, 0x3e, 0x93, 0xd5, 0x22, 0x3e,
  0x19, 0xd1, 0x94, 0xbe, 0x13, 0x7d, 0xf3, 0x3b, 0x0a, 0x34, 0x37, 0x3e,
  0xaa, 0x02, 0x79, 0xbe, 0xed, 0x1b, 0x47, 0xbe, 0x74, 0x0a, 0x80, 0x3e,
  0xd9, 0x63, 0xbe, 0x3c, 0x34, 0x3c, 0x3a, 0x3d, 0x4e, 0xea, 0x91, 0x3e,
  0xe8, 0xf7, 0x8a, 0x3d, 0xdf, 0x89, 0x0d, 0x3e, 0xfe, 0xdf, 0xff, 0xff,
  0x10, 0x00, 0x00, 0x00, 0x09, 0x00, 0x00, 0x00, 0x1c, 0x00, 0x00, 0x00,
  0x38, 0x00, 0x00, 0x00, 0x04, 0x00, 0x00, 0x00, 0x08, 0x00, 0x00, 0x00,
  0x04, 0x00, 0x00, 0x00, 0x03, 0x00, 0x00, 0x00, 0x01, 0x00, 0x00, 0x00,
  0x18, 0x00, 0x00, 0x00, 0x73, 0x65, 0x71, 0x75, 0x65, 0x6e, 0x74, 0x69,
  0x61, 0x6c, 0x2f, 0x63, 0x6f, 0x6e, 0x76, 0x32, 0x64, 0x2f, 0x43, 0x6f,
  0x6e, 0x76, 0x32, 0x44, 0x00, 0x00, 0x00, 0x00, 0x74, 0xdf, 0xff, 0xff,
  0x7e, 0xe0, 0xff, 0xff, 0x04, 0x00, 0x00, 0x00, 0xc0, 0x00, 0x00, 0x00,
  0xbe, 0xad, 0x2d, 0x3e, 0x6f, 0xfa, 0x91, 0xbe, 0x52, 0x43, 0x96, 0x3e,
  0x75, 0x11, 0x8a, 0x3c, 0x3e, 0x0f, 0xd8, 0x3d, 0xb2, 0xc2, 0xae, 0x3d,
  0x06, 0x44, 0x0c, 0xbc, 0x25, 0x72, 0xe8, 0x3e, 0x10, 0x44, 0x9d, 0x3e,
  0x4e, 0xa9, 0x0b, 0xbe, 0x2c, 0x18, 0xec, 0x3d, 0x3c, 0x84, 0x82, 0x3c,
  0xff, 0x9d, 0xc2, 0x3e, 0x4b, 0xe8, 0x56, 0xbd, 0x5b, 0xdf, 0xc5, 0x3e,
  0xac, 0x65, 0xeb, 0x3d, 0x21, 0x2e, 0x84, 0xbe, 0xac, 0x99, 0xae, 0xbe,
  0x49, 0x12, 0xd1, 0x3e, 0xc2, 0xf0, 0x04, 0xbc, 0xe4, 0xc6, 0x27, 0xbe,
  0x72, 0x5b, 0xd3, 0x3d, 0x45, 0xd5, 0x13, 0x3e, 0xc2, 0xe7, 0x52, 0xbd,
  0x70, 0x36, 0x90, 0x3e, 0x0d, 0x42, 0x1d, 0xbe, 0xb3, 0xd5, 0x5f, 0xbc,
  0x45, 0x9b, 0x6f, 0x3e, 0x7c, 0x4e, 0xb8, 0x3e, 0x7a, 0x94, 0x83, 0xbd,
  0x06, 0x17, 0x5d, 0x3b, 0xcf, 0xb2, 0xe3, 0x3d, 0xcb, 0x9b, 0xcd, 0xbe,
  0x5f, 0x12, 0xa6, 0xbe, 0x98, 0x21, 0xb0, 0x3e, 0xc8, 0x18, 0x66, 0x3d,
  0x43, 0x42, 0xce, 0x3d, 0x7d, 0xdf, 0xc8, 0x3d, 0xa2, 0x5a, 0x67, 0x3d,
  0x6d, 0x38, 0xd9, 0xbe, 0x3e, 0xd3, 0x85, 0x3e, 0x1d, 0x2c, 0xb6, 0xbd,
  0x64, 0x9d, 0x99, 0x3d, 0xe7, 0x6f, 0x1d, 0x3e, 0x1a, 0xd3, 0xd0, 0x3e,
  0x10, 0x79, 0x39, 0xbd, 0x67, 0x6d, 0x9d, 0x3e, 0x92, 0x7b, 0x3d, 0x3e,
  0x16, 0xe1, 0xff, 0xff, 0x10, 0x00, 0x00, 0x00, 0x08, 0x00, 0x00, 0x00,
  0x14, 0x00, 0x00, 0x00, 0x30, 0x00, 0x00, 0x00, 0x02, 0x00, 0x00, 0x00,
  0x03, 0x00, 0x00, 0x00, 0x10, 0x00, 0x00, 0x00, 0x19, 0x00, 0x00, 0x00,
  0x73, 0x65, 0x71, 0x75, 0x65, 0x6e, 0x74, 0x69, 0x61, 0x6c, 0x2f, 0x64,
  0x65, 0x6e, 0x73, 0x65, 0x5f, 0x31, 0x2f, 0x4d, 0x61, 0x74, 0x4d, 0x75,
  0x6c, 0x00, 0x00, 0x00, 0x84, 0xe0, 0xff, 0xff, 0x8e, 0xe1, 0xff, 0xff,
  0x04, 0x00, 0x00, 0x00, 0x00, 0x1c, 0x00, 0x00, 0x5c, 0x9b, 0x0b, 0xbe,
  0x2a, 0x63, 0x51, 0xbe, 0x15, 0x1a, 0x8e, 0x3d, 0x96, 0x30, 0x0e, 0x3e,
  0xd6, 0x71, 0x1a, 0xbe, 0xf6, 0xba, 0xa8, 0xbd, 0x3b, 0xf1, 0x2a, 0x3e,
  0x5b, 0x93, 0x8c, 0x3d, 0xec, 0xa2, 0x63, 0xbd, 0x90, 0x24, 0xfd, 0x3c,
  0xa7, 0xa7, 0xb4, 0xbe, 0x91, 0xb1, 0x91, 0xbd, 0x9a, 0x14, 0x36, 0x3d,
  0x34, 0x6a, 0x0b, 0xbe, 0x73, 0xd8, 0xd6, 0x3d, 0x3c, 0xe8, 0x13, 0xbe,
  0x8e, 0x5d, 0xfe, 0x3d, 0x84, 0xcf, 0xd9, 0x3d, 0xfb, 0x6e, 0xda, 0xbd,
  0xd4, 0xdc, 0xd6, 0x3d, 0xba, 0x12, 0x44, 0xbe, 0x9b, 0x29, 0x09, 0xbe,
  0xf2, 0xbf, 0xcf, 0xbd, 0x59, 0x3d, 0x03, 0xbe, 0x55, 0x76, 0x59, 0xbc,
  0xcd, 0xf8, 0x16, 0xbe, 0xbb, 0x14, 0xf4, 0xbd, 0xc2, 0x9c, 0xab, 0x3c,
  0x09, 0x38, 0xf1, 0xba, 0x0a, 0x0d, 0x51, 0x3d, 0x71, 0xdd, 0xc4, 0x3d,
  0xbe, 0x59, 0xeb, 0xbd, 0xb0, 0xab, 0x0b, 0xbe, 0x93, 0xb6, 0xc2, 0xbc,
  0x8e, 0x54, 0x83, 0xbe, 0xca, 0x50, 0x20, 0xbd, 0x39, 0xbc, 0x11, 0xbd,
  0xc1, 0x0b, 0x27, 0xbe, 0x5c, 0xe1, 0xf4, 0x3d, 0x50, 0x09, 0x88, 0x3d,
  0xe9, 0x65, 0xa4, 0x3d, 0x66, 0x1f, 0x67, 0xbe, 0xaf, 0x0a, 0x03, 0x3d,
  0x93, 0x0e, 0x95, 0xbe, 0x00, 0x8f, 0x31, 0x3d, 0xeb, 0xc1, 0x8e, 0xbe,
  0x0f, 0x22, 0xea, 0x3c, 0x70, 0x16, 0x73, 0xbd, 0xc1, 0xda, 0x61, 0x3d,
  0xe4, 0x54, 0xa1, 0xbd, 0x77, 0xa5, 0x04, 0x3e, 0x3b, 0xc7, 0x21, 0xbd,
  0xf7, 0x58, 0x85, 0xbc, 0x6c, 0x24, 0x23, 0xbe, 0x5f, 0x28, 0x0b, 0x3d,
  0x9d, 0x06, 0x04, 0xbe, 0x45, 0xe6, 0x88, 0xbd, 0x37, 0xb1, 0xf8, 0x3d,
  0xd5, 0xc3, 0x02, 0x3d, 0x7c, 0xe7, 0xab, 0x3a, 0x5f, 0x24, 0x48, 0xbd,
  0xdb, 0xe4, 0x24, 0xbe, 0x87, 0x89, 0x7d, 0xbd, 0x16, 0x50, 0x72, 0xbe,
  0xe3, 0xb2, 0xea, 0x3d, 0x2c, 0xfe, 0x69, 0x3d, 0xde, 0x50, 0x35, 0x3c,
  0x77, 0xc4, 0x14, 0x3e, 0x3f, 0x19, 0x21, 0xbe, 0x46, 0xde, 0xe7, 0x3d,
  0x9c, 0xa8, 0xc5, 0xbd, 0x89, 0xef, 0x66, 0xbe, 0xd9, 0x6d, 0x49, 0xbe,
  0x0e, 0x8b, 0xaa, 0x3c, 0x42, 0xbb, 0x7d, 0xbe, 0x83, 0xd1, 0x8f, 0xbe,
  0x29, 0x96, 0x66, 0xbe, 0x1a, 0x74, 0x04, 0x3e, 0x6b, 0xdf, 0x15, 0x3e,
  0x4c, 0x16, 0x47, 0xbe, 0x19, 0xa3, 0x1b, 0xbe, 0x2f, 0x4b, 0xdd, 0xbd,
  0xea, 0x67, 0xca, 0xbd, 0x0b, 0x76, 0xaa, 0xbd, 0x94, 0xf2, 0x8f, 0xbe,
  0xe9, 0x20, 0x1d, 0xbc, 0x4c, 0xa0, 0xfb, 0x3d, 0xb3, 0x68, 0x03, 0x3e,
  0x27, 0x8d, 0x0b, 0x3e, 0x74, 0x4a, 0xc8, 0x3d, 0xb4, 0xf1, 0x38, 0xbe,
  0x83, 0xe0, 0xe9, 0xbd, 0xd5, 0x9a, 0x40, 0xbe, 0x14, 0x75, 0x3e, 0xbe,
  0x28, 0x88, 0xe5, 0xbd, 0xf4, 0xa3, 0x39, 0xbe, 0x51, 0x95, 0xb6, 0x3d,
  0x30, 0x4e, 0x3a, 0xbe, 0xd9, 0xf6, 0x31, 0xbe, 0xcc, 0xf9, 0x4a, 0x3c,
  0x19, 0xb3, 0x29, 0xbe, 0x27, 0xb8, 0xcb, 0xbd, 0x3d, 0x06, 0xa7, 0x3d,
  0xc6, 0x3e, 0xa8, 0x3d, 0xbd, 0x3f, 0x0c, 0xbd, 0x91, 0xf2, 0x1e, 0x3d,
  0x4f, 0xb2, 0x2b, 0xbe, 0x80, 0x27, 0x56, 0xbe, 0xfb, 0x84, 0x24, 0xbd,
  0x29, 0x3a, 0x3f, 0xbd, 0xdd, 0xc8, 0x12, 0xbe, 0xf6, 0x63, 0x3b, 0xbe,
  0xb9, 0x5b, 0xcb, 0xbd, 0xa0, 0x2a, 0x4a, 0x3d, 0x93, 0x90, 0x05, 0xbe,
  0x68, 0x9f, 0x41, 0x3a, 0xaa, 0x6a, 0xc2, 0xbe, 0x51, 0xca, 0xb9, 0x3d,
  0x50, 0xe2, 0x42, 0x3e, 0x08, 0x5f, 0x9d, 0xbe, 0xed, 0xfe, 0x90, 0x3e,
  0xb4, 0x0d, 0x29, 0x3e, 0xfd, 0x79, 0x8c, 0x3e, 0x60, 0x3b, 0xe6, 0xbd,
  0x07, 0x21, 0x27, 0xbe, 0x62, 0x96, 0x53, 0xbe, 0xa8, 0x62, 0x55, 0xbe,
  0xcf, 0x49, 0x15, 0xbe, 0x84, 0xed, 0xde, 0x3b, 0xa0, 0x0b, 0x66, 0xbd,
  0xd4, 0x09, 0x1f, 0xbe, 0x09, 0x8f, 0x8d, 0x3e, 0x36, 0x27, 0xc0, 0xbd,
  0x5c, 0xeb, 0x66, 0xbd, 0x25, 0x4d, 0x3c, 0xbc, 0xeb, 0x4f, 0x04, 0xbe,
  0x63, 0xa3, 0x31, 0x3d, 0x9f, 0xb2, 0xef, 0x3d, 0xe7, 0x03, 0x7b, 0x3d,
  0x9d, 0x49, 0x3c, 0xbe, 0xcb, 0x16, 0x62, 0xbc, 0xbe, 0x69, 0x50, 0xbe,
  0x19, 0xaf, 0xa1, 0xbe, 0xa9, 0xfc, 0x54, 0xbe, 0xbe, 0xb5, 0x47, 0xbe,
  0xfb, 0xfd, 0xf8, 0xbd, 0x3f, 0xdc, 0x52, 0xbc, 0xd5, 0x89, 0x9f, 0x3e,
  0xc6, 0x31, 0x18, 0xbe, 0x25, 0x88, 0xf1, 0xbc, 0x54, 0x29, 0xb1, 0x3d,
  0x4c, 0xcf, 0x3a, 0x3d, 0x62, 0x98, 0xf9, 0x3d, 0x1a, 0xf2, 0xe1, 0x3d,
  0x9c, 0xcf, 0x76, 0xbd, 0xae, 0xfe, 0x43, 0xbe, 0x2a, 0xc9, 0xa2, 0x3a,
  0x6b, 0x4b, 0x91, 0xbc, 0x69, 0x88, 0x62, 0xbd, 0xba, 0x67, 0x20, 0xbe,
  0x9e, 0x79, 0x23, 0x3d, 0x4e, 0xcb, 0x3d, 0xbe, 0x65, 0x75, 0x09, 0xbe,
  0x16, 0x8c, 0xdc, 0x3d, 0xcc, 0x6e, 0x20, 0xbe, 0xcb, 0x59, 0x46, 0x3e,
  0x6a, 0xb2, 0xac, 0xbd, 0x3d, 0xde, 0xa0, 0x3d, 0xe4, 0x01, 0x05, 0xbe,
  0xb2, 0x5e, 0xd8, 0xbc, 0xc7, 0x64, 0x49, 0xbd, 0x04, 0x14, 0xe0, 0x3c,
  0x1d, 0x78, 0x10, 0x3e, 0xc8, 0x86, 0x81, 0x3d, 0x6f, 0x8a, 0x12, 0xbd,
  0x12, 0xac, 0x2c, 0xbe, 0x5e, 0xc1, 0xcc, 0x3a, 0x61, 0xfe, 0xb3, 0xbd,
  0xf8, 0x0a, 0x82, 0xbe, 0xaf, 0xe7, 0xa2, 0x3e, 0x61, 0x3f, 0xef, 0x3d,
  0x95, 0xf8, 0xa3, 0x3d, 0xa2, 0x89, 0x60, 0x3e, 0x66, 0x53, 0x63, 0xbd,
  0x28, 0xc7, 0xa2, 0x3d, 0xdd, 0xd6, 0x86, 0x3b, 0xff, 0x04, 0x70, 0x3e,
  0xc1, 0x93, 0xc2, 0xbd, 0x65, 0x88, 0x39, 0xbe, 0x66, 0xb6, 0xa8, 0xbd,
  0xdf, 0x06, 0xb3, 0xbd, 0xdc, 0xf1, 0x25, 0xbe, 0x82, 0x0a, 0x16, 0xbe,
  0xe5, 0x22, 0x08, 0xbe, 0x46, 0x53, 0x5c, 0x3c, 0x6a, 0x8e, 0x8c, 0x3d,
  0xe3, 0x89, 0x6f, 0x3d, 0xf0, 0x0d, 0x2f, 0xbd, 0x7f, 0x28, 0xbf, 0x3c,
  0xdf, 0x48, 0xbc, 0x3c, 0x64, 0x3b, 0x7a, 0xbd, 0xa4, 0x14, 0x36, 0x3d,
  0x6e, 0xf2, 0xc2, 0x3d, 0xc4, 0x4a, 0xd6, 0xbd, 0x3d, 0xec, 0x46, 0xbe,
  0xc2, 0xb8, 0x84, 0x3e, 0xf5, 0xe7, 0x41, 0xbb, 0x23, 0x88, 0x71, 0xbe,
  0xd6, 0xe9, 0x20, 0xbe, 0x1f, 0x40, 0xcc, 0xbd, 0xe9, 0xc5, 0x3b, 0x3e,
  0xbb, 0xdb, 0x66, 0xbe, 0x4f, 0x85, 0x75, 0xbd, 0xe7, 0xe8, 0x4f, 0xbe,
  0xba, 0x76, 0x87, 0xbe, 0x62, 0x4b, 0x92, 0x3e, 0xa6, 0xfe, 0x27, 0xbe,
  0xbb, 0xf0, 0xa7, 0xbe, 0x1c, 0x0f, 0x9c, 0xbe, 0x83, 0x6c, 0x53, 0x3d,
  0xd9, 0x87, 0xaf, 0x3e, 0xf5, 0x57, 0x41, 0x3a, 0x17, 0x86, 0x89, 0x3d,
  0x78, 0xb5, 0x0c, 0x3e, 0x21, 0xc1, 0x3b, 0xbf, 0x58, 0xc8, 0x02, 0xbf,
  0x79, 0x76, 0xbd, 0xbe, 0x73, 0x74, 0x4f, 0x3e, 0x68, 0x18, 0x08, 0xbf,
  0xab, 0xbb, 0x84, 0x3e, 0xbf, 0xb9, 0x92, 0xbe, 0x8f, 0x0f, 0x3a, 0x3c,
  0x92, 0x47, 0x8b, 0x3d, 0x32, 0xa9, 0x32, 0xbf, 0x13, 0xd5, 0x2f, 0x3d,
  0x89, 0xae, 0x8a, 0xbe, 0x49, 0xe9, 0x6f, 0xbd, 0x83, 0x47, 0x24, 0xbf,
  0x2d, 0x98, 0x76, 0xbd, 0x81, 0x45, 0x17, 0xbf, 0x5e, 0x39, 0x38, 0xbe,
  0x56, 0x8d, 0xae, 0xbd, 0x0c, 0xe8, 0xac, 0x3e, 0xc0, 0xfd, 0xd6, 0xbd,
  0x12, 0xb8, 0x1a, 0x3c, 0xb3, 0x87, 0x6c, 0x3d, 0xbd, 0xd3, 0x22, 0xbd,
  0x0e, 0x39, 0x43, 0xbe, 0x4f, 0x4e, 0x18, 0x3e, 0x60, 0xc4, 0x1d, 0xbe,
  0x0a, 0x82, 0xdb, 0xbc, 0x85, 0x99, 0xd9, 0xbd, 0x71, 0x52, 0xed, 0x3d,
  0x60, 0x7b, 0xd4, 0x3d, 0x89, 0xd0, 0xa1, 0xbd, 0x70, 0x60, 0xc1, 0xbd,
  0x12, 0x38, 0x85, 0xbc, 0x95, 0x54, 0xc2, 0xbc, 0xd8, 0x08, 0xf1, 0x3d,
  0xc6, 0x55, 0x0a, 0x3d, 0x6b, 0x4d, 0xfa, 0x3d, 0x33, 0xbb, 0xb6, 0x3d,
  0xc6, 0x4d, 0x76, 0xbd, 0xac, 0xe6, 0x02, 0xbe, 0xb0, 0xa2, 0x3a, 0xbd,
  0x16, 0xcc, 0xd6, 0x3d, 0xbd, 0x51, 0xf6, 0xbd, 0x22, 0xa0, 0xcc, 0xbb,
  0x04, 0xbd, 0x01, 0xbe, 0xe3, 0x04, 0x91, 0xbe, 0x35, 0x54, 0x4a, 0xbe,
  0x23, 0xdc, 0x72, 0xbd, 0x40, 0x7e, 0x28, 0xbd, 0x5b, 0x11, 0xa8, 0x3b,
  0xa5, 0xad, 0x5d, 0x3d, 0xcc, 0x73, 0x91, 0xbe, 0x73, 0x7f, 0x02, 0xbe,
  0x61, 0xca, 0x15, 0x3e, 0x5d, 0xf0, 0x54, 0xbc, 0xe7, 0x70, 0xb5, 0xbe,
  0xca, 0x67, 0x2c, 0x3d, 0x78, 0x44, 0xac, 0x3c, 0x4f, 0x29, 0x56, 0xbd,
  0x34, 0x28, 0x33, 0x3c, 0xac, 0x7c, 0xf4, 0xbd, 0xf1, 0x59, 0x01, 0xbe,
  0xef, 0x85, 0xa9, 0xbe, 0x71, 0x71, 0x8a, 0x3d, 0xdf, 0x5f, 0x6a, 0xbc,
  0x54, 0xad, 0x79, 0xbd, 0x1c, 0x0e, 0x0b, 0x3e, 0xb0, 0xc9, 0x92, 0xbc,
  0x91, 0x90, 0x96, 0xbd, 0xbd, 0xb7, 0x24, 0x3e, 0xc1, 0xa1, 0x86, 0x3d,
  0x1b, 0x37, 0x89, 0xbe, 0x11, 0xc3, 0x06, 0xbe, 0xb2, 0x5e, 0xe2, 0x3d,
  0x85, 0x00, 0x2f, 0xbe, 0x37, 0x69, 0x2d, 0x3c, 0xb4, 0xc3, 0x65, 0x3c,
  0x39, 0x7e, 0xae, 0xbc, 0xf7, 0x6e, 0xcb, 0xbd, 0xef, 0xeb, 0x61, 0xbd,
  0x5a, 0x0a, 0xe1, 0x3d, 0xaf, 0xbb, 0x27, 0x3e, 0x09, 0xf2, 0x1c, 0x3d,
  0x79, 0x17, 0x39, 0xbe, 0xf5, 0x7e, 0x8e, 0x3d, 0xc8, 0x23, 0x66, 0xbd,
  0xc4, 0x11, 0x6c, 0x3d, 0x3e, 0xc6, 0xda, 0xbe, 0xb4, 0x0f, 0xb1, 0x3e,
  0x51, 0x06, 0x91, 0x3d, 0xd2, 0xcc, 0x17, 0xbe, 0x31, 0xe7, 0xbe, 0x3d,
  0x8c, 0x33, 0x30, 0xbd, 0xa7, 0x42, 0x2c, 0xbe, 0x77, 0x28, 0xd4, 0xbd,
  0x40, 0x4a, 0xcb, 0x3c, 0x07, 0x58, 0x83, 0x3e, 0x2d, 0xbf, 0xe6, 0x3d,
  0x97, 0x2d, 0xcd, 0x3d, 0x80, 0xb6, 0x3b, 0xbc, 0x46, 0x83, 0x05, 0x3c,
  0xf4, 0xba, 0xee, 0xbe, 0x9e, 0x8a, 0x92, 0x3e, 0xef, 0x20, 0xb2, 0xbe,
  0xc9, 0x5c, 0xa0, 0x3e, 0x41, 0x6e, 0xcd, 0x3d, 0x82, 0xdb, 0xd5, 0xbe,
  0x47, 0xbf, 0xcf, 0xbd, 0x5a, 0xe4, 0xb3, 0x3d, 0x1e, 0xb0, 0x17, 0xbe,
  0x93, 0xcc, 0x87, 0xbe, 0x06, 0xaf, 0xf5, 0x3d, 0x9d, 0xb2, 0x23, 0xbe,
  0x31, 0xa8, 0xe8, 0x3d, 0x4f, 0x23, 0x73, 0xbd, 0x08, 0x9e, 0x61, 0xbe,
  0x07, 0x81, 0x43, 0x3e, 0x79, 0xd6, 0x3f, 0xbd, 0x7f, 0x76, 0x91, 0x3e,
  0xb5, 0xed, 0x2f, 0x3e, 0xe7, 0xa3, 0x15, 0xbe, 0x52, 0x31, 0x01, 0x3e,
  0x5e, 0x03, 0xb5, 0xbe, 0x50, 0x32, 0xf8, 0xbd, 0x6a, 0x75, 0x15, 0xbe,
  0x9a, 0xf0, 0x96, 0x3e, 0x74, 0x58, 0x1c, 0x3d, 0xf0, 0x37, 0xb4, 0x3d,
  0x4e, 0x32, 0x04, 0x3e, 0x50, 0xfa, 0x42, 0xbd, 0x76, 0x33, 0xc0, 0x3d,
  0x9b, 0x24, 0x8a, 0x3d, 0x82, 0x62, 0x25, 0xbe, 0x9a, 0x73, 0x26, 0x3d,
  0x78, 0x54, 0x10, 0xbe, 0x82, 0x82, 0xf6, 0xbd, 0x3d, 0xe3, 0x15, 0xbe,
  0xb5, 0x94, 0x03, 0x3e, 0x52, 0x9a, 0x2c, 0x3d, 0xc5, 0x50, 0x94, 0xbd,
  0x80, 0x69, 0x9a, 0xbe, 0x11, 0x65, 0xcf, 0x3c, 0x98, 0xcc, 0x81, 0x3c,
  0xa2, 0xe2, 0x6c, 0xbe, 0xd5, 0x89, 0xc3, 0xbc, 0x0c, 0xed, 0x70, 0x3d,
  0xc0, 0x42, 0x29, 0xbe, 0x0d, 0x6e, 0xd6, 0x3d, 0xc8, 0x75, 0x4f, 0xbc,
  0x74, 0xef, 0x27, 0xbe, 0x9c, 0x07, 0x6d, 0x3d, 0x14, 0x58, 0x9a, 0x3d,
  0x26, 0x04, 0xc2, 0xbd, 0x20, 0xfd, 0xce, 0x3d, 0xcc, 0xf5, 0x15, 0x3e,
  0x1c, 0x72, 0x29, 0x3d, 0x6a, 0xbe, 0x20, 0xbe, 0x32, 0x5b, 0xf7, 0x3c,
  0x8d, 0xb0, 0x13, 0xbe, 0xcd, 0x68, 0x17, 0x3d, 0x38, 0xba, 0x6a, 0xbe,
  0x17, 0xaf, 0xdc, 0xbc, 0xa3, 0x1a, 0xcc, 0x3d, 0x11, 0xb1, 0xfd, 0xbd,
  0xf3, 0x53, 0x89, 0xbe, 0x11, 0xf1, 0x76, 0x3d, 0x73, 0x55, 0x4e, 0x3e,
  0x62, 0x4b, 0x07, 0x3d, 0x9b, 0x32, 0x64, 0xbe, 0xc4, 0xf1, 0x31, 0xbe,
  0x44, 0xc3, 0xae, 0x3d, 0xf7, 0x54, 0x31, 0xbe, 0x39, 0x29, 0x25, 0xbe,
  0x9d, 0x1a, 0xdc, 0x3c, 0xb9, 0x43, 0x18, 0x3e, 0x4b, 0x27, 0x1e, 0x3d,
  0x92, 0x63, 0x4e, 0x3d, 0xdf, 0x42, 0xb7, 0xbd, 0x5c, 0x44, 0xd1, 0xbd,
  0x83, 0xff, 0x7d, 0x3e, 0x1e, 0x2e, 0x07, 0xbe, 0x90, 0xa7, 0x3f, 0x3e,
  0x19, 0xc5, 0x7d, 0x3e, 0xdb, 0xc4, 0x75, 0xbe, 0x35, 0x76, 0x8e, 0xbe,
  0x45, 0xa5, 0x6a, 0xbc, 0xa5, 0x42, 0x14, 0xbe, 0xd2, 0xb6, 0x42, 0xbe,
  0x00, 0x8f, 0x5f, 0xbd, 0x83, 0x19, 0xaa, 0x3d, 0x58, 0x2c, 0x74, 0xbd,
  0xde, 0xa9, 0x3a, 0xbe, 0x4d, 0x02, 0x96, 0xbd, 0xcd, 0x63, 0x20, 0xbe,
  0x49, 0xd2, 0x76, 0xbd, 0x17, 0x51, 0xd6, 0x3e, 0x92, 0x41, 0x34, 0xbb,
  0x4a, 0x01, 0xff, 0xbd, 0x78, 0x7e, 0x56, 0x3e, 0x64, 0xa2, 0x16, 0xbe,
  0x05, 0x68, 0x84, 0x3c, 0x45, 0x47, 0x4c, 0xbe, 0x09, 0x07, 0xce, 0x3d,
  0x7d, 0xe5, 0x51, 0xbe, 0x38, 0x24, 0x8a, 0xbe, 0x01, 0x09, 0x5e, 0xbe,
  0x4b, 0xe7, 0x69, 0xbe, 0x15, 0x48, 0xbb, 0xbd, 0xcc, 0xd0, 0xfd, 0xbd,
  0x69, 0xf9, 0x1e, 0xbe, 0x8e, 0x51, 0x32, 0xbe, 0xfd, 0x38, 0x5a, 0xbe,
  0x83, 0x56, 0xfd, 0xbd, 0x10, 0x64, 0x94, 0x3e, 0x12, 0x74, 0xa3, 0x3d,
  0x85, 0xe3, 0x11, 0xbe, 0x7b, 0xa8, 0xbb, 0xbd, 0x65, 0x3f, 0x29, 0xbc,
  0x54, 0xe6, 0x8d, 0xb8, 0x1d, 0x6a, 0xbd, 0xbd, 0x14, 0xaa, 0xc6, 0x3d,
  0x11, 0x68, 0x02, 0xbe, 0xd8, 0x8e, 0x5b, 0xbd, 0xa4, 0x68, 0x86, 0xbb,
  0x05, 0xcf, 0x15, 0x3e, 0x6d, 0x61, 0x05, 0xbe, 0xf6, 0x74, 0x99, 0xbe,
  0x19, 0xf6, 0xbb, 0x3e, 0xbe, 0x06, 0x85, 0xbd, 0xba, 0x5c, 0x1b, 0xbe,
  0xd0, 0x53, 0x12, 0x3e, 0x94, 0xb9, 0x1d, 0x3e, 0xad, 0xe4, 0xa6, 0xbe,
  0x8a, 0x2c, 0x0e, 0x3d, 0x57, 0x1d, 0x29, 0xbe, 0x6a, 0x1d, 0x94, 0x3c,
  0xf6, 0x67, 0x9f, 0xbe, 0xe1, 0xd5, 0x59, 0x3d, 0xc5, 0x9e, 0xbb, 0xbd,
  0x89, 0x27, 0x59, 0xbe, 0x89, 0xeb, 0x76, 0x3e, 0xd9, 0xd4, 0x56, 0x3d,
  0x24, 0x6c, 0x21, 0xbe, 0x4a, 0xe4, 0x03, 0x3e, 0xc5, 0x6a, 0x02, 0x3d,
  0x34, 0x4a, 0xf3, 0xbd, 0x55, 0xa1, 0x9c, 0xbc, 0xf0, 0x95, 0x4e, 0xbe,
  0x25, 0x9c, 0x24, 0x3d, 0x1c, 0xa0, 0xf4, 0x3c, 0x5d, 0x5c, 0x88, 0x3b,
  0xc6, 0x11, 0x41, 0xbe, 0x6f, 0x58, 0x20, 0xbe, 0xe2, 0x7a, 0x79, 0x3d,
  0x73, 0x4b, 0xb4, 0xbe, 0xad, 0xc4, 0x38, 0x3e, 0x32, 0xc1, 0x5c, 0x3e,
  0x6e, 0xfc, 0x08, 0xbc, 0xc4, 0x07, 0x00, 0xbd, 0x27, 0xf2, 0x83, 0x3e,
  0x2e, 0x7d, 0xd5, 0xbd, 0x8f, 0x9a, 0x69, 0x3d, 0x25, 0xb7, 0x82, 0x3d,
  0xa8, 0xff, 0xa1, 0x3d, 0x6d, 0xbe, 0x65, 0x3b, 0x6a, 0xc0, 0xed, 0xbd,
  0xcc, 0xe2, 0x1b, 0xbe, 0x29, 0xe4, 0x68, 0xbe, 0xd1, 0x77, 0x4b, 0xbc,
  0x3c, 0x91, 0x9f, 0xbe, 0x44, 0x03, 0x93, 0xbe, 0xae, 0x83, 0xfa, 0xbd,
  0x30, 0xfc, 0x5c, 0x3d, 0x1a, 0x10, 0x66, 0xbd, 0x43, 0xcc, 0x67, 0xbe,
  0xb5, 0x76, 0x05, 0x3e, 0xbc, 0x28, 0x90, 0xbc, 0xf0, 0xbc, 0x73, 0x3e,
  0x12, 0x42, 0x76, 0xbd, 0x7e, 0xd2, 0xc1, 0x3d, 0x3e, 0x22, 0x33, 0x3d,
  0xf8, 0xea, 0x4a, 0x3e, 0xd9, 0x89, 0x91, 0xbe, 0x35, 0xb6, 0x4b, 0xbe,
  0x1a, 0x34, 0x8a, 0xbe, 0xcd, 0xb6, 0x44, 0xbe, 0xbf, 0x35, 0xe6, 0x3c,
  0x89, 0x2b, 0x95, 0xbd, 0x60, 0xc6, 0x95, 0x3e, 0xb0, 0x81, 0xa0, 0xbe,
  0xfd, 0x10, 0x0e, 0x3e, 0x2f, 0xd4, 0x42, 0xbe, 0x18, 0xfa, 0xe3, 0xbc,
  0x42, 0x4c, 0x06, 0xbe, 0x53, 0x8f, 0xc8, 0xbd, 0x6b, 0x31, 0xa7, 0xbd,
  0xeb, 0x40, 0x90, 0x3d, 0xa5, 0xba, 0x2f, 0xbd, 0x9d, 0x5c, 0xcf, 0x3d,
  0x06, 0x81, 0x1f, 0xbc, 0x76, 0xae, 0x16, 0x3e, 0xc6, 0xcd, 0xf9, 0xbd,
  0x48, 0x17, 0x5f, 0xbe, 0x22, 0x34, 0x7a, 0xbe, 0x2d, 0x8c, 0x55, 0xbe,
  0x80, 0xa8, 0x6e, 0xbe, 0x95, 0x4b, 0xd4, 0xbd, 0x05, 0x06, 0xcf, 0x3e,
  0x6b, 0x5f, 0x05, 0x3c, 0x47, 0x59, 0xfb, 0x3c, 0x8b, 0xa0, 0xa9, 0x3b,
  0x10, 0x81, 0xd5, 0xbe, 0xf7, 0x1c, 0x28, 0xbe, 0x58, 0x90, 0x99, 0xbe,
  0x46, 0x94, 0x23, 0xbd, 0xc6, 0xbf, 0x38, 0x3d, 0xd7, 0x57, 0xd5, 0xbe,
  0xd5, 0xaf, 0x9c, 0xbe, 0x80, 0xad, 0xdc, 0xbe, 0xe0, 0xff, 0xc1, 0x3d,
  0xd9, 0x93, 0x2b, 0xbe, 0x96, 0x41, 0x3e, 0xbe, 0x8c, 0xb5, 0x8d, 0x3e,
  0xac, 0x74, 0xf4, 0x3d, 0x12, 0xf8, 0x9e, 0xbe, 0x0a, 0x55, 0xd7, 0x3d,
  0xef, 0x53, 0xa3, 0x3e, 0xd4, 0xe5, 0x20, 0xbb, 0x04, 0x7e, 0xa9, 0xbd,
  0xe0, 0xf2, 0x04, 0xbe, 0x17, 0xa9, 0x50, 0x3e, 0xce, 0x09, 0x65, 0xbe,
  0x38, 0xe0, 0x24, 0x3e, 0xf9, 0x27, 0xa3, 0x3d, 0x99, 0x69, 0xa7, 0xbe,
  0x9b, 0x72, 0x88, 0xbe, 0xcf, 0x6f, 0x7e, 0x3e, 0x6e, 0x3e, 0xc7, 0x3d,
  0x9c, 0x7b, 0x83, 0x3d, 0x4a, 0x1f, 0xdf, 0x3e, 0xf1, 0xbf, 0x48, 0x3e,
  0xc6, 0x42, 0x68, 0x3e, 0x58, 0x4d, 0x1f, 0x3f, 0xa0, 0x17, 0x1f, 0xbe,
  0x54, 0x17, 0xfc, 0xbe, 0x84, 0xc9, 0x55, 0x3e, 0x03, 0x38, 0xd6, 0xbe,
  0x54, 0x4a, 0x51, 0x3b, 0x92, 0x08, 0x1e, 0x3d, 0x44, 0xb1, 0xa6, 0x3e,
  0x28, 0x74, 0x91, 0x3c, 0x7a, 0xcd, 0x03, 0x3e, 0x57, 0xd4, 0x71, 0x3e,
  0xbb, 0xcd, 0x8e, 0x3a, 0x7f, 0x44, 0x71, 0x3e, 0xcd, 0xbc, 0xd5, 0x3e,
  0x87, 0xc6, 0xa6, 0x3d, 0xc5, 0x37, 0xb0, 0xbd, 0xb8, 0x40, 0xb8, 0x3e,
  0x71, 0xa6, 0x15, 0xbe, 0x4f, 0x45, 0xea, 0xbd, 0x75, 0xaa, 0x01, 0x3b,
  0xf5, 0xd1, 0xaf, 0xbe, 0x93, 0x1e, 0xb3, 0x3c, 0xaa, 0xa7, 0xb8, 0x3c,
  0xd5, 0x07, 0xce, 0x3d, 0xb2, 0x8e, 0x7e, 0xbe, 0xaf, 0x3c, 0xe5, 0x3d,
  0x4c, 0x68, 0x06, 0x3e, 0x5d, 0x35, 0x0d, 0xbe, 0xe5, 0x98, 0xae, 0xbd,
  0x33, 0x67, 0x59, 0x3e, 0x4a, 0xfd, 0x91, 0x3e, 0x2a, 0xe0, 0xd7, 0x3d,
  0xbf, 0xc3, 0xa3, 0x3e, 0x02, 0x0b, 0x00, 0x3d, 0xdc, 0x85, 0xab, 0xbe,
  0x84, 0xc0, 0xad, 0xbe, 0x33, 0x33, 0x38, 0xbe, 0x75, 0x49, 0xe3, 0x3d,
  0x02, 0xef, 0x69, 0xbe, 0x4e, 0x1f, 0xea, 0x3c, 0xf1, 0xa7, 0x0e, 0x3e,
  0x8e, 0x7d, 0x4f, 0xbe, 0xcd, 0xb4, 0x02, 0x3e, 0xa0, 0xdd, 0x55, 0xbe,
  0x3e, 0x21, 0x3a, 0x3e, 0x6c, 0x66, 0xc7, 0x3e, 0x4c, 0xcc, 0x44, 0x3c,
  0x92, 0x14, 0x33, 0x3e, 0x3a, 0x77, 0xae, 0x3e, 0x13, 0x6f, 0x62, 0xbe,
  0x74, 0x77, 0xc8, 0xbe, 0x01, 0x5c, 0x69, 0x3d, 0xe4, 0x53, 0xf3, 0x3b,
  0x4f, 0x47, 0xd3, 0xbd, 0x9e, 0xca, 0x27, 0x3d, 0x10, 0x55, 0x1f, 0x3e,
  0xbe, 0x91, 0x4f, 0xbd, 0x99, 0x52, 0x9d, 0x3d, 0x4d, 0x79, 0x52, 0xbe,
  0x6b, 0x95, 0xd8, 0x3c, 0x19, 0x27, 0x95, 0xbd, 0x9d, 0x31, 0x05, 0x3f,
  0x73, 0xdd, 0x0d, 0xbe, 0xef, 0x56, 0x83, 0x3e, 0x92, 0xdc, 0xcc, 0x3e,
  0x6c, 0x0c, 0xf1, 0xbd, 0xa8, 0x10, 0x2d, 0xbe, 0x0c, 0xdd, 0xa1, 0x3e,
  0x40, 0xbd, 0xda, 0xbd, 0xad, 0xd0, 0xab, 0x3d, 0x72, 0x3e, 0x9a, 0x3d,
  0xc8, 0x41, 0x4a, 0x3e, 0x76, 0x43, 0x50, 0xbe, 0x85, 0xc4, 0x35, 0xbe,
  0x86, 0xc6, 0x5f, 0x3d, 0x7b, 0xe7, 0x17, 0x3c, 0xee, 0x04, 0x03, 0x3e,
  0x2d, 0x48, 0xbc, 0x3e, 0x22, 0x06, 0x89, 0xbd, 0x3f, 0xd4, 0xcc, 0xbd,
  0x5e, 0xf1, 0x2a, 0x3c, 0x4a, 0x9d, 0x80, 0xbe, 0x76, 0x77, 0x26, 0xbe,
  0xcb, 0xd6, 0x4e, 0xbb, 0x22, 0xbd, 0x16, 0xbe, 0x46, 0x84, 0x8b, 0x3d,
  0x81, 0x40, 0x04, 0xbe, 0x26, 0xeb, 0x02, 0xbd, 0x8d, 0x1b, 0x18, 0xbe,
  0x2d, 0x18, 0x82, 0xbd, 0x07, 0xe0, 0xf4, 0xbd, 0x89, 0x4c, 0x8a, 0x3c,
  0x73, 0xd2, 0x5b, 0xbe, 0x96, 0x6b, 0xf4, 0x3d, 0xa9, 0xf0, 0x9e, 0xbd,
  0xa5, 0x45, 0x9c, 0x3d, 0xf2, 0x64, 0xb8, 0x3e, 0xb9, 0xbd, 0x18, 0xbe,
  0xb3, 0x2b, 0xaa, 0xbd, 0xf8, 0x58, 0x0e, 0x3e, 0x2c, 0xc1, 0xea, 0x3e,
  0xe8, 0x48, 0xe2, 0xb8, 0x90, 0x10, 0x26, 0xbd, 0xc5, 0x55, 0xa0, 0xbc,
  0x50, 0xc6, 0x0f, 0xbe, 0x57, 0x2c, 0x5c, 0xbe, 0x31, 0x70, 0x0b, 0xbf,
  0x6a, 0x99, 0xaf, 0xbe, 0x0d, 0x06, 0xbb, 0xbe, 0x61, 0xd4, 0x5e, 0xbe,
  0x5b, 0x6b, 0x08, 0xbf, 0xe9, 0x72, 0x8a, 0x3e, 0x89, 0xba, 0x7e, 0xbe,
  0xa1, 0x3e, 0x44, 0xbe, 0x00, 0x59, 0x02, 0x3e, 0x87, 0x16, 0x4a, 0xbf,
  0xce, 0x09, 0xa3, 0xbc, 0x0c, 0x3b, 0x98, 0xbe, 0xae, 0x90, 0x59, 0xbd,
  0xec, 0x9f, 0x31, 0xbf, 0x37, 0xb9, 0x0d, 0xbe, 0x7f, 0xc1, 0x4f, 0xbf,
  0xbb, 0xfb, 0x8a, 0xbd, 0x26, 0x1d, 0x8e, 0x3b, 0x86, 0x90, 0x88, 0x3e,
  0x8d, 0x5c, 0xdb, 0x3d, 0x00, 0xc0, 0x27, 0xbd, 0x6e, 0x2b, 0x94, 0x3d,
  0xe4, 0x37, 0x03, 0xbe, 0x18, 0x5f, 0xb4, 0x3d, 0xfa, 0x34, 0x7e, 0x3e,
  0x13, 0x56, 0x88, 0xbe, 0x68, 0x8a, 0x90, 0xbc, 0xd9, 0xdc, 0x2d, 0xbe,
  0x19, 0x61, 0xe2, 0xbd, 0xbe, 0x74, 0x09, 0x3e, 0x31, 0xb6, 0x89, 0xbd,
  0x46, 0xc9, 0x66, 0xbe, 0x6e, 0x74, 0x84, 0xbd, 0x77, 0xee, 0x80, 0x3c,
  0x18, 0xd9, 0x6f, 0x3e, 0xb6, 0x96, 0x6a, 0x3d, 0xe8, 0x04, 0x3b, 0x3d,
  0x39, 0x11, 0x69, 0xbd, 0xd1, 0x63, 0x69, 0x3d, 0xf3, 0xb2, 0x25, 0xbe,
  0xf8, 0x82, 0xda, 0x3c, 0x6c, 0xe1, 0x92, 0x3d, 0xb6, 0xc6, 0x64, 0xbe,
  0xc6, 0x28, 0x36, 0x3d, 0xe3, 0x84, 0x34, 0x3d, 0x07, 0x2b, 0xd3, 0xbc,
  0xb5, 0xb8, 0xd7, 0x3d, 0x87, 0x9d, 0xba, 0x3d, 0x79, 0xfe, 0xb2, 0x3d,
  0xb1, 0xca, 0x25, 0xbc, 0x42, 0xf1, 0x98, 0x3d, 0x15, 0xde, 0xd2, 0x3d,
  0x7d, 0x49, 0xee, 0xbc, 0x85, 0xe3, 0x1a, 0x3e, 0x29, 0x52, 0x45, 0x3e,
  0x68, 0x9e, 0x75, 0xbe, 0x8b, 0xaa, 0x0b, 0x3e, 0xa0, 0x52, 0x5e, 0xbb,
  0x17, 0xa0, 0x28, 0xbd, 0x33, 0x7a, 0x80, 0xbe, 0xb6, 0x7d, 0x8c, 0x3e,
  0xfe, 0xec, 0x90, 0xbe, 0x2f, 0xb4, 0x14, 0xbe, 0x70, 0xc5, 0xc4, 0xbc,
  0x4c, 0x42, 0xc2, 0x3d, 0x96, 0x15, 0xae, 0x3d, 0x14, 0xbb, 0x20, 0x3e,
  0x2d, 0x0e, 0xba, 0xbc, 0xc1, 0x7e, 0xd6, 0xbd, 0x7a, 0x4b, 0xce, 0xbd,
  0x67, 0xe4, 0x3d, 0xbc, 0x9e, 0x8f, 0x11, 0xbe, 0x94, 0x80, 0x87, 0x3d,
  0x76, 0x3d, 0x05, 0x3d, 0xe9, 0x56, 0x56, 0xbe, 0x81, 0xc5, 0x1f, 0xbe,
  0x4d, 0xab, 0x04, 0x3e, 0xcd, 0xfc, 0xb2, 0xbd, 0x7a, 0x36, 0xb2, 0xbe,
  0x0e, 0xd7, 0xe8, 0x3c, 0x51, 0xd8, 0x75, 0x3d, 0x54, 0x0c, 0x81, 0x3d,
  0x96, 0x3a, 0xcd, 0x3d, 0x9a, 0x83, 0x22, 0x3b, 0xed, 0xac, 0xce, 0x3c,
  0x80, 0x4f, 0x59, 0xb9, 0x3e, 0xed, 0x29, 0x3e, 0xf9, 0x79, 0xaf, 0xbe,
  0x69, 0xed, 0x66, 0x3e, 0xaa, 0x2d, 0x30, 0x3e, 0xab, 0xb9, 0xe7, 0xbe,
  0x69, 0x8d, 0x6f, 0xbd, 0x1d, 0xef, 0x4b, 0xbd, 0xf3, 0xeb, 0x2b, 0xbe,
  0x99, 0x57, 0xb3, 0xbe, 0x59, 0x71, 0xfb, 0x3c, 0x97, 0xc4, 0x9b, 0x3a,
  0x3b, 0xcb, 0xf0, 0x3d, 0x4e, 0x64, 0x48, 0x3e, 0x83, 0x5f, 0x5a, 0xbd,
  0xfe, 0x42, 0x51, 0x3c, 0x36, 0x0c, 0xef, 0xbe, 0x2e, 0x80, 0x8b, 0x3e,
  0x5d, 0x51, 0xd6, 0xbe, 0x83, 0xab, 0x7c, 0xbb, 0xca, 0x9f, 0x77, 0x3c,
  0xf7, 0xa1, 0x76, 0xbe, 0xba, 0x8b, 0x38, 0x3c, 0x87, 0xfd, 0x9e, 0xbd,
  0x22, 0xd7, 0x01, 0xbe, 0x8f, 0x34, 0x1a, 0xbe, 0xd4, 0xbe, 0x48, 0x3d,
  0x76, 0xd7, 0x9e, 0x3d, 0xc4, 0xc9, 0x88, 0x3c, 0x09, 0x3c, 0xa7, 0x3d,
  0x14, 0xdf, 0x51, 0x3d, 0x34, 0xa1, 0x12, 0xbc, 0x40, 0x7c, 0xb2, 0xbd,
  0x24, 0x8c, 0x76, 0x3d, 0x67, 0x16, 0x07, 0x3e, 0x0c, 0x32, 0xcd, 0xbc,
  0x27, 0x20, 0x35, 0xbe, 0x0c, 0x70, 0x1e, 0xbe, 0x40, 0x2a, 0x96, 0xbd,
  0x7b, 0x84, 0xe2, 0x3d, 0xd6, 0x91, 0xed, 0xbd, 0x5b, 0x42, 0x13, 0x3e,
  0xf3, 0xe0, 0x65, 0xbd, 0xea, 0xc4, 0x12, 0xbe, 0x82, 0xe1, 0x99, 0xbd,
  0x68, 0x0b, 0xc8, 0x3d, 0x89, 0xfb, 0xe0, 0xbd, 0xab, 0x77, 0x24, 0xbe,
  0xf4, 0x87, 0x6b, 0xbd, 0x6a, 0xc7, 0x74, 0xbc, 0xd2, 0x52, 0xd6, 0xbd,
  0x51, 0x90, 0x58, 0xbd, 0xd1, 0x41, 0x1e, 0x3e, 0x5e, 0xe1, 0xb9, 0xbc,
  0xa2, 0x66, 0xc0, 0xbd, 0x88, 0x5e, 0x2d, 0xbe, 0x45, 0x45, 0x2c, 0x3d,
  0x5e, 0x42, 0xd6, 0xbd, 0x10, 0x3e, 0x4d, 0xbe, 0x1a, 0xda, 0xa3, 0xbd,
  0xcf, 0x7f, 0xbd, 0x3d, 0x51, 0xf8, 0x5f, 0xbe, 0xd3, 0xa5, 0x60, 0xbe,
  0x16, 0x7e, 0x90, 0xbd, 0xfa, 0x1a, 0x3b, 0x3c, 0xe3, 0xe6, 0x80, 0xbc,
  0x9f, 0xf8, 0xeb, 0xbd, 0xb3, 0xa5, 0x85, 0xbd, 0x6a, 0xe7, 0x62, 0xbe,
  0xaf, 0x3b, 0x0e, 0xbe, 0xbf, 0xea, 0xea, 0xbd, 0x0e, 0x5d, 0x0a, 0x3e,
  0x37, 0x38, 0x54, 0x3d, 0x7c, 0xad, 0x4f, 0xbe, 0x99, 0x40, 0x58, 0x3d,
  0xce, 0x81, 0x84, 0xbe, 0x76, 0xcf, 0x70, 0xbe, 0xb1, 0xeb, 0x59, 0x3d,
  0x86, 0xe7, 0x69, 0x3d, 0x97, 0xbc, 0x67, 0xbe, 0x9e, 0xfe, 0x93, 0xbd,
  0x48, 0xad, 0x42, 0xbe, 0x47, 0xfa, 0x34, 0x3d, 0xa5, 0x60, 0x5e, 0xbd,
  0xe9, 0x80, 0xd0, 0x3d, 0x4e, 0x35, 0x98, 0xbe, 0x19, 0x98, 0xe5, 0x3c,
  0x44, 0x5b, 0x07, 0xbe, 0x00, 0x46, 0x57, 0xbe, 0x40, 0x5f, 0x17, 0x3e,
  0xb4, 0xa4, 0xfa, 0xbd, 0x1b, 0x95, 0xbe, 0xbd, 0xbf, 0x7d, 0x38, 0xbe,
  0x65, 0x9d, 0x00, 0x3e, 0xa9, 0xd1, 0xcc, 0xbd, 0xe5, 0xe4, 0x97, 0xbd,
  0xdd, 0x27, 0xff, 0x3c, 0xd0, 0x4b, 0x06, 0xbe, 0x74, 0x46, 0xb4, 0x3d,
  0x1b, 0xcf, 0x6e, 0xbe, 0x29, 0x35, 0x45, 0xbe, 0xd5, 0xa5, 0x85, 0xbe,
  0xa3, 0x55, 0x3c, 0xbd, 0x3a, 0x13, 0x88, 0xbd, 0x40, 0x7b, 0x55, 0xbe,
  0x43, 0x26, 0x54, 0xbd, 0x45, 0xfa, 0x10, 0xbd, 0xd1, 0x47, 0x42, 0xbe,
  0x0f, 0xf2, 0x9e, 0xbc, 0xde, 0x6d, 0x2c, 0xbe, 0xdf, 0xfb, 0xe2, 0xbc,
  0x24, 0x43, 0x4c, 0xbc, 0x7b, 0x72, 0x68, 0xbd, 0x54, 0x31, 0x46, 0x3e,
  0x80, 0x08, 0xe6, 0x3c, 0x3c, 0xb7, 0x05, 0x3c, 0x7b, 0x04, 0x48, 0xbd,
  0x4b, 0xbb, 0x22, 0xbe, 0xe7, 0xdc, 0x53, 0xbe, 0x91, 0x8c, 0x21, 0x3e,
  0x50, 0x42, 0xd8, 0xba, 0xfc, 0x58, 0x11, 0xbe, 0xd4, 0x96, 0x7f, 0xbe,
  0x55, 0x9b, 0x5a, 0xbe, 0x96, 0xbd, 0x90, 0x3c, 0x93, 0x69, 0x4d, 0xbe,
  0x0e, 0xf5, 0xb2, 0x3d, 0x12, 0x98, 0x76, 0xbe, 0x9d, 0xcc, 0xd2, 0xbc,
  0xc5, 0x5f, 0xff, 0xbd, 0x83, 0x5d, 0xb9, 0xbd, 0x3d, 0x10, 0x8d, 0xbd,
  0x1b, 0x77, 0x48, 0x3d, 0xb8, 0x8a, 0x36, 0xbe, 0x5b, 0x0a, 0x76, 0xbe,
  0xc6, 0x33, 0x67, 0xbe, 0x3f, 0x45, 0xd2, 0xbd, 0xff, 0x20, 0xfc, 0xbd,
  0x3f, 0x10, 0xde, 0xbd, 0xa7, 0xc4, 0xd9, 0x3c, 0x6d, 0xa8, 0xb9, 0x3d,
  0x9d, 0xa4, 0x1f, 0xbf, 0x5d, 0x63, 0xc4, 0x3d, 0x27, 0xa8, 0x1b, 0xbf,
  0x88, 0xfe, 0x76, 0x3e, 0x7e, 0x0c, 0x40, 0xbe, 0xa2, 0x45, 0x2b, 0xbf,
  0x6e, 0x5e, 0x00, 0x3f, 0x52, 0x6b, 0xfa, 0x3d, 0x8d, 0xc2, 0xc7, 0x3e,
  0xe2, 0x17, 0xa0, 0xbe, 0xdc, 0x72, 0x51, 0x3e, 0xe5, 0x5e, 0x22, 0xbf,
  0xbb, 0x51, 0xf4, 0xbe, 0xec, 0x06, 0x12, 0xbf, 0x9b, 0x82, 0x73, 0x3d,
  0x50, 0x33, 0xbe, 0xbd, 0xe5, 0x6d, 0x0a, 0x3e, 0x2f, 0x90, 0xea, 0x3d,
  0xa6, 0xff, 0xe9, 0xbc, 0xe9, 0x05, 0x72, 0x3c, 0x7c, 0x4b, 0x19, 0x3d,
  0x0b, 0xd3, 0x2c, 0xbe, 0xc8, 0x12, 0xb2, 0x3c, 0x2f, 0xb4, 0xf0, 0xbd,
  0x21, 0xc9, 0x01, 0x3e, 0x97, 0x10, 0x24, 0xbd, 0xa8, 0xc7, 0x79, 0x3f,
  0x70, 0x15, 0xe3, 0xbd, 0x17, 0xc5, 0xef, 0xbd, 0xe9, 0xc7, 0x0e, 0xbe,
  0xaa, 0x73, 0xd0, 0xbd, 0xf2, 0x17, 0x1f, 0xbe, 0x39, 0xa9, 0x3c, 0x3e,
  0xbb, 0x42, 0xd6, 0x3d, 0xbd, 0xf4, 0xac, 0x3c, 0x6c, 0x12, 0x85, 0xbd,
  0xc6, 0xd4, 0xed, 0x3d, 0x9c, 0x98, 0xbb, 0x3d, 0x4f, 0xc6, 0x96, 0x3d,
  0xc1, 0x65, 0x84, 0xbd, 0xbf, 0x1e, 0xb1, 0xbd, 0xe9, 0xe6, 0x52, 0xbc,
  0x35, 0x3b, 0xaa, 0x3f, 0x02, 0x12, 0xfd, 0xbd, 0x63, 0x01, 0xeb, 0x3d,
  0x9c, 0x2f, 0xdc, 0xbd, 0xc0, 0x35, 0x1c, 0x3d, 0x05, 0xea, 0x89, 0xbe,
  0x98, 0x1e, 0xf8, 0xbc, 0xe8, 0x10, 0xa6, 0x3e, 0x73, 0x57, 0x98, 0x3d,
  0xf7, 0x54, 0x53, 0x3e, 0x35, 0xd9, 0x28, 0x3d, 0x56, 0x1e, 0xff, 0x3c,
  0x7c, 0x2e, 0xd0, 0x3d, 0xf9, 0xfb, 0x87, 0x3b, 0x07, 0x48, 0x4b, 0x3d,
  0xeb, 0xd8, 0x8c, 0x3c, 0x31, 0x48, 0x76, 0x3f, 0x3d, 0x43, 0x53, 0x3d,
  0xe3, 0xaa, 0x1f, 0x3e, 0xf1, 0xf9, 0x78, 0xbd, 0x51, 0xd2, 0xa5, 0xbd,
  0x1d, 0x59, 0xb1, 0xbd, 0x0e, 0x76, 0x0a, 0xbd, 0xb6, 0x74, 0x06, 0x3e,
  0x2e, 0x91, 0xe1, 0x3a, 0xe7, 0x19, 0x23, 0x3e, 0xd6, 0x1a, 0x6b, 0xbd,
  0xbb, 0xd7, 0xda, 0x3b, 0xde, 0xf9, 0x11, 0xbd, 0x47, 0xb3, 0x69, 0x3d,
  0xaf, 0x65, 0x02, 0x3e, 0x37, 0x4f, 0x06, 0xbd, 0xab, 0x16, 0x87, 0x3f,
  0x1c, 0x1b, 0xe3, 0x3b, 0xf2, 0x7d, 0x4c, 0xba, 0x3b, 0xd0, 0x1e, 0xbc,
  0x7d, 0x42, 0xd2, 0xbd, 0x3b, 0x4e, 0x50, 0xbe, 0xac, 0x7a, 0x54, 0xbd,
  0xfc, 0xe1, 0x57, 0x3d, 0xc4, 0x57, 0x47, 0xbd, 0xe9, 0x1f, 0xa0, 0x3e,
  0x18, 0xa9, 0xbb, 0x3d, 0xd8, 0xf3, 0x2b, 0x3c, 0x4a, 0x32, 0x8b, 0x3d,
  0xd2, 0xd7, 0xd0, 0x3c, 0x6f, 0x7f, 0x22, 0x3e, 0xdf, 0x51, 0x53, 0x3d,
  0x89, 0x2f, 0x2e, 0x3f, 0xd6, 0x42, 0xb8, 0x3d, 0xe3, 0x34, 0x86, 0x3d,
  0x41, 0x17, 0x83, 0x3d, 0xc4, 0x44, 0xdc, 0xbc, 0x1c, 0xf8, 0x63, 0xbe,
  0x13, 0x3d, 0x01, 0x3e, 0xfe, 0x32, 0x19, 0xbf, 0x05, 0x22, 0xb7, 0x3d,
  0xd8, 0xaa, 0x94, 0xbe, 0xc2, 0x26, 0x33, 0xbe, 0xac, 0x8c, 0x4d, 0x3d,
  0x1a, 0xa4, 0x52, 0xbf, 0x6f, 0x40, 0xa5, 0xbe, 0x1c, 0xa0, 0x29, 0xbf,
  0x2a, 0xb7, 0xe3, 0x3d, 0x3e, 0xcf, 0xf6, 0x3e, 0xa0, 0xae, 0x53, 0xbc,
  0xfb, 0x81, 0x81, 0x3d, 0x62, 0x61, 0x44, 0x3e, 0xc0, 0x5a, 0x1a, 0x3f,
  0x0a, 0xc7, 0x13, 0x3e, 0xd2, 0x55, 0xa9, 0x3e, 0x41, 0x0a, 0x3a, 0x3e,
  0x75, 0x99, 0xef, 0x3e, 0xb2, 0xc1, 0x0e, 0xbe, 0x2c, 0x43, 0x04, 0x3f,
  0x9b, 0x07, 0x1a, 0xbe, 0x3d, 0x9f, 0x1b, 0xbf, 0x94, 0xe5, 0x57, 0x3d,
  0x9c, 0xe5, 0xd2, 0xbe, 0x19, 0xc0, 0x3c, 0x3e, 0xfe, 0x2c, 0x70, 0xbd,
  0x69, 0x2b, 0xdb, 0x3e, 0xb2, 0xa7, 0xd9, 0xbc, 0x93, 0x6c, 0x7a, 0x3e,
  0xd5, 0xb7, 0x9c, 0x3e, 0x11, 0x26, 0xe8, 0x3d, 0x7c, 0xee, 0x4b, 0xbe,
  0xa4, 0xc4, 0x85, 0x3e, 0xb1, 0xd3, 0x04, 0x3e, 0x27, 0x12, 0x4e, 0xbe,
  0x7a, 0x34, 0x1e, 0xbd, 0x53, 0x9d, 0xe3, 0xbd, 0xb6, 0xda, 0x91, 0xbe,
  0x08, 0x3d, 0x6e, 0xbe, 0x96, 0x33, 0x21, 0xbe, 0xcb, 0x92, 0x26, 0x3d,
  0xb3, 0x27, 0x0c, 0xbe, 0xca, 0x49, 0x72, 0xbe, 0xa8, 0x3a, 0x01, 0xbd,
  0x2b, 0x1f, 0xb5, 0x3d, 0x72, 0x7e, 0xcd, 0x3c, 0xc9, 0xa5, 0x2b, 0x3e,
  0xd7, 0xde, 0xa5, 0xbc, 0xd6, 0x56, 0xab, 0x3e, 0xc0, 0x76, 0x0b, 0xbe,
  0x93, 0xea, 0x53, 0x3e, 0xb0, 0x3d, 0x0c, 0x3d, 0xf7, 0xc3, 0xa3, 0xbd,
  0xf3, 0xd3, 0x49, 0xbe, 0x15, 0xd3, 0x8c, 0xbe, 0x8b, 0x18, 0x20, 0xbe,
  0x1f, 0x9b, 0x83, 0x3d, 0xce, 0x87, 0x97, 0x3d, 0xf6, 0x0a, 0x44, 0xbe,
  0x16, 0xd8, 0xe1, 0xbd, 0x54, 0x98, 0x87, 0xbd, 0x60, 0xc7, 0x11, 0x3e,
  0xde, 0xe4, 0xc8, 0x3c, 0xfd, 0x27, 0x1e, 0xbe, 0x78, 0x13, 0x9e, 0xbc,
  0xfb, 0x48, 0xb2, 0x3c, 0x24, 0xe5, 0xa8, 0x3d, 0xad, 0x56, 0x16, 0x3e,
  0xdd, 0xf9, 0x01, 0x3a, 0x88, 0x55, 0x26, 0xbe, 0x00, 0xa5, 0x12, 0xbd,
  0xe2, 0x16, 0x22, 0x3d, 0x7b, 0x20, 0x10, 0x3e, 0x84, 0x7f, 0x25, 0x3c,
  0x56, 0xdb, 0x90, 0xbe, 0xcd, 0x57, 0x5a, 0xbd, 0x75, 0x37, 0x2c, 0xbd,
  0xce, 0xf2, 0x56, 0xbc, 0x50, 0x93, 0xd0, 0x3c, 0x49, 0x14, 0xed, 0xba,
  0x7c, 0x08, 0x0c, 0xbc, 0x2a, 0x45, 0x69, 0xbe, 0xd9, 0x05, 0xc7, 0xbd,
  0x9b, 0x8e, 0xd2, 0xbd, 0xb2, 0xb1, 0x59, 0x3d, 0x6d, 0x2f, 0x85, 0xbe,
  0x23, 0x32, 0xa4, 0xbe, 0xd7, 0x0c, 0xaf, 0xbc, 0xf6, 0xb0, 0x21, 0x3d,
  0xcd, 0x59, 0x58, 0xbd, 0xa0, 0x55, 0x4f, 0xbe, 0xe1, 0x6e, 0xcb, 0x3d,
  0xf0, 0xb3, 0x04, 0xbe, 0xf2, 0x15, 0xe9, 0xbb, 0x6a, 0x97, 0x14, 0xbd,
  0xdb, 0xb8, 0x8f, 0xbd, 0x89, 0xd0, 0x89, 0x3e, 0x30, 0xcc, 0x90, 0xbb,
  0x40, 0x15, 0x92, 0xbd, 0x6a, 0xb6, 0x07, 0x3f, 0xb1, 0x43, 0x9e, 0xbd,
  0xa2, 0x3d, 0x29, 0xbf, 0xc7, 0x82, 0x55, 0x3d, 0xa6, 0xce, 0xe8, 0xbc,
  0xc6, 0xf2, 0x29, 0xbd, 0x4d, 0xd6, 0x9d, 0x3d, 0x19, 0x30, 0x12, 0xbe,
  0xfb, 0x62, 0xb5, 0xbc, 0xaa, 0xe6, 0xa2, 0xbd, 0xec, 0x13, 0x63, 0xbe,
  0xd0, 0xb9, 0xec, 0x3c, 0x9a, 0x6c, 0x6c, 0xbe, 0xa3, 0x1e, 0x08, 0x3e,
  0xd1, 0xd2, 0x95, 0xbd, 0xc1, 0x52, 0xf4, 0x3e, 0x91, 0x3c, 0x80, 0xbe,
  0xe7, 0xdf, 0x25, 0xbd, 0xc1, 0x14, 0x70, 0xbe, 0x11, 0x68, 0x84, 0x3d,
  0x3a, 0xfd, 0x7e, 0x3e, 0x73, 0xaf, 0xef, 0xbd, 0x40, 0x4a, 0x99, 0xbe,
  0x01, 0x2f, 0xc5, 0xbd, 0x20, 0xd5, 0x01, 0xbe, 0xd0, 0x16, 0x02, 0xbe,
  0x76, 0xb2, 0x03, 0xbb, 0x06, 0xd2, 0x0f, 0x3e, 0x80, 0x0c, 0xbc, 0xbe,
  0x5c, 0x43, 0x8d, 0x3e, 0x1f, 0xb6, 0xc8, 0xbe, 0x51, 0xfe, 0x15, 0x3e,
  0x05, 0x20, 0x48, 0x3e, 0x7d, 0xb3, 0xc5, 0xbe, 0x76, 0xec, 0x28, 0x3e,
  0x33, 0x5a, 0x71, 0x3e, 0x8f, 0x20, 0x08, 0x3e, 0xe0, 0x72, 0xa9, 0xbe,
  0xb3, 0x2e, 0x47, 0x3f, 0x1e, 0x6b, 0x00, 0xbf, 0x7c, 0xf8, 0x4d, 0xbe,
  0x26, 0xb4, 0x2c, 0xbe, 0x0a, 0xee, 0xe5, 0x3d, 0xce, 0x92, 0x66, 0x3c,
  0xf1, 0x4a, 0x0a, 0xbf, 0x28, 0x49, 0x1d, 0x3e, 0x91, 0x31, 0xd0, 0xbe,
  0x1f, 0x39, 0x34, 0x3e, 0xaf, 0xe1, 0xf7, 0xbc, 0xe4, 0xda, 0x44, 0xbe,
  0xf1, 0x19, 0xd2, 0xbd, 0x1e, 0xc4, 0xb6, 0xbd, 0x80, 0x07, 0x0f, 0x3e,
  0x78, 0x29, 0x67, 0xbe, 0x6b, 0xeb, 0xb0, 0x3f, 0x2f, 0x0b, 0x9d, 0xbe,
  0x74, 0x37, 0x4c, 0xbe, 0x96, 0xb9, 0xdc, 0xbd, 0xef, 0x33, 0x01, 0xbe,
  0xc4, 0x07, 0xb5, 0xbd, 0x43, 0xd0, 0x02, 0xbe, 0x35, 0x2b, 0x5c, 0x3e,
  0x51, 0x4e, 0x64, 0x3d, 0x37, 0xd4, 0xf7, 0x3c, 0x23, 0x80, 0x89, 0x3c,
  0x9b, 0xf8, 0xec, 0xbc, 0x5f, 0x40, 0xd5, 0x3d, 0x86, 0xb2, 0x0a, 0x3e,
  0x28, 0x4d, 0xcb, 0xbc, 0x64, 0x99, 0x2a, 0xbe, 0xef, 0x33, 0x41, 0x3f,
  0xed, 0x42, 0xc6, 0xbd, 0x6d, 0xe3, 0xdb, 0x3d, 0x78, 0x64, 0x61, 0xbe,
  0x10, 0x02, 0xe7, 0x3c, 0xb0, 0x0f, 0x5f, 0x3c, 0x97, 0x84, 0xbe, 0xbc,
  0x2c, 0x37, 0xfb, 0x3e, 0x6a, 0x12, 0x05, 0xbd, 0x25, 0xb9, 0x04, 0x3e,
  0x7f, 0xe0, 0x0c, 0x3e, 0x5d, 0xa1, 0x24, 0x3e, 0xb9, 0xf5, 0x8e, 0xbc,
  0xfb, 0xde, 0xeb, 0x3d, 0x2a, 0xa0, 0x2d, 0x3e, 0x42, 0x1a, 0x1a, 0xbe,
  0x3d, 0x59, 0x73, 0x3f, 0x0d, 0x0f, 0x3f, 0x3d, 0xad, 0x25, 0x9f, 0x3c,
  0x22, 0x94, 0xe3, 0xbd, 0x2d, 0x23, 0x86, 0xbe, 0xbf, 0xe5, 0x3f, 0xbd,
  0xa5, 0x45, 0xd3, 0x3a, 0x7e, 0xb7, 0x2c, 0x3e, 0x0b, 0xae, 0x19, 0xbe,
  0x04, 0xb6, 0x68, 0x3e, 0xfb, 0x6f, 0x7b, 0x3d, 0xd2, 0xe2, 0x3d, 0x3d,
  0x65, 0x7b, 0x46, 0x3e, 0x3c, 0x39, 0xfd, 0x3d, 0xa4, 0x68, 0x90, 0x3e,
  0xe3, 0xd0, 0x64, 0xbe, 0x16, 0x22, 0x99, 0x3f, 0x01, 0x29, 0x8b, 0x3d,
  0xe4, 0xfe, 0xb2, 0xbd, 0xb4, 0x51, 0x34, 0xbe, 0x32, 0xa5, 0xb2, 0xbd,
  0xac, 0x76, 0xdc, 0xbd, 0xcd, 0x08, 0x29, 0xbd, 0x52, 0x05, 0x13, 0xba,
  0x41, 0x77, 0xcc, 0xbc, 0x49, 0xfb, 0x8f, 0x3e, 0x03, 0x26, 0xe7, 0x3d,
  0x50, 0x4f, 0x8d, 0xba, 0x9e, 0x4f, 0x41, 0x3e, 0xca, 0xe1, 0xca, 0xbd,
  0xc9, 0xc7, 0x89, 0x3c, 0x85, 0x1c, 0xf8, 0xbc, 0x2a, 0x77, 0x28, 0x3f,
  0xb9, 0x43, 0x69, 0x3d, 0x32, 0xbc, 0x83, 0x3d, 0xbb, 0x80, 0xc8, 0xbd,
  0xf9, 0xec, 0x44, 0x3d, 0xe6, 0xac, 0xdc, 0xbe, 0xe0, 0xc1, 0x05, 0x3e,
  0x5a, 0x91, 0xe7, 0xbe, 0x97, 0x94, 0x61, 0x3e, 0x5e, 0xcc, 0x66, 0xbe,
  0x4b, 0xea, 0x94, 0xbe, 0x9c, 0x97, 0x40, 0x3e, 0xaa, 0x0e, 0xcd, 0xbe,
  0xa3, 0x9d, 0xc2, 0xbe, 0xdb, 0xd9, 0x00, 0xbf, 0x23, 0x74, 0x11, 0x3e,
  0xf6, 0xc2, 0xfe, 0x3e, 0xaa, 0xce, 0x72, 0x3e, 0x4f, 0x28, 0x61, 0x3e,
  0xb3, 0xf9, 0x1e, 0x3d, 0x21, 0x7b, 0xc6, 0xbe, 0xeb, 0xe2, 0x84, 0xbe,
  0x19, 0xf7, 0x3b, 0xbe, 0x58, 0xd2, 0xf0, 0xbd, 0x67, 0x65, 0xbc, 0xbe,
  0x55, 0xc0, 0xf7, 0x3d, 0xe1, 0x62, 0x5c, 0xbe, 0xa6, 0x71, 0x59, 0xbd,
  0x3e, 0x4e, 0x0b, 0xbc, 0x6b, 0xa7, 0xb5, 0xbe, 0xbd, 0xe3, 0xd7, 0xbd,
  0xf4, 0x36, 0x6c, 0xbe, 0xe4, 0x2e, 0xee, 0xbc, 0x95, 0x85, 0xf0, 0xbe,
  0xf2, 0xfd, 0x96, 0xbc, 0x43, 0x3b, 0xea, 0xbe, 0x9b, 0xcd, 0x39, 0xbe,
  0xb8, 0xf7, 0x85, 0xbe, 0x1a, 0xfd, 0x98, 0x3e, 0x62, 0x6a, 0x3a, 0xbd,
  0x77, 0x56, 0x6c, 0xba, 0x8b, 0x55, 0xea, 0x3d, 0x8e, 0xfe, 0x09, 0x3e,
  0xef, 0x74, 0xaa, 0xbe, 0x21, 0x0e, 0x80, 0x3e, 0xe8, 0xf0, 0xb5, 0xbe,
  0x6e, 0x8c, 0xe9, 0x3c, 0x39, 0x07, 0x33, 0xbe, 0x11, 0x4c, 0xa9, 0x3e,
  0x91, 0x38, 0x0b, 0xbe, 0x29, 0xd3, 0xd1, 0xbd, 0xd8, 0x19, 0x88, 0xbe,
  0x67, 0x04, 0xd0, 0xbd, 0x1b, 0x2e, 0x92, 0x3d, 0x3e, 0x97, 0x59, 0x3e,
  0xfd, 0xb9, 0x0c, 0x3e, 0xc0, 0x09, 0xb3, 0xbc, 0xeb, 0xe1, 0x06, 0x3e,
  0xce, 0x61, 0x22, 0x3e, 0x25, 0xc0, 0x34, 0x3d, 0xdd, 0xe7, 0xfd, 0x3c,
  0x8f, 0xca, 0x1d, 0xbd, 0x3a, 0x90, 0xda, 0x3c, 0x9e, 0xce, 0x3e, 0xbe,
  0xa3, 0xc6, 0xd4, 0x3d, 0xb9, 0xc1, 0x28, 0x3d, 0x58, 0x42, 0x87, 0xbe,
  0x55, 0x41, 0x11, 0xbd, 0x3d, 0x34, 0x97, 0xbd, 0xb0, 0x02, 0xa8, 0x3d,
  0xf1, 0xe3, 0x87, 0x3d, 0x6a, 0x1c, 0x3f, 0xbe, 0x65, 0x7d, 0x0b, 0xbe,
  0xa2, 0x40, 0x18, 0x3d, 0x7b, 0x16, 0x84, 0xba, 0x97, 0xdd, 0x7c, 0xbd,
  0xa3, 0x6c, 0x2c, 0x3e, 0x64, 0xe4, 0x95, 0x3c, 0x5e, 0x03, 0xbb, 0x3d,
  0xd0, 0xf8, 0x67, 0xbe, 0xe0, 0x43, 0x22, 0x3d, 0x9c, 0x25, 0x62, 0xbc,
  0x99, 0xaa, 0xd4, 0xbe, 0xa9, 0x71, 0xd1, 0x3c, 0xe4, 0xff, 0x99, 0xbb,
  0xf1, 0x9d, 0x6d, 0xbd, 0x9f, 0x14, 0x39, 0x3e, 0xf4, 0x31, 0x37, 0x3d,
  0x30, 0xd2, 0x9d, 0x3c, 0x45, 0x3f, 0x0c, 0x3a, 0x3d, 0xbe, 0x2e, 0xbd,
  0xfd, 0x9a, 0xf9, 0xbd, 0x4e, 0x9d, 0xef, 0x3d, 0x9c, 0x26, 0xa8, 0x3c,
  0x42, 0xdf, 0x96, 0x3d, 0x9d, 0x65, 0x63, 0xbd, 0x55, 0x65, 0x48, 0x3d,
  0x01, 0xd0, 0x5d, 0xbd, 0x80, 0x24, 0x6e, 0xbe, 0x1d, 0xe9, 0xa8, 0xbb,
  0xbd, 0x7e, 0xea, 0x3d, 0x23, 0x6d, 0x03, 0x3d, 0x7b, 0xa4, 0x03, 0x3e,
  0xca, 0x09, 0x9d, 0xbb, 0x42, 0x5f, 0xb1, 0x3d, 0xc8, 0x68, 0x82, 0x3c,
  0x4d, 0x88, 0x30, 0x3e, 0x0e, 0xc2, 0x9f, 0xbe, 0x0e, 0xf3, 0x8b, 0x3e,
  0x4c, 0x92, 0xc8, 0x3d, 0x25, 0x17, 0x92, 0xbe, 0x7d, 0xc4, 0xf4, 0xbd,
  0xba, 0x54, 0x38, 0xbe, 0x5d, 0x4c, 0x21, 0xbe, 0x5c, 0x74, 0xfa, 0xbd,
  0x93, 0xec, 0xa1, 0x3d, 0x50, 0xfc, 0x8a, 0x3e, 0xdd, 0xb0, 0xab, 0x3d,
  0xd8, 0x76, 0xe0, 0x3d, 0x2e, 0xc1, 0x89, 0x3d, 0x8f, 0x95, 0x4a, 0x3d,
  0x82, 0xdb, 0xc7, 0xbe, 0x2e, 0x66, 0x6e, 0x3e, 0x9d, 0x32, 0xb6, 0xbe,
  0x2d, 0x8e, 0xce, 0x3d, 0xa4, 0x28, 0x53, 0x3e, 0x21, 0x95, 0xf0, 0xbd,
  0xc7, 0x6b, 0x98, 0xbd, 0x77, 0x7d, 0xe3, 0xbd, 0x00, 0x44, 0xe8, 0xbd,
  0xcd, 0xa0, 0x15, 0xbe, 0x78, 0x63, 0x87, 0x3d, 0xf1, 0xd1, 0xb6, 0x3e,
  0xb5, 0xd5, 0xcd, 0x3e, 0x7d, 0x26, 0xab, 0x3e, 0x36, 0x9c, 0xdc, 0x3c,
  0xd3, 0xb6, 0xa5, 0x3e, 0x45, 0x6e, 0xbe, 0xbd, 0xe6, 0x5f, 0xc0, 0x3e,
  0xec, 0x58, 0x24, 0x3e, 0x2c, 0x24, 0x7a, 0xbe, 0x52, 0x8d, 0x9d, 0x3e,
  0xcb, 0x72, 0x9b, 0xbe, 0x71, 0x15, 0x16, 0x3e, 0xea, 0xbd, 0x00, 0xbd,
  0x3a, 0xb3, 0xb1, 0x3e, 0x29, 0x29, 0x1a, 0x3e, 0x60, 0x74, 0x87, 0x3e,
  0x6e, 0xca, 0x8a, 0x3e, 0xb3, 0x13, 0xc4, 0xbd, 0x0b, 0x63, 0xbb, 0xbc,
  0xee, 0x47, 0x4e, 0xbd, 0x03, 0xcf, 0xa2, 0xbc, 0xa9, 0x83, 0xf0, 0xbd,
  0xb6, 0x61, 0x76, 0x3e, 0xb3, 0x0a, 0x19, 0xbd, 0xb1, 0xbe, 0x49, 0xbe,
  0xd4, 0xe5, 0x40, 0xbd, 0x68, 0x81, 0x85, 0x3d, 0x8f, 0xbf, 0xac, 0x3d,
  0xb7, 0xe6, 0xfc, 0xbb, 0xec, 0xbc, 0x86, 0x3d, 0x9b, 0x9d, 0x89, 0x3d,
  0x42, 0x52, 0x25, 0x3d, 0xbf, 0xd9, 0x8c, 0x3d, 0x63, 0x96, 0xab, 0xbd,
  0x80, 0x8a, 0xd5, 0xbd, 0x2e, 0x81, 0x4b, 0xbc, 0xef, 0x9a, 0xfe, 0x3d,
  0x18, 0xb6, 0xa2, 0x3d, 0xc1, 0x21, 0xb0, 0x3d, 0x23, 0x7a, 0xf3, 0xbd,
  0x1d, 0x1d, 0x00, 0x3e, 0xf3, 0x93, 0x7a, 0x3d, 0xff, 0xa9, 0x64, 0x3d,
  0x91, 0x00, 0xed, 0x3d, 0x17, 0xc7, 0x22, 0x3e, 0x93, 0xc0, 0x74, 0xbe,
  0x7e, 0x65, 0x13, 0xbd, 0x2f, 0x54, 0xad, 0xba, 0x26, 0xc2, 0xad, 0x3e,
  0x2e, 0x66, 0xca, 0x3c, 0xb2, 0x4a, 0x74, 0x3d, 0x07, 0xe8, 0xd1, 0x3d,
  0x12, 0x46, 0xa9, 0xbd, 0x25, 0xc5, 0xad, 0x3c, 0x47, 0x95, 0xc4, 0x3d,
  0xff, 0xd3, 0xce, 0xbd, 0x59, 0x55, 0x09, 0xbe, 0x4e, 0xb9, 0x55, 0x3c,
  0x35, 0x95, 0xf0, 0xbd, 0xbd, 0xae, 0xc5, 0x3d, 0xaa, 0x85, 0x1e, 0x3e,
  0x55, 0x0c, 0xcf, 0xbd, 0x7d, 0xc9, 0xf5, 0xbb, 0xef, 0xc8, 0x8c, 0xbd,
  0x66, 0x8c, 0x39, 0x3d, 0x5c, 0x98, 0xb6, 0x3c, 0xa9, 0x45, 0x01, 0xbe,
  0xe8, 0x77, 0x03, 0xbe, 0x27, 0xd0, 0x05, 0x3e, 0x5b, 0xfc, 0xb0, 0xbd,
  0xa7, 0xb6, 0x00, 0x3e, 0xf0, 0x1f, 0xcd, 0x3d, 0xd6, 0xad, 0x80, 0xbd,
  0xf8, 0x3f, 0x73, 0xbe, 0xed, 0x91, 0x7d, 0xbd, 0xb3, 0xb9, 0x91, 0x3b,
  0xd2, 0xa0, 0x60, 0x3d, 0x1a, 0x9f, 0x13, 0xbe, 0xf2, 0x2b, 0x82, 0xbd,
  0x75, 0x9f, 0x41, 0x3d, 0xc9, 0x92, 0x83, 0xbd, 0x93, 0xf5, 0x12, 0x3d,
  0xb8, 0x8a, 0x0a, 0xbe, 0x7e, 0xb3, 0xe9, 0x3d, 0xb5, 0xf7, 0x45, 0xbe,
  0xbf, 0x9e, 0xcb, 0xbc, 0xc6, 0xef, 0x1c, 0x3e, 0x87, 0xdd, 0xd6, 0xbc,
  0xec, 0x62, 0xbe, 0xbe, 0x07, 0x79, 0xdd, 0xbd, 0x76, 0xa6, 0xb4, 0x3d,
  0xc3, 0x80, 0x13, 0x3d, 0x3e, 0xe4, 0x49, 0xbe, 0x23, 0x69, 0x3b, 0xbe,
  0x12, 0xf8, 0xd9, 0xbb, 0x2e, 0x99, 0x8a, 0xbd, 0x49, 0x62, 0x11, 0xbe,
  0x9e, 0x41, 0x28, 0x3d, 0xb6, 0xdb, 0xa7, 0xbd, 0x50, 0xb0, 0x5f, 0x3e,
  0x67, 0x89, 0x03, 0xbe, 0xa0, 0x4b, 0x89, 0x3e, 0x5e, 0xc4, 0x71, 0x3d,
  0x99, 0x7a, 0x62, 0xbd, 0x55, 0x9e, 0x18, 0xbe, 0xf5, 0x95, 0xbd, 0xbd,
  0xf2, 0x79, 0xe1, 0x3e, 0x74, 0x17, 0x49, 0xbe, 0x1f, 0x95, 0xf3, 0xbd,
  0xb6, 0xd2, 0x7d, 0xbe, 0xd6, 0x5c, 0x27, 0xbe, 0x49, 0xee, 0x73, 0xbe,
  0x52, 0x0d, 0xdf, 0x3e, 0xef, 0xbf, 0xcc, 0x3e, 0xa1, 0x42, 0x1d, 0x3e,
  0x6e, 0xf1, 0xde, 0x3d, 0xb5, 0xe0, 0x43, 0x3d, 0x10, 0x92, 0xb1, 0xbe,
  0x70, 0x8d, 0x68, 0x3e, 0x61, 0xb5, 0x3f, 0x3e, 0x77, 0xac, 0xd2, 0xbe,
  0x79, 0x85, 0x8f, 0x3e, 0x58, 0x87, 0x23, 0xbf, 0xfb, 0xaf, 0x50, 0x3e,
  0x0b, 0x7a, 0x77, 0x3c, 0x37, 0x49, 0x8f, 0x3e, 0x86, 0x37, 0xa6, 0x3d,
  0x51, 0x8b, 0x8b, 0x3e, 0x86, 0x64, 0x96, 0x3e, 0xe2, 0xf9, 0x6d, 0x3d,
  0xbe, 0x3e, 0x93, 0xbe, 0x58, 0x75, 0x86, 0x3e, 0xd3, 0xfa, 0x1c, 0xbe,
  0x44, 0xa8, 0xb2, 0xbe, 0xc7, 0x39, 0x26, 0x3e, 0x46, 0x34, 0xd8, 0xbd,
  0xaa, 0x86, 0xc9, 0xbe, 0xfc, 0xfa, 0x16, 0x3d, 0x33, 0x34, 0x05, 0xbe,
  0xc4, 0xe7, 0x10, 0x3e, 0x69, 0x3c, 0xec, 0x3c, 0x83, 0x81, 0xc6, 0xbd,
  0x56, 0x2d, 0xf4, 0x3d, 0x19, 0x04, 0xf1, 0x3d, 0xb5, 0x06, 0x21, 0x3d,
  0x83, 0xb2, 0x0c, 0xbd, 0xf7, 0xa1, 0xc7, 0x3c, 0x58, 0xaf, 0xce, 0x3e,
  0x5b, 0x7a, 0x09, 0xbe, 0x0a, 0x25, 0x09, 0xbe, 0x83, 0x2f, 0x96, 0x3c,
  0xbc, 0x17, 0xd4, 0x3d, 0xb3, 0xb2, 0x81, 0x3c, 0x63, 0x3a, 0x1b, 0xbe,
  0xab, 0x28, 0xa1, 0xbe, 0xe0, 0x07, 0x4a, 0xbd, 0xf2, 0xbc, 0x5d, 0x3d,
  0x35, 0xa0, 0xc4, 0x3d, 0xbc, 0x93, 0x61, 0x3c, 0x20, 0xbe, 0xc5, 0xbd,
  0x32, 0x4a, 0xa7, 0x3c, 0x68, 0xae, 0x5a, 0x3d, 0x4f, 0x5f, 0x96, 0x3d,
  0x67, 0x30, 0x00, 0x3e, 0x93, 0x69, 0xb4, 0xbd, 0xfa, 0xd1, 0x3d, 0xbd,
  0x43, 0x78, 0xc5, 0xbd, 0x71, 0x01, 0x50, 0xbd, 0xd0, 0xa9, 0x78, 0xbe,
  0xcc, 0x49, 0x1c, 0x3e, 0x9d, 0x3e, 0x96, 0xbe, 0x21, 0x7d, 0x8f, 0xbd,
  0x57, 0x8f, 0xe4, 0xbd, 0xd4, 0x61, 0x41, 0xbd, 0xc3, 0x19, 0x0e, 0xbe,
  0x3b, 0x1a, 0xdc, 0xbd, 0x65, 0xc7, 0xbb, 0xbd, 0xf8, 0x04, 0xf9, 0xbc,
  0x53, 0x34, 0x8f, 0xbd, 0x26, 0x8f, 0x5b, 0x3e, 0x43, 0x63, 0x05, 0xbd,
  0xd3, 0x59, 0x8b, 0x3c, 0xec, 0x08, 0xbd, 0x3c, 0x0c, 0x92, 0xe4, 0xbd,
  0xdb, 0xd6, 0x66, 0xbd, 0x29, 0xc6, 0x18, 0xbe, 0x3a, 0xd1, 0x2c, 0xbe,
  0xba, 0x9a, 0xce, 0xbc, 0x6b, 0x59, 0xd6, 0x3d, 0x3a, 0x12, 0x38, 0xbe,
  0xe3, 0xca, 0xc5, 0xbd, 0xdf, 0xf7, 0xf7, 0xbc, 0x2c, 0xa2, 0x5c, 0xbd,
  0x28, 0x39, 0x09, 0x3d, 0x86, 0x4d, 0x6d, 0xbd, 0x81, 0x1d, 0x0a, 0x3f,
  0x3f, 0x42, 0xdf, 0x3b, 0x59, 0xc2, 0xc2, 0xbd, 0x3f, 0x06, 0x27, 0x3d,
  0x8e, 0x42, 0xd7, 0xbd, 0xe1, 0xd9, 0x23, 0xbe, 0x02, 0xf7, 0x50, 0x3d,
  0x3e, 0x90, 0x63, 0xbe, 0xa6, 0xd8, 0x92, 0xbc, 0xe5, 0x55, 0x07, 0xbe,
  0x7f, 0x20, 0x77, 0xbb, 0xa2, 0xdb, 0x0f, 0xbe, 0x0d, 0xd2, 0x36, 0xbe,
  0x8b, 0xa2, 0x15, 0xbe, 0x27, 0x28, 0x68, 0x3d, 0x30, 0xe8, 0x10, 0x3d,
  0x77, 0xcf, 0x37, 0x3e, 0xac, 0xbe, 0x00, 0xbe, 0xff, 0xc4, 0x94, 0x3e,
  0xcb, 0x00, 0x63, 0xbd, 0xdf, 0xac, 0x86, 0xbd, 0x12, 0xe3, 0x42, 0xbe,
  0xf5, 0x1f, 0xec, 0x3c, 0xb1, 0x65, 0x8d, 0x3e, 0xce, 0x05, 0xf8, 0xbd,
  0x1d, 0x6e, 0x22, 0xbe, 0x48, 0x1f, 0x56, 0xbe, 0x9d, 0xd2, 0x88, 0xbe,
  0x67, 0x32, 0xe7, 0xbd, 0x60, 0x8b, 0x8d, 0xbe, 0xde, 0x97, 0x44, 0xbd,
  0x9e, 0xea, 0x13, 0xbf, 0xf0, 0x2f, 0x11, 0x3d, 0x7a, 0x77, 0x32, 0xbf,
  0x3d, 0x38, 0x49, 0x3e, 0xff, 0x28, 0xa1, 0xbc, 0x58, 0x54, 0x14, 0xbf,
  0x5d, 0x25, 0xdb, 0x3e, 0x74, 0x54, 0xb0, 0xbd, 0x09, 0x99, 0x09, 0x3f,
  0x7d, 0x8e, 0xaf, 0xbe, 0xff, 0x3c, 0x5e, 0x3f, 0x08, 0xe2, 0x00, 0xbf,
  0x70, 0x2c, 0xdd, 0xbe, 0xb6, 0x85, 0xcd, 0xbe, 0xab, 0x09, 0x05, 0x3d,
  0xea, 0x4e, 0x4e, 0xbe, 0x11, 0xfe, 0xd7, 0xbd, 0xbb, 0x05, 0xdd, 0xbd,
  0x88, 0xd7, 0x15, 0xbe, 0x9b, 0x83, 0x51, 0x3d, 0x87, 0x94, 0xeb, 0x3d,
  0x53, 0xf2, 0x79, 0xbd, 0xb6, 0x92, 0xc9, 0x3d, 0x9f, 0x7d, 0xb8, 0xbb,
  0x6b, 0x8d, 0x9a, 0xbd, 0x66, 0x98, 0x0b, 0xbe, 0xde, 0x6d, 0xbb, 0x3f,
  0xf0, 0xd5, 0x42, 0xbe, 0x09, 0xff, 0x07, 0x3d, 0x1f, 0x98, 0x8e, 0x3d,
  0x62, 0x23, 0x0c, 0xbe, 0x6d, 0x1a, 0x66, 0xbe, 0x28, 0x8b, 0x14, 0x3e,
  0xd1, 0xef, 0xef, 0x3d, 0x9d, 0x8e, 0x1d, 0x3e, 0xbc, 0xf3, 0x1d, 0xbc,
  0x38, 0x33, 0xbc, 0x3d, 0x81, 0xcc, 0x4c, 0xbd, 0x09, 0x57, 0x9c, 0xbe,
  0xce, 0x5c, 0x12, 0xbe, 0xcd, 0x01, 0xe6, 0xbd, 0x7e, 0xb1, 0x58, 0xbd,
  0x1e, 0xa8, 0xab, 0x3f, 0xcf, 0xa1, 0x1e, 0xbd, 0x5d, 0x6c, 0xba, 0x3d,
  0x1c, 0x3d, 0x00, 0xbe, 0xdf, 0x16, 0x9b, 0x3d, 0x4d, 0xb4, 0x69, 0xbe,
  0xe7, 0xc7, 0x24, 0x3d, 0x90, 0x36, 0xe2, 0x3d, 0x36, 0x41, 0x13, 0x3e,
  0x65, 0xe3, 0x0e, 0x3f, 0x62, 0x8c, 0xdb, 0x3d, 0x0f, 0x78, 0x1b, 0x3e,
  0x1f, 0xf8, 0xe4, 0xbd, 0x3b, 0xd5, 0x4e, 0xbd, 0x68, 0xaa, 0xc8, 0xbd,
  0x52, 0xaa, 0x46, 0xba, 0x9e, 0xec, 0x81, 0x3f, 0xb4, 0x11, 0x04, 0xbc,
  0x3c, 0xdc, 0x28, 0x3d, 0xd1, 0x1c, 0x19, 0xbc, 0x18, 0x3f, 0x15, 0x3e,
  0x32, 0xf0, 0x9d, 0xbe, 0x2f, 0xb8, 0x4b, 0xbb, 0x1c, 0x38, 0x7b, 0x3e,
  0x31, 0x24, 0xcd, 0x3c, 0x8a, 0x10, 0x21, 0x3e, 0x61, 0x32, 0xc4, 0xbc,
  0xab, 0xb6, 0xa6, 0xbc, 0xc9, 0x3a, 0x10, 0xbe, 0xb3, 0xa7, 0xb5, 0x3d,
  0xa1, 0x8d, 0x66, 0xbd, 0xcd, 0x20, 0x42, 0xbd, 0xfa, 0xe4, 0xa3, 0x3f,
  0x67, 0x64, 0x24, 0xbc, 0x87, 0x4a, 0xfe, 0x3d, 0x8c, 0xa5, 0x9c, 0xbd,
  0x7c, 0x53, 0x2f, 0xbe, 0x1c, 0x9a, 0x43, 0xbe, 0x5f, 0x2c, 0x2d, 0x3d,
  0x93, 0xca, 0x3e, 0xbe, 0xae, 0xb3, 0x0c, 0xba, 0xc3, 0x54, 0x97, 0x3e,
  0xff, 0xed, 0x0e, 0x3c, 0x09, 0x5f, 0x81, 0x3d, 0x25, 0x5f, 0x1c, 0xbe,
  0xc6, 0x90, 0xe0, 0xbc, 0xd9, 0x21, 0x00, 0xbf, 0xb8, 0x46, 0x79, 0xbd,
  0x8c, 0x97, 0x23, 0x3f, 0x23, 0xe2, 0x9a, 0x3d, 0x1b, 0xf1, 0x00, 0x3e,
  0xf2, 0xb9, 0xb3, 0x3d, 0xfc, 0x9e, 0x0c, 0x3d, 0x22, 0x35, 0xb7, 0xbe,
  0x69, 0x6a, 0xa3, 0x3d, 0x8d, 0x17, 0xf4, 0xbe, 0x4e, 0xea, 0xc7, 0x3d,
  0x25, 0xce, 0xf2, 0xbd, 0x96, 0x70, 0x6f, 0xbd, 0xdc, 0x2a, 0xbb, 0x3c,
  0x0c, 0x63, 0xb6, 0xbe, 0xa1, 0x22, 0x49, 0xbd, 0x6c, 0xf1, 0xe6, 0xbe,
  0x3b, 0x9f, 0xd8, 0xbc, 0x48, 0xd2, 0x02, 0x3f, 0xe4, 0x2b, 0xd5, 0x3d,
  0xdb, 0x45, 0x0e, 0x3e, 0xf3, 0x5b, 0xa6, 0xbd, 0xc6, 0x2e, 0x9d, 0x3e,
  0x44, 0x57, 0x45, 0xbe, 0xe7, 0x5a, 0x00, 0xbe, 0x62, 0x73, 0x91, 0x3e,
  0x2a, 0x86, 0x5b, 0x3e, 0x8e, 0x70, 0x26, 0x3e, 0xda, 0xf5, 0x45, 0x3e,
  0x79, 0x3b, 0x4a, 0xbe, 0xa0, 0x7d, 0x2a, 0xbe, 0x45, 0xa8, 0x24, 0x3e,
  0x4f, 0xcd, 0x7f, 0x3e, 0x12, 0x25, 0x4b, 0xbe, 0x7e, 0xf8, 0xae, 0x3d,
  0x05, 0x0b, 0x0a, 0x3f, 0x71, 0xe5, 0xaf, 0xbe, 0xbe, 0xd1, 0x8a, 0x3e,
  0xa9, 0x1d, 0x90, 0x3d, 0xdd, 0x75, 0x9f, 0xbc, 0xd7, 0x84, 0xf1, 0xbd,
  0xdb, 0x9c, 0x18, 0x3f, 0xa3, 0x22, 0x82, 0x3b, 0xc2, 0x91, 0x30, 0x3e,
  0x75, 0xdd, 0xeb, 0x3d, 0x49, 0xe9, 0x8c, 0xbe, 0xeb, 0x23, 0xa8, 0xbd,
  0x22, 0xf3, 0xc1, 0xbb, 0xf4, 0xd2, 0xe0, 0xbb, 0xd1, 0xab, 0x26, 0xbe,
  0x51, 0x76, 0xa2, 0x3e, 0x71, 0x6f, 0xaf, 0x3b, 0xba, 0x43, 0xac, 0xbe,
  0xde, 0x26, 0x97, 0xbd, 0x51, 0xe6, 0xdc, 0x3c, 0x15, 0xf1, 0xd1, 0xbc,
  0x4c, 0x3e, 0x11, 0x3e, 0xb7, 0x48, 0x8d, 0x3c, 0x8c, 0xb8, 0xd8, 0x3d,
  0x5c, 0x1c, 0x2b, 0x3b, 0x1a, 0x51, 0x5b, 0x3e, 0xa6, 0xf9, 0xe1, 0xbe,
  0xf4, 0xd3, 0x99, 0xbd, 0x37, 0xb6, 0x93, 0x3e, 0x53, 0x50, 0x24, 0x3e,
  0xdb, 0x91, 0xa3, 0xbd, 0xd9, 0xad, 0x5b, 0x3c, 0x3c, 0x41, 0xc2, 0xbe,
  0x0c, 0xe2, 0x13, 0xbe, 0x67, 0x07, 0xd6, 0x3c, 0xfa, 0x1a, 0x06, 0xbc,
  0xf2, 0xf8, 0x82, 0x3d, 0x5f, 0x05, 0x98, 0x3d, 0x48, 0x49, 0x9f, 0x3e,
  0x9c, 0x82, 0xea, 0x3b, 0x71, 0xec, 0x7c, 0x3e, 0x00, 0x2e, 0x30, 0x3e,
  0x10, 0x14, 0x6a, 0xbd, 0x84, 0xb3, 0x8c, 0xbb, 0x35, 0xeb, 0x22, 0x3e,
  0x65, 0xcc, 0x13, 0x3e, 0x99, 0x93, 0x4f, 0x3c, 0x8b, 0x47, 0x0b, 0x3e,
  0xc5, 0x9b, 0x90, 0xbe, 0xa3, 0x17, 0x8e, 0xbe, 0xd5, 0x5c, 0xa2, 0xbd,
  0xbf, 0x8a, 0xa7, 0x3d, 0xe4, 0x79, 0x9c, 0xbd, 0x40, 0x04, 0x7d, 0x3e,
  0xfd, 0x64, 0x04, 0x3f, 0xe4, 0x9c, 0x8e, 0x3e, 0x22, 0x38, 0x8c, 0xbc,
  0x53, 0x62, 0x76, 0x3e, 0x20, 0x34, 0xc4, 0xbe, 0xef, 0x03, 0x05, 0x3e,
  0xa8, 0xba, 0xc9, 0x3d, 0xae, 0xa4, 0x90, 0xbd, 0x69, 0xaa, 0x0d, 0x3e,
  0x3e, 0xd7, 0x81, 0xbd, 0xa6, 0x2c, 0x97, 0xbe, 0xb9, 0x88, 0x3d, 0xbe,
  0x98, 0x9e, 0xa4, 0xbd, 0xe9, 0x1b, 0x38, 0x3e, 0x8d, 0x8c, 0xb3, 0xbe,
  0x75, 0xa0, 0xae, 0xbd, 0xdb, 0xe3, 0x5b, 0x3e, 0x9a, 0x95, 0xec, 0xbd,
  0xeb, 0x68, 0x86, 0x3e, 0xe8, 0x3c, 0x42, 0x3e, 0xf4, 0xb8, 0xc2, 0xbe,
  0x5b, 0x38, 0x41, 0xbd, 0x8d, 0xc5, 0x44, 0x3c, 0x82, 0xf9, 0x2a, 0x3d,
  0x93, 0xb6, 0xcf, 0xbd, 0x24, 0x23, 0x10, 0xbe, 0x57, 0xd9, 0x6a, 0x3c,
  0x8a, 0x8d, 0xc6, 0xbe, 0xb3, 0x48, 0x98, 0x3d, 0x74, 0xe9, 0x53, 0xbe,
  0x9c, 0xec, 0x7c, 0xbd, 0x77, 0x1d, 0xfb, 0x3c, 0xcb, 0x4c, 0x48, 0xbe,
  0x8f, 0xad, 0xdc, 0xbd, 0x86, 0xf9, 0x5a, 0xbe, 0x6a, 0x6e, 0x13, 0x3e,
  0xde, 0xa4, 0xac, 0xbd, 0x58, 0xe6, 0x3c, 0xbe, 0x10, 0xe1, 0x68, 0x3d,
  0xbd, 0x78, 0x5b, 0x3e, 0xef, 0xa1, 0x8f, 0xbe, 0x80, 0x7c, 0x98, 0x3d,
  0x1d, 0xad, 0xe9, 0xbd, 0x5b, 0xa0, 0xb5, 0xbd, 0x2a, 0x3c, 0x69, 0xbe,
  0x66, 0xfd, 0xff, 0xff, 0x10, 0x00, 0x00, 0x00, 0x07, 0x00, 0x00, 0x00,
  0x14, 0x00, 0x00, 0x00, 0x2c, 0x00, 0x00, 0x00, 0x02, 0x00, 0x00, 0x00,
  0x10, 0x00, 0x00, 0x00, 0x70, 0x00, 0x00, 0x00, 0x17, 0x00, 0x00, 0x00,
  0x73, 0x65, 0x71, 0x75, 0x65, 0x6e, 0x74, 0x69, 0x61, 0x6c, 0x2f, 0x64,
  0x65, 0x6e, 0x73, 0x65, 0x2f, 0x4d, 0x61, 0x74, 0x4d, 0x75, 0x6c, 0x00,
  0xd0, 0xfc, 0xff, 0xff, 0xda, 0xfd, 0xff, 0xff, 0x04, 0x00, 0x00, 0x00,
  0x08, 0x00, 0x00, 0x00, 0xff, 0xff, 0xff, 0xff, 0x70, 0x00, 0x00, 0x00,
  0x00, 0x00, 0x0e, 0x00, 0x18, 0x00, 0x08, 0x00, 0x07, 0x00, 0x0c, 0x00,
  0x10, 0x00, 0x14, 0x00, 0x0e, 0x00, 0x00, 0x00, 0x00, 0x00, 0x00, 0x02,
  0x10, 0x00, 0x00, 0x00, 0x06, 0x00, 0x00, 0x00, 0x10, 0x00, 0x00, 0x00,
  0x2c, 0x00, 0x00, 0x00, 0x01, 0x00, 0x00, 0x00, 0x02, 0x00, 0x00, 0x00,
  0x18, 0x00, 0x00, 0x00, 0x73, 0x65, 0x71, 0x75, 0x65, 0x6e, 0x74, 0x69,
  0x61, 0x6c, 0x2f, 0x66, 0x6c, 0x61, 0x74, 0x74, 0x65, 0x6e, 0x2f, 0x43,
  0x6f, 0x6e, 0x73, 0x74, 0x00, 0x00, 0x00, 0x00, 0x38, 0xfd, 0xff, 0xff,
  0x42, 0xfe, 0xff, 0xff, 0x04, 0x00, 0x00, 0x00, 0x0c, 0x00, 0x00, 0x00,
  0x8a, 0xb5, 0x67, 0xbf, 0xe7, 0xad, 0x33, 0xc0, 0x24, 0xd3, 0xbb, 0x3f,
  0x26, 0xfe, 0xff, 0xff, 0x10, 0x00, 0x00, 0x00, 0x05, 0x00, 0x00, 0x00,
  0x10, 0x00, 0x00, 0x00, 0x44, 0x00, 0x00, 0x00, 0x01, 0x00, 0x00, 0x00,
  0x03, 0x00, 0x00, 0x00, 0x32, 0x00, 0x00, 0x00, 0x73, 0x65, 0x71, 0x75,
  0x65, 0x6e, 0x74, 0x69, 0x61, 0x6c, 0x2f, 0x64, 0x65, 0x6e, 0x73, 0x65,
  0x5f, 0x31, 0x2f, 0x42, 0x69, 0x61, 0x73, 0x41, 0x64, 0x64, 0x2f, 0x52,
  0x65, 0x61, 0x64, 0x56, 0x61, 0x72, 0x69, 0x61, 0x62, 0x6c, 0x65, 0x4f,
  0x70, 0x2f, 0x72, 0x65, 0x73, 0x6f, 0x75, 0x72, 0x63, 0x65, 0x00, 0x00,
  0xa8, 0xfd, 0xff, 0xff, 0xb2, 0xfe, 0xff, 0xff, 0x04, 0x00, 0x00, 0x00,
  0x40, 0x00, 0x00, 0x00, 0x17, 0x88, 0x6b, 0xbe, 0xd7, 0xc7, 0x15, 0xbd,
  0xd6, 0x63, 0x5f, 0xbd, 0x0d, 0xb6, 0x93, 0xbe, 0x39, 0xd8, 0x27, 0xbe,
  0x11, 0x7c, 0x4b, 0xbd, 0xd7, 0xc4, 0x9d, 0xbe, 0x21, 0x60, 0x70, 0xbe,
  0x22, 0x78, 0xf8, 0x3f, 0xba, 0xb5, 0xb0, 0x3e, 0xca, 0x67, 0x55, 0x3f,
  0x88, 0xf7, 0x8e, 0xbe, 0x26, 0xa6, 0x81, 0x3e, 0xdb, 0x52, 0xf3, 0x3e,
  0xee, 0xf5, 0x04, 0x40, 0x06, 0x89, 0x79, 0xbe, 0xca, 0xfe, 0xff, 0xff,
  0x10, 0x00, 0x00, 0x00, 0x04, 0x00, 0x00, 0x00, 0x10, 0x00, 0x00, 0x00,
  0x44, 0x00, 0x00, 0x00, 0x01, 0x00, 0x00, 0x00, 0x10, 0x00, 0x00, 0x00,
  0x30, 0x00, 0x00, 0x00, 0x73, 0x65, 0x71, 0x75, 0x65, 0x6e, 0x74, 0x69,
  0x61, 0x6c, 0x2f, 0x64, 0x65, 0x6e, 0x73, 0x65, 0x2f, 0x42, 0x69, 0x61,
  0x73, 0x41, 0x64, 0x64, 0x2f, 0x52, 0x65, 0x61, 0x64, 0x56, 0x61, 0x72,
  0x69, 0x61, 0x62, 0x6c, 0x65, 0x4f, 0x70, 0x2f, 0x72, 0x65, 0x73, 0x6f,
  0x75, 0x72, 0x63, 0x65, 0x00, 0x00, 0x00, 0x00, 0x4c, 0xfe, 0xff, 0xff,
  0x56, 0xff, 0xff, 0xff, 0x04, 0x00, 0x00, 0x00, 0x40, 0x00, 0x00, 0x00,
  0xec, 0x2e, 0x0b, 0xbf, 0x07, 0xcf, 0x3a, 0xbf, 0x15, 0xd3, 0x4c, 0xbf,
  0x57, 0xec, 0x1f, 0x3b, 0xfb, 0x34, 0x5c, 0xbf, 0x63, 0x01, 0xed, 0x3f,
  0x4a, 0xc3, 0x30, 0xbe, 0xe3, 0x26, 0x44, 0xbf, 0x14, 0x39, 0xd2, 0x3d,
  0x6f, 0xdd, 0xe1, 0xbe, 0x90, 0xc0, 0x1c, 0x3f, 0x88, 0x76, 0x64, 0xbf,
  0x9d, 0xe1, 0x1c, 0x40, 0x55, 0x81, 0xb8, 0xbf, 0xe6, 0xfe, 0x6d, 0x3e,
  0x83, 0x32, 0x5d, 0xbf, 0x6e, 0xff, 0xff, 0xff, 0x10, 0x00, 0x00, 0x00,
  0x03, 0x00, 0x00, 0x00, 0x10, 0x00, 0x00, 0x00, 0x48, 0x00, 0x00, 0x00,
  0x01, 0x00, 0x00, 0x00, 0x10, 0x00, 0x00, 0x00, 0x33, 0x00, 0x00, 0x00,
  0x73, 0x65, 0x71, 0x75, 0x65, 0x6e, 0x74, 0x69, 0x61, 0x6c, 0x2f, 0x63,
  0x6f, 0x6e, 0x76, 0x32, 0x64, 0x5f, 0x31, 0x2f, 0x42, 0x69, 0x61, 0x73,
  0x41, 0x64, 0x64, 0x2f, 0x52, 0x65, 0x61, 0x64, 0x56, 0x61, 0x72, 0x69,
  0x61, 0x62, 0x6c, 0x65, 0x4f, 0x70, 0x2f, 0x72, 0x65, 0x73, 0x6f, 0x75,
  0x72, 0x63, 0x65, 0x00, 0x04, 0x00, 0x06, 0x00, 0x04, 0x00, 0x00, 0x00,
  0x00, 0x00, 0x06, 0x00, 0x08, 0x00, 0x04, 0x00, 0x06, 0x00, 0x00, 0x00,
  0x04, 0x00, 0x00, 0x00, 0x20, 0x00, 0x00, 0x00, 0xc7, 0xa8, 0x93, 0xbf,
  0x75, 0x74, 0xf2, 0xbe, 0x5d, 0x49, 0xb5, 0x3f, 0x17, 0x0d, 0xae, 0xbc,
  0x78, 0xc4, 0x03, 0x40, 0xcb, 0x37, 0x28, 0xbe, 0x8e, 0x56, 0x69, 0xbf,
  0x6e, 0x5c, 0x23, 0xbf, 0x00, 0x00, 0x0e, 0x00, 0x14, 0x00, 0x04, 0x00,
  0x00, 0x00, 0x08, 0x00, 0x0c, 0x00, 0x10, 0x00, 0x0e, 0x00, 0x00, 0x00,
  0x10, 0x00, 0x00, 0x00, 0x02, 0x00, 0x00, 0x00, 0x10, 0x00, 0x00, 0x00,
  0x44, 0x00, 0x00, 0x00, 0x01, 0x00, 0x00, 0x00, 0x08, 0x00, 0x00, 0x00,
  0x31, 0x00, 0x00, 0x00, 0x73, 0x65, 0x71, 0x75, 0x65, 0x6e, 0x74, 0x69,
  0x61, 0x6c, 0x2f, 0x63, 0x6f, 0x6e, 0x76, 0x32, 0x64, 0x2f, 0x42, 0x69,
  0x61, 0x73, 0x41, 0x64, 0x64, 0x2f, 0x52, 0x65, 0x61, 0x64, 0x56, 0x61,
  0x72, 0x69, 0x61, 0x62, 0x6c, 0x65, 0x4f, 0x70, 0x2f, 0x72, 0x65, 0x73,
  0x6f, 0x75, 0x72, 0x63, 0x65, 0x00, 0x00, 0x00, 0x90, 0xff, 0xff, 0xff,
  0x14, 0x00, 0x18, 0x00, 0x04, 0x00, 0x00, 0x00, 0x08, 0x00, 0x0c, 0x00,
  0x10, 0x00, 0x00, 0x00, 0x00, 0x00, 0x14, 0x00, 0x14, 0x00, 0x00, 0x00,
  0x14, 0x00, 0x00, 0x00, 0x01, 0x00, 0x00, 0x00, 0x20, 0x00, 0x00, 0x00,
  0x44, 0x00, 0x00, 0x00, 0x2c, 0x00, 0x00, 0x00, 0x04, 0x00, 0x00, 0x00,
  0x01, 0x00, 0x00, 0x00, 0x40, 0x00, 0x00, 0x00, 0x03, 0x00, 0x00, 0x00,
  0x01, 0x00, 0x00, 0x00, 0x0c, 0x00, 0x00, 0x00, 0x63, 0x6f, 0x6e, 0x76,
  0x32, 0x64, 0x5f, 0x69, 0x6e, 0x70, 0x75, 0x74, 0x00, 0x00, 0x00, 0x00,
  0x04, 0x00, 0x00, 0x00, 0xff, 0xff, 0xff, 0xff, 0x40, 0x00, 0x00, 0x00,
  0x03, 0x00, 0x00, 0x00, 0x01, 0x00, 0x00, 0x00, 0xfc, 0xff, 0xff, 0xff,
  0x04, 0x00, 0x04, 0x00, 0x04, 0x00, 0x00, 0x00
};


unsigned int model_tflite_len = 13052;// Fill the int in `src/model.cc` here
