#include "magic_wand_model_data.h"

// We need to keep the data array aligned on some architectures.
#ifdef __has_attribute
#define HAVE_ATTRIBUTE(x) __has_attribute(x)
#else
#define HAVE_ATTRIBUTE(x) 0
#endif
#if HAVE_ATTRIBUTE(aligned) || (defined(__GNUC__) && !defined(__clang__))
#define DATA_ALIGN_ATTRIBUTE __attribute__((aligned(4)))
#else
#define DATA_ALIGN_ATTRIBUTE
#endif

const unsigned char g_magic_wand_model_data[] DATA_ALIGN_ATTRIBUTE = {
  // Paste the data of the char array in `src/model.cc` here
    0x1c, 0x00, 0x00, 0x00, 0x54, 0x46, 0x4c, 0x33, 0x14, 0x00, 0x20, 0x00,
  0x04, 0x00, 0x08, 0x00, 0x0c, 0x00, 0x10, 0x00, 0x14, 0x00, 0x00, 0x00,
  0x18, 0x00, 0x1c, 0x00, 0x14, 0x00, 0x00, 0x00, 0x03, 0x00, 0x00, 0x00,
  0x18, 0x00, 0x00, 0x00, 0x2c, 0x00, 0x00, 0x00, 0xd8, 0x00, 0x00, 0x00,
  0x2c, 0x00, 0x00, 0x00, 0x80, 0x00, 0x00, 0x00, 0x78, 0x00, 0x00, 0x00,
  0x05, 0x00, 0x00, 0x00, 0x28, 0x07, 0x00, 0x00, 0x44, 0x06, 0x00, 0x00,
  0xbc, 0x03, 0x00, 0x00, 0xf8, 0x02, 0x00, 0x00, 0xac, 0x01, 0x00, 0x00,
  0x01, 0x00, 0x00, 0x00, 0xd0, 0x00, 0x00, 0x00, 0x14, 0x00, 0x00, 0x00,
  0xdc, 0x32, 0x00, 0x00, 0xd8, 0x32, 0x00, 0x00, 0xd0, 0x31, 0x00, 0x00,
  0x1c, 0x31, 0x00, 0x00, 0x74, 0x30, 0x00, 0x00, 0xfc, 0x2f, 0x00, 0x00,
  0x90, 0x2f, 0x00, 0x00, 0x40, 0x13, 0x00, 0x00, 0xec, 0x11, 0x00, 0x00,
  0x10, 0x10, 0x00, 0x00, 0xb4, 0x07, 0x00, 0x00, 0xb0, 0x32, 0x00, 0x00,
  0xac, 0x32, 0x00, 0x00, 0xa8, 0x32, 0x00, 0x00, 0xa4, 0x32, 0x00, 0x00,
  0xa0, 0x32, 0x00, 0x00, 0x9c, 0x32, 0x00, 0x00, 0x98, 0x32, 0x00, 0x00,
  0x94, 0x32, 0x00, 0x00, 0x3c, 0x00, 0x00, 0x00, 0x00, 0x00, 0x00, 0x00,
  0x01, 0x00, 0x00, 0x00, 0x0c, 0x00, 0x00, 0x00, 0x08, 0x00, 0x0c, 0x00,
  0x04, 0x00, 0x08, 0x00, 0x08, 0x00, 0x00, 0x00, 0x08, 0x00, 0x00, 0x00,
  0x13, 0x00, 0x00, 0x00, 0x13, 0x00, 0x00, 0x00, 0x6d, 0x69, 0x6e, 0x5f,
  0x72, 0x75, 0x6e, 0x74, 0x69, 0x6d, 0x65, 0x5f, 0x76, 0x65, 0x72, 0x73,
  0x69, 0x6f, 0x6e, 0x00, 0xb6, 0xce, 0xff, 0xff, 0x04, 0x00, 0x00, 0x00,
  0x10, 0x00, 0x00, 0x00, 0x31, 0x2e, 0x35, 0x2e, 0x30, 0x00, 0x00, 0x00,
  0x00, 0x00, 0x00, 0x00, 0x00, 0x00, 0x00, 0x00, 0x0f, 0x00, 0x00, 0x00,
  0x4d, 0x4c, 0x49, 0x52, 0x20, 0x43, 0x6f, 0x6e, 0x76, 0x65, 0x72, 0x74,
  0x65, 0x64, 0x2e, 0x00, 0x00, 0x00, 0x0e, 0x00, 0x18, 0x00, 0x04, 0x00,
  0x08, 0x00, 0x0c, 0x00, 0x10, 0x00, 0x14, 0x00, 0x0e, 0x00, 0x00, 0x00,
  0x14, 0x00, 0x00, 0x00, 0x5c, 0x00, 0x00, 0x00, 0x60, 0x00, 0x00, 0x00,
  0x64, 0x00, 0x00, 0x00, 0x84, 0x00, 0x00, 0x00, 0x12, 0x00, 0x00, 0x00,
  0x9c, 0x31, 0x00, 0x00, 0x2c, 0x31, 0x00, 0x00, 0x88, 0x30, 0x00, 0x00,
  0xe0, 0x2f, 0x00, 0x00, 0x38, 0x2f, 0x00, 0x00, 0xd4, 0x2e, 0x00, 0x00,
  0x6c, 0x2e, 0x00, 0x00, 0x18, 0x12, 0x00, 0x00, 0xbc, 0x10, 0x00, 0x00,
  0xe0, 0x0e, 0x00, 0x00, 0x0c, 0x06, 0x00, 0x00, 0x28, 0x05, 0x00, 0x00,
  0xe8, 0x03, 0x00, 0x00, 0x3c, 0x03, 0x00, 0x00, 0x98, 0x02, 0x00, 0x00,
  0xd4, 0x01, 0x00, 0x00, 0x10, 0x01, 0x00, 0x00, 0x84, 0x00, 0x00, 0x00,
  0x01, 0x00, 0x00, 0x00, 0x00, 0x00, 0x00, 0x00, 0x01, 0x00, 0x00, 0x00,
  0x11, 0x00, 0x00, 0x00, 0x08, 0x00, 0x00, 0x00, 0x74, 0x05, 0x00, 0x00,
  0x94, 0x04, 0x00, 0x00, 0x78, 0x03, 0x00, 0x00, 0xbc, 0x02, 0x00, 0x00,
  0x30, 0x02, 0x00, 0x00, 0x50, 0x01, 0x00, 0x00, 0xa8, 0x00, 0x00, 0x00,
  0x10, 0x00, 0x00, 0x00, 0x04, 0x00, 0x00, 0x00, 0x6d, 0x61, 0x69, 0x6e,
  0x00, 0x00, 0x00, 0x00, 0x7a, 0xff, 0xff, 0xff, 0x00, 0x00, 0x00, 0x09,
  0x04, 0x00, 0x00, 0x00, 0x1c, 0x00, 0x00, 0x00, 0x10, 0x00, 0x00, 0x00,
  0x04, 0x00, 0x00, 0x00, 0xb2, 0xcf, 0xff, 0xff, 0x00, 0x00, 0x80, 0x3f,
  0x01, 0x00, 0x00, 0x00, 0x11, 0x00, 0x00, 0x00, 0x01, 0x00, 0x00, 0x00,
  0x10, 0x00, 0x00, 0x00, 0xa0, 0xfa, 0xff, 0xff, 0x19, 0x00, 0x00, 0x00,
  0x00, 0x00, 0x00, 0x19, 0x01, 0x00, 0x00, 0x00, 0x40, 0xcf, 0xff, 0xff,
  0x14, 0x00, 0x00, 0x00, 0x12, 0x00, 0x00, 0x00, 0x18, 0x00, 0x00, 0x00,
  0x30, 0x00, 0x00, 0x00, 0x20, 0x00, 0x00, 0x00, 0x02, 0x00, 0x00, 0x00,
  0x01, 0x00, 0x00, 0x00, 0x04, 0x00, 0x00, 0x00, 0x08, 0x00, 0x00, 0x00,
  0x49, 0x64, 0x65, 0x6e, 0x74, 0x69, 0x74, 0x79, 0x00, 0x00, 0x00, 0x00,
  0x02, 0x00, 0x00, 0x00, 0xff, 0xff, 0xff, 0xff, 0x04, 0x00, 0x00, 0x00,
  0x24, 0xd0, 0xff, 0xff, 0x00, 0x00, 0x0e, 0x00, 0x18, 0x00, 0x08, 0x00,
  0x0c, 0x00, 0x10, 0x00, 0x07, 0x00, 0x14, 0x00, 0x0e, 0x00, 0x00, 0x00,
  0x00, 0x00, 0x00, 0x08, 0x03, 0x00, 0x00, 0x00, 0x18, 0x00, 0x00, 0x00,
  0x0c, 0x00, 0x00, 0x00, 0x04, 0x00, 0x00, 0x00, 0x40, 0xcf, 0xff, 0xff,
  0x01, 0x00, 0x00, 0x00, 0x10, 0x00, 0x00, 0x00, 0x03, 0x00, 0x00, 0x00,
  0x0f, 0x00, 0x00, 0x00, 0x07, 0x00, 0x00, 0x00, 0x04, 0x00, 0x00, 0x00,
  0xc8, 0xcf, 0xff, 0xff, 0x14, 0x00, 0x00, 0x00, 0x11, 0x00, 0x00, 0x00,
  0x18, 0x00, 0x00, 0x00, 0x5c, 0x00, 0x00, 0x00, 0x4c, 0x00, 0x00, 0x00,
  0x02, 0x00, 0x00, 0x00, 0x01, 0x00, 0x00, 0x00, 0x04, 0x00, 0x00, 0x00,
  0x34, 0x00, 0x00, 0x00, 0x73, 0x65, 0x71, 0x75, 0x65, 0x6e, 0x74, 0x69,
  0x61, 0x6c, 0x2f, 0x64, 0x65, 0x6e, 0x73, 0x65, 0x5f, 0x31, 0x2f, 0x4d,
  0x61, 0x74, 0x4d, 0x75, 0x6c, 0x3b, 0x73, 0x65, 0x71, 0x75, 0x65, 0x6e,
  0x74, 0x69, 0x61, 0x6c, 0x2f, 0x64, 0x65, 0x6e, 0x73, 0x65, 0x5f, 0x31,
  0x2f, 0x42, 0x69, 0x61, 0x73, 0x41, 0x64, 0x64, 0x00, 0x00, 0x00, 0x00,
  0x02, 0x00, 0x00, 0x00, 0xff, 0xff, 0xff, 0xff, 0x04, 0x00, 0x00, 0x00,
  0xc8, 0xcf, 0xff, 0xff, 0xda, 0xfc, 0xff, 0xff, 0x00, 0x00, 0x00, 0x08,
  0x03, 0x00, 0x00, 0x00, 0x24, 0x00, 0x00, 0x00, 0x18, 0x00, 0x00, 0x00,
  0x0c, 0x00, 0x00, 0x00, 0x00, 0x00, 0x06, 0x00, 0x08, 0x00, 0x07, 0x00,
  0x06, 0x00, 0x00, 0x00, 0x00, 0x00, 0x00, 0x01, 0x01, 0x00, 0x00, 0x00,
  0x0f, 0x00, 0x00, 0x00, 0x03, 0x00, 0x00, 0x00, 0x0e, 0x00, 0x00, 0x00,
  0x06, 0x00, 0x00, 0x00, 0x03, 0x00, 0x00, 0x00, 0xe8, 0xfb, 0xff, 0xff,
  0x09, 0x00, 0x00, 0x00, 0x00, 0x00, 0x00, 0x09, 0x01, 0x00, 0x00, 0x00,
  0x88, 0xd0, 0xff, 0xff, 0x14, 0x00, 0x00, 0x00, 0x10, 0x00, 0x00, 0x00,
  0x18, 0x00, 0x00, 0x00, 0x6c, 0x00, 0x00, 0x00, 0x5c, 0x00, 0x00, 0x00,
  0x02, 0x00, 0x00, 0x00, 0x01, 0x00, 0x00, 0x00, 0x10, 0x00, 0x00, 0x00,
  0x46, 0x00, 0x00, 0x00, 0x73, 0x65, 0x71, 0x75, 0x65, 0x6e, 0x74, 0x69,
  0x61, 0x6c, 0x2f, 0x64, 0x65, 0x6e, 0x73, 0x65, 0x2f, 0x4d, 0x61, 0x74,
  0x4d, 0x75, 0x6c, 0x3b, 0x73, 0x65, 0x71, 0x75, 0x65, 0x6e, 0x74, 0x69,
  0x61, 0x6c, 0x2f, 0x64, 0x65, 0x6e, 0x73, 0x65, 0x2f, 0x52, 0x65, 0x6c,
  0x75, 0x3b, 0x73, 0x65, 0x71, 0x75, 0x65, 0x6e, 0x74, 0x69, 0x61, 0x6c,
  0x2f, 0x64, 0x65, 0x6e, 0x73, 0x65, 0x2f, 0x42, 0x69, 0x61, 0x73, 0x41,
  0x64, 0x64, 0x00, 0x00, 0x02, 0x00, 0x00, 0x00, 0xff, 0xff, 0xff, 0xff,
  0x10, 0x00, 0x00, 0x00, 0xa8, 0xd1, 0xff, 0xff, 0x00, 0x00, 0x0a, 0x00,
  0x10, 0x00, 0x04, 0x00, 0x08, 0x00, 0x0c, 0x00, 0x0a, 0x00, 0x00, 0x00,
  0x02, 0x00, 0x00, 0x00, 0x10, 0x00, 0x00, 0x00, 0x04, 0x00, 0x00, 0x00,
  0x01, 0x00, 0x00, 0x00, 0x0e, 0x00, 0x00, 0x00, 0x02, 0x00, 0x00, 0x00,
  0x0d, 0x00, 0x00, 0x00, 0x05, 0x00, 0x00, 0x00, 0xa8, 0xfc, 0xff, 0xff,
  0x16, 0x00, 0x00, 0x00, 0x00, 0x00, 0x00, 0x16, 0x01, 0x00, 0x00, 0x00,
  0x48, 0xd1, 0xff, 0xff, 0x14, 0x00, 0x00, 0x00, 0x0f, 0x00, 0x00, 0x00,
  0x18, 0x00, 0x00, 0x00, 0x40, 0x00, 0x00, 0x00, 0x30, 0x00, 0x00, 0x00,
  0x02, 0x00, 0x00, 0x00, 0x01, 0x00, 0x00, 0x00, 0x70, 0x00, 0x00, 0x00,
  0x1a, 0x00, 0x00, 0x00, 0x73, 0x65, 0x71, 0x75, 0x65, 0x6e, 0x74, 0x69,
  0x61, 0x6c, 0x2f, 0x66, 0x6c, 0x61, 0x74, 0x74, 0x65, 0x6e, 0x2f, 0x52,
  0x65, 0x73, 0x68, 0x61, 0x70, 0x65, 0x00, 0x00, 0x02, 0x00, 0x00, 0x00,
  0xff, 0xff, 0xff, 0xff, 0x70, 0x00, 0x00, 0x00, 0x2c, 0xd1, 0xff, 0xff,
  0x3e, 0xfe, 0xff, 0xff, 0x00, 0x00, 0x00, 0x05, 0x01, 0x00, 0x00, 0x00,
  0x38, 0x00, 0x00, 0x00, 0x2c, 0x00, 0x00, 0x00, 0x14, 0x00, 0x00, 0x00,
  0x00, 0x00, 0x0e, 0x00, 0x14, 0x00, 0x00, 0x00, 0x10, 0x00, 0x0c, 0x00,
  0x08, 0x00, 0x04, 0x00, 0x0e, 0x00, 0x00, 0x00, 0x03, 0x00, 0x00, 0x00,
  0x01, 0x00, 0x00, 0x00, 0x03, 0x00, 0x00, 0x00, 0x01, 0x00, 0x00, 0x00,
  0x01, 0x00, 0x00, 0x00, 0x0d, 0x00, 0x00, 0x00, 0x01, 0x00, 0x00, 0x00,
  0x0c, 0x00, 0x00, 0x00, 0xe8, 0xd1, 0xff, 0xff, 0x14, 0x00, 0x00, 0x00,
  0x0e, 0x00, 0x00, 0x00, 0x20, 0x00, 0x00, 0x00, 0x58, 0x00, 0x00, 0x00,
  0x40, 0x00, 0x00, 0x00, 0x04, 0x00, 0x00, 0x00, 0x01, 0x00, 0x00, 0x00,
  0x07, 0x00, 0x00, 0x00, 0x01, 0x00, 0x00, 0x00, 0x10, 0x00, 0x00, 0x00,
  0x22, 0x00, 0x00, 0x00, 0x73, 0x65, 0x71, 0x75, 0x65, 0x6e, 0x74, 0x69,
  0x61, 0x6c, 0x2f, 0x6d, 0x61, 0x78, 0x5f, 0x70, 0x6f, 0x6f, 0x6c, 0x69,
  0x6e, 0x67, 0x32, 0x64, 0x5f, 0x31, 0x2f, 0x4d, 0x61, 0x78, 0x50, 0x6f,
  0x6f, 0x6c, 0x00, 0x00, 0x04, 0x00, 0x00, 0x00, 0xff, 0xff, 0xff, 0xff,
  0x07, 0x00, 0x00, 0x00, 0x01, 0x00, 0x00, 0x00, 0x10, 0x00, 0x00, 0x00,
  0xe4, 0xd1, 0xff, 0xff, 0x1a, 0xfe, 0xff, 0xff, 0x00, 0x00, 0x00, 0x01,
  0x24, 0x00, 0x00, 0x00, 0x18, 0x00, 0x00, 0x00, 0x04, 0x00, 0x00, 0x00,
  0x0c, 0xfe, 0xff, 0xff, 0x01, 0x00, 0x00, 0x00, 0x01, 0x00, 0x00, 0x00,
  0x00, 0x00, 0x00, 0x01, 0x01, 0x00, 0x00, 0x00, 0x0c, 0x00, 0x00, 0x00,
  0x03, 0x00, 0x00, 0x00, 0x0b, 0x00, 0x00, 0x00, 0x09, 0x00, 0x00, 0x00,
  0x02, 0x00, 0x00, 0x00, 0x90, 0xd2, 0xff, 0xff, 0x14, 0x00, 0x00, 0x00,
  0x0d, 0x00, 0x00, 0x00, 0x20, 0x00, 0x00, 0x00, 0xb8, 0x00, 0x00, 0x00,
  0xa0, 0x00, 0x00, 0x00, 0x04, 0x00, 0x00, 0x00, 0x01, 0x00, 0x00, 0x00,
  0x15, 0x00, 0x00, 0x00, 0x01, 0x00, 0x00, 0x00, 0x10, 0x00, 0x00, 0x00,
  0x83, 0x00, 0x00, 0x00, 0x73, 0x65, 0x71, 0x75, 0x65, 0x6e, 0x74, 0x69,
  0x61, 0x6c, 0x2f, 0x63, 0x6f, 0x6e, 0x76, 0x32, 0x64, 0x5f, 0x31, 0x2f,
  0x52, 0x65, 0x6c, 0x75, 0x3b, 0x73, 0x65, 0x71, 0x75, 0x65, 0x6e, 0x74,
  0x69, 0x61, 0x6c, 0x2f, 0x63, 0x6f, 0x6e, 0x76, 0x32, 0x64, 0x5f, 0x31,
  0x2f, 0x42, 0x69, 0x61, 0x73, 0x41, 0x64, 0x64, 0x3b, 0x73, 0x65, 0x71,
  0x75, 0x65, 0x6e, 0x74, 0x69, 0x61, 0x6c, 0x2f, 0x63, 0x6f, 0x6e, 0x76,
  0x32, 0x64, 0x5f, 0x31, 0x2f, 0x43, 0x6f, 0x6e, 0x76, 0x32, 0x44, 0x3b,
  0x73, 0x65, 0x71, 0x75, 0x65, 0x6e, 0x74, 0x69, 0x61, 0x6c, 0x2f, 0x63,
  0x6f, 0x6e, 0x76, 0x32, 0x64, 0x5f, 0x31, 0x2f, 0x42, 0x69, 0x61, 0x73,
  0x41, 0x64, 0x64, 0x2f, 0x52, 0x65, 0x61, 0x64, 0x56, 0x61, 0x72, 0x69,
  0x61, 0x62, 0x6c, 0x65, 0x4f, 0x70, 0x2f, 0x72, 0x65, 0x73, 0x6f, 0x75,
  0x72, 0x63, 0x65, 0x00, 0x04, 0x00, 0x00, 0x00, 0xff, 0xff, 0xff, 0xff,
  0x15, 0x00, 0x00, 0x00, 0x01, 0x00, 0x00, 0x00, 0x10, 0x00, 0x00, 0x00,
  0xfc, 0xd3, 0xff, 0xff, 0x00, 0x00, 0x0e, 0x00, 0x1a, 0x00, 0x08, 0x00,
  0x0c, 0x00, 0x10, 0x00, 0x07, 0x00, 0x14, 0x00, 0x0e, 0x00, 0x00, 0x00,
  0x00, 0x00, 0x00, 0x05, 0x01, 0x00, 0x00, 0x00, 0x3c, 0x00, 0x00, 0x00,
  0x30, 0x00, 0x00, 0x00, 0x14, 0x00, 0x00, 0x00, 0x00, 0x00, 0x0e, 0x00,
  0x18, 0x00, 0x17, 0x00, 0x10, 0x00, 0x0c, 0x00, 0x08, 0x00, 0x04, 0x00,
  0x0e, 0x00, 0x00, 0x00, 0x03, 0x00, 0x00, 0x00, 0x03, 0x00, 0x00, 0x00,
  0x03, 0x00, 0x00, 0x00, 0x03, 0x00, 0x00, 0x00, 0x00, 0x00, 0x00, 0x01,
  0x01, 0x00, 0x00, 0x00, 0x0b, 0x00, 0x00, 0x00, 0x01, 0x00, 0x00, 0x00,
  0x0a, 0x00, 0x00, 0x00, 0x2c, 0xff, 0xff, 0xff, 0x11, 0x00, 0x00, 0x00,
  0x00, 0x00, 0x00, 0x11, 0x01, 0x00, 0x00, 0x00, 0xcc, 0xd3, 0xff, 0xff,
  0x14, 0x00, 0x00, 0x00, 0x0c, 0x00, 0x00, 0x00, 0x20, 0x00, 0x00, 0x00,
  0x58, 0x00, 0x00, 0x00, 0x40, 0x00, 0x00, 0x00, 0x04, 0x00, 0x00, 0x00,
  0x01, 0x00, 0x00, 0x00, 0x15, 0x00, 0x00, 0x00, 0x01, 0x00, 0x00, 0x00,
  0x08, 0x00, 0x00, 0x00, 0x20, 0x00, 0x00, 0x00, 0x73, 0x65, 0x71, 0x75,
  0x65, 0x6e, 0x74, 0x69, 0x61, 0x6c, 0x2f, 0x6d, 0x61, 0x78, 0x5f, 0x70,
  0x6f, 0x6f, 0x6c, 0x69, 0x6e, 0x67, 0x32, 0x64, 0x2f, 0x4d, 0x61, 0x78,
  0x50, 0x6f, 0x6f, 0x6c, 0x00, 0x00, 0x00, 0x00, 0x04, 0x00, 0x00, 0x00,
  0xff, 0xff, 0xff, 0xff, 0x15, 0x00, 0x00, 0x00, 0x01, 0x00, 0x00, 0x00,
  0x08, 0x00, 0x00, 0x00, 0xd8, 0xd4, 0xff, 0xff, 0x00, 0x00, 0x0e, 0x00,
  0x14, 0x00, 0x00, 0x00, 0x08, 0x00, 0x0c, 0x00, 0x07, 0x00, 0x10, 0x00,
  0x0e, 0x00, 0x00, 0x00, 0x00, 0x00, 0x00, 0x01, 0x30, 0x00, 0x00, 0x00,
  0x24, 0x00, 0x00, 0x00, 0x10, 0x00, 0x00, 0x00, 0x0c, 0x00, 0x10, 0x00,
  0x00, 0x00, 0x04, 0x00, 0x08, 0x00, 0x0f, 0x00, 0x0c, 0x00, 0x00, 0x00,
  0x01, 0x00, 0x00, 0x00, 0x01, 0x00, 0x00, 0x00, 0x00, 0x00, 0x00, 0x01,
  0x01, 0x00, 0x00, 0x00, 0x0a, 0x00, 0x00, 0x00, 0x03, 0x00, 0x00, 0x00,
  0x00, 0x00, 0x00, 0x00, 0x08, 0x00, 0x00, 0x00, 0x01, 0x00, 0x00, 0x00,
  0x0c, 0x00, 0x10, 0x00, 0x0b, 0x00, 0x00, 0x00, 0x0c, 0x00, 0x04, 0x00,
  0x0c, 0x00, 0x00, 0x00, 0x03, 0x00, 0x00, 0x00, 0x00, 0x00, 0x00, 0x03,
  0x01, 0x00, 0x00, 0x00, 0xac, 0xd4, 0xff, 0xff, 0x14, 0x00, 0x00, 0x00,
  0x0b, 0x00, 0x00, 0x00, 0x20, 0x00, 0x00, 0x00, 0xb0, 0x00, 0x00, 0x00,
  0x98, 0x00, 0x00, 0x00, 0x04, 0x00, 0x00, 0x00, 0x01, 0x00, 0x00, 0x00,
  0x40, 0x00, 0x00, 0x00, 0x03, 0x00, 0x00, 0x00, 0x08, 0x00, 0x00, 0x00,
  0x7b, 0x00, 0x00, 0x00, 0x73, 0x65, 0x71, 0x75, 0x65, 0x6e, 0x74, 0x69,
  0x61, 0x6c, 0x2f, 0x63, 0x6f, 0x6e, 0x76, 0x32, 0x64, 0x2f, 0x52, 0x65,
  0x6c, 0x75, 0x3b, 0x73, 0x65, 0x71, 0x75, 0x65, 0x6e, 0x74, 0x69, 0x61,
  0x6c, 0x2f, 0x63, 0x6f, 0x6e, 0x76, 0x32, 0x64, 0x2f, 0x42, 0x69, 0x61,
  0x73, 0x41, 0x64, 0x64, 0x3b, 0x73, 0x65, 0x71, 0x75, 0x65, 0x6e, 0x74,
  0x69, 0x61, 0x6c, 0x2f, 0x63, 0x6f, 0x6e, 0x76, 0x32, 0x64, 0x2f, 0x43,
  0x6f, 0x6e, 0x76, 0x32, 0x44, 0x3b, 0x73, 0x65, 0x71, 0x75, 0x65, 0x6e,
  0x74, 0x69, 0x61, 0x6c, 0x2f, 0x63, 0x6f, 0x6e, 0x76, 0x32, 0x64, 0x2f,
  0x42, 0x69, 0x61, 0x73, 0x41, 0x64, 0x64, 0x2f, 0x52, 0x65, 0x61, 0x64,
  0x56, 0x61, 0x72, 0x69, 0x61, 0x62, 0x6c, 0x65, 0x4f, 0x70, 0x2f, 0x72,
  0x65, 0x73, 0x6f, 0x75, 0x72, 0x63, 0x65, 0x00, 0x04, 0x00, 0x00, 0x00,
  0xff, 0xff, 0xff, 0xff, 0x40, 0x00, 0x00, 0x00, 0x03, 0x00, 0x00, 0x00,
  0x08, 0x00, 0x00, 0x00, 0x00, 0xd5, 0xff, 0xff, 0x0a, 0xd6, 0xff, 0xff,
  0x04, 0x00, 0x00, 0x00, 0x00, 0x08, 0x00, 0x00, 0xad, 0xac, 0x8e, 0x3e,
  0x34, 0xd6, 0x73, 0x3e, 0x19, 0xc5, 0x9a, 0x3c, 0xcd, 0x16, 0x3c, 0xbe,
  0x30, 0x66, 0x32, 0xbe, 0xc1, 0xff, 0x18, 0x3d, 0xe4, 0x76, 0x50, 0xba,
  0xa7, 0xf8, 0xcc, 0x3e, 0xd9, 0x20, 0x7e, 0x3e, 0x50, 0x93, 0x63, 0xbe,
  0xb7, 0x76, 0xa2, 0x3c, 0x7d, 0x36, 0xca, 0xbe, 0x72, 0x7d, 0x4e, 0xbe,
  0xf0, 0x6c, 0x2e, 0x3e, 0x21, 0xad, 0x62, 0xbe, 0xaa, 0xbf, 0x94, 0xbd,
  0x58, 0xc7, 0x21, 0xbe, 0x35, 0x82, 0xc9, 0xbd, 0x40, 0x2d, 0x06, 0xbe,
  0x27, 0xce, 0x9c, 0xbe, 0xa2, 0x47, 0xca, 0xbd, 0x2b, 0xcb, 0x26, 0x3b,
  0xbb, 0xe1, 0x4a, 0xbd, 0xdf, 0xe2, 0x25, 0xbe, 0xe3, 0xa1, 0xe1, 0xbe,
  0xb3, 0x0d, 0x01, 0xbd, 0x34, 0xa8, 0x04, 0xbe, 0x6c, 0x4b, 0x7b, 0xbe,
  0xe7, 0x89, 0x96, 0xbd, 0x70, 0x53, 0x06, 0xbd, 0xfe, 0x98, 0xa6, 0xbd,
  0x6d, 0x89, 0xa4, 0xbd, 0xe8, 0x40, 0x84, 0xbe, 0xc6, 0x93, 0xdd, 0xbe,
  0x11, 0x0d, 0x68, 0xbd, 0x64, 0x40, 0x0b, 0xbd, 0xe9, 0x4d, 0x8e, 0xbd,
  0xaa, 0xcd, 0x14, 0xbd, 0x67, 0x26, 0xbf, 0xbe, 0x75, 0x36, 0xbb, 0x3c,
  0x47, 0x87, 0xbb, 0xbe, 0x16, 0x40, 0x0d, 0xbf, 0x01, 0xff, 0xb1, 0x3e,
  0x58, 0x49, 0x38, 0xbd, 0xaf, 0x3a, 0xbb, 0xbd, 0xe8, 0xf2, 0x2d, 0xbe,
  0x4e, 0x94, 0xdd, 0xbe, 0x20, 0x06, 0x9a, 0x3d, 0xf6, 0xfa, 0x13, 0x3f,
  0x48, 0xb8, 0xa5, 0xbe, 0x44, 0xcc, 0xdb, 0xbc, 0x98, 0x93, 0x97, 0x3c,
  0x3f, 0xa5, 0x3f, 0xbd, 0x66, 0xc5, 0x90, 0xbd, 0x78, 0xb6, 0x04, 0xbe,
  0x9c, 0xd4, 0x4e, 0xbd, 0xa5, 0xa2, 0xb1, 0x3e, 0xef, 0x2e, 0x2a, 0x3e,
  0x20, 0xcf, 0x80, 0xbe, 0x7c, 0x4a, 0x0f, 0x3c, 0xe2, 0x10, 0x30, 0x3e,
  0x4e, 0xc9, 0x4c, 0xbd, 0x1a, 0x43, 0x17, 0x3f, 0x87, 0xbf, 0x17, 0xbc,
  0x56, 0x00, 0x88, 0x3c, 0x57, 0x6a, 0xce, 0xbd, 0xdf, 0xa1, 0x95, 0xbd,
  0x02, 0xaa, 0x6a, 0xbd, 0x34, 0x52, 0x87, 0xbc, 0x27, 0x0f, 0xc6, 0x3d,
  0x75, 0xd3, 0xff, 0xbd, 0xdb, 0x17, 0x48, 0x3e, 0x5c, 0xa5, 0x40, 0xbe,
  0x24, 0x62, 0xf9, 0xbd, 0xf0, 0x9e, 0x41, 0x3e, 0x2f, 0xe8, 0x9e, 0xbd,
  0x28, 0xb4, 0x00, 0xbe, 0xf9, 0x53, 0x89, 0xbd, 0x06, 0x76, 0x04, 0xbe,
  0x0f, 0x84, 0xb9, 0x3e, 0x62, 0x97, 0x4f, 0xbe, 0xc0, 0x07, 0x29, 0xbe,
  0x9a, 0xf5, 0xa5, 0xbc, 0x5b, 0x06, 0x25, 0xbe, 0xc4, 0x1d, 0xce, 0xbe,
  0x2c, 0x97, 0xb2, 0x3e, 0x92, 0xe1, 0x16, 0x3d, 0x82, 0x3f, 0x8f, 0xbe,
  0xcc, 0x7e, 0x4d, 0xbe, 0xba, 0xd5, 0x1e, 0xbd, 0xb6, 0xcb, 0xe1, 0x3c,
  0xc0, 0x7b, 0x5f, 0x3a, 0x13, 0xe3, 0xaf, 0xbd, 0x53, 0x9a, 0x81, 0xbd,
  0x2a, 0x4b, 0x1a, 0x3e, 0xb8, 0xdb, 0x3d, 0xbc, 0x21, 0x89, 0x71, 0xbe,
  0x08, 0x51, 0x26, 0xbe, 0x56, 0x8e, 0x81, 0xbe, 0x0a, 0xe6, 0x1d, 0xbf,
  0xae, 0x03, 0xb9, 0xbe, 0x7d, 0x2b, 0x20, 0x3c, 0xd1, 0x46, 0xad, 0x3d,
  0xd9, 0xcb, 0xf5, 0xbc, 0x28, 0x22, 0x0d, 0x3e, 0x8b, 0x6f, 0x1f, 0x3e,
  0x71, 0xdb, 0x98, 0xbd, 0x5c, 0xa3, 0x94, 0xbe, 0x1a, 0x42, 0xad, 0xbd,
  0x2a, 0xd9, 0xb6, 0x3e, 0x1a, 0xc8, 0x1c, 0x3e, 0x2c, 0x4f, 0x0b, 0xbd,
  0x77, 0x2a, 0xa3, 0xbc, 0xd5, 0xc5, 0x90, 0xbd, 0xf1, 0xc8, 0x6b, 0x3d,
  0x2a, 0x27, 0x86, 0xbe, 0xab, 0xfb, 0x49, 0x3d, 0x81, 0x99, 0xd1, 0xbd,
  0x6d, 0xa7, 0xbd, 0x3d, 0x06, 0xec, 0xa3, 0xbd, 0x71, 0x7c, 0x84, 0x3d,
  0x03, 0xde, 0xf9, 0xbc, 0x60, 0xf4, 0x8c, 0x3d, 0xce, 0x7c, 0x9a, 0xbe,
  0x76, 0x79, 0xef, 0xbd, 0xb8, 0x30, 0xa9, 0x3d, 0xdd, 0xe0, 0xc0, 0x3c,
  0x36, 0xb1, 0x2a, 0xbd, 0x94, 0x2e, 0xed, 0xbd, 0x29, 0x87, 0x1c, 0x3d,
  0x47, 0xda, 0xfc, 0x3d, 0x90, 0x6d, 0x8a, 0xbe, 0x01, 0xce, 0xd2, 0xbe,
  0x59, 0xd1, 0x36, 0xbd, 0xf1, 0xfe, 0x1c, 0xbd, 0x39, 0xac, 0xc1, 0x3d,
  0x79, 0x90, 0xbb, 0xbd, 0x57, 0x6f, 0xb2, 0xbe, 0x2e, 0x0f, 0xf8, 0x3e,
  0x17, 0xad, 0xb0, 0xbe, 0x40, 0x2b, 0xd1, 0xbe, 0x5a, 0xed, 0x41, 0xbe,
  0xc2, 0x7b, 0xe6, 0xbe, 0x28, 0x64, 0x2c, 0x3e, 0xac, 0x84, 0x8b, 0x3e,
  0x38, 0x58, 0x18, 0x3e, 0x3d, 0x4a, 0xa2, 0xbe, 0x80, 0x12, 0x86, 0xbd,
  0xbd, 0xb5, 0x8a, 0x3e, 0xce, 0x71, 0x31, 0x3d, 0xa1, 0xc7, 0xf8, 0x3d,
  0x30, 0xc4, 0x97, 0xbe, 0x1c, 0x93, 0x4e, 0xbd, 0x34, 0x81, 0xbb, 0x3d,
  0xe8, 0xc1, 0xc4, 0x3d, 0x40, 0x02, 0x55, 0xbd, 0x52, 0xc5, 0xf0, 0x3d,
  0x6f, 0xc1, 0x5d, 0xbd, 0x9f, 0x86, 0x16, 0x3d, 0xaa, 0xec, 0xb0, 0xbd,
  0xd9, 0x9f, 0x3d, 0x3e, 0x75, 0x71, 0xaa, 0x3d, 0xf2, 0x75, 0xa2, 0xbe,
  0x88, 0xd9, 0x98, 0xbd, 0x65, 0xea, 0x8a, 0xbd, 0x03, 0x3d, 0xcf, 0xbe,
  0xca, 0xdc, 0xdb, 0x3d, 0x7a, 0x2a, 0x54, 0xbe, 0x46, 0xba, 0x65, 0x3d,
  0x6c, 0xfa, 0x9c, 0x3e, 0xdc, 0x1d, 0xd4, 0x3d, 0x73, 0xb0, 0x2c, 0x3e,
  0x88, 0xed, 0xc5, 0x3c, 0x07, 0x19, 0xd3, 0xbe, 0x94, 0x12, 0x8e, 0x3d,
  0xbd, 0x15, 0x70, 0x3e, 0xd6, 0x64, 0x82, 0xbe, 0x11, 0x86, 0x5f, 0xbe,
  0x82, 0x4f, 0x17, 0xbe, 0x10, 0xe9, 0x56, 0xbd, 0x48, 0x07, 0x99, 0xbd,
  0xe7, 0x26, 0x1f, 0xbe, 0x22, 0xe2, 0xc2, 0xbe, 0x37, 0x4e, 0xfb, 0x3d,
  0xe5, 0x16, 0xcf, 0xbb, 0xa2, 0x7a, 0x97, 0xbe, 0x3d, 0x66, 0xb7, 0x3e,
  0x8c, 0xa5, 0xce, 0x3c, 0x74, 0xab, 0xea, 0xbc, 0x71, 0x98, 0x46, 0xbe,
  0xda, 0x6b, 0x5a, 0xbe, 0x03, 0x1b, 0xe7, 0x3e, 0x6f, 0x4d, 0xb7, 0x3e,
  0xd5, 0x3b, 0x86, 0x3c, 0xac, 0xab, 0xf4, 0xbd, 0x71, 0xff, 0xd8, 0xbd,
  0x1b, 0x2d, 0x60, 0xbd, 0xdd, 0xbf, 0xbb, 0x3e, 0xea, 0xb5, 0x2d, 0x3e,
  0x73, 0x92, 0x16, 0x3e, 0xd9, 0xbe, 0xf1, 0xbd, 0x83, 0xf3, 0x07, 0x3e,
  0x7e, 0xf4, 0xd2, 0x3c, 0xbc, 0x81, 0x8c, 0xbd, 0x79, 0xea, 0xf6, 0xbd,
  0x30, 0xd4, 0x84, 0xbb, 0xa3, 0xc8, 0xbe, 0x3d, 0xff, 0x10, 0x34, 0x3e,
  0x71, 0x58, 0x6f, 0x3c, 0xd8, 0xc9, 0x94, 0x3d, 0x38, 0x89, 0xb7, 0x3d,
  0x9b, 0x26, 0x89, 0xbd, 0x9d, 0x69, 0x86, 0xbd, 0x1f, 0xa6, 0x16, 0x3d,
  0x68, 0x23, 0x7c, 0x3c, 0xf2, 0x09, 0xec, 0xbb, 0x99, 0x00, 0x5e, 0x3b,
  0xf9, 0x67, 0x80, 0x3d, 0x99, 0xfe, 0xa6, 0xbc, 0x72, 0xa5, 0x60, 0xbd,
  0x05, 0x36, 0xca, 0x3c, 0xf1, 0xb6, 0xdc, 0x3c, 0x8f, 0x51, 0xff, 0xbc,
  0x92, 0xfd, 0x47, 0xbd, 0xc4, 0x86, 0xbc, 0xbe, 0x7e, 0x1d, 0x02, 0x3e,
  0x11, 0x9e, 0x85, 0xbb, 0xa3, 0x9c, 0x60, 0x3d, 0x23, 0x44, 0xc8, 0x3c,
  0xa5, 0x85, 0x70, 0x3d, 0x63, 0xab, 0x3f, 0xbd, 0x8d, 0xba, 0xa3, 0xbe,
  0x55, 0xc1, 0x39, 0xbf, 0x06, 0xd8, 0x1e, 0xbe, 0x54, 0x88, 0x1c, 0xbe,
  0xe6, 0xf8, 0x57, 0x3e, 0xe1, 0x06, 0xe4, 0x3d, 0xd2, 0x08, 0x02, 0x3e,
  0x15, 0x04, 0xbb, 0xbd, 0xd0, 0xdb, 0xaa, 0xbe, 0xdb, 0xc4, 0xbf, 0xbe,
  0xfc, 0x14, 0x5e, 0x3d, 0xad, 0x71, 0x22, 0x3d, 0x29, 0x99, 0xae, 0xbe,
  0x3a, 0x5f, 0xb7, 0x3c, 0x66, 0xb0, 0x1c, 0x3c, 0x5d, 0xd7, 0x0c, 0xbe,
  0x89, 0x47, 0xf7, 0xbd, 0x51, 0x39, 0x3b, 0xbe, 0xb0, 0x51, 0xcc, 0xbe,
  0x94, 0x64, 0x26, 0xbd, 0x91, 0x34, 0x7a, 0xbe, 0x7c, 0xf1, 0x14, 0xbf,
  0xa9, 0x12, 0x86, 0xbe, 0x3e, 0xbf, 0x0f, 0xbf, 0xf8, 0xd8, 0x98, 0x3e,
  0x32, 0x86, 0xe4, 0x3e, 0xf2, 0xed, 0x95, 0xbd, 0x65, 0x7c, 0xea, 0x3e,
  0xc9, 0xda, 0x62, 0xbc, 0xe4, 0x68, 0x27, 0xbc, 0xc0, 0x67, 0xe5, 0xbd,
  0xcf, 0xf0, 0x89, 0xbd, 0x07, 0x9e, 0xcb, 0x3e, 0x6c, 0x6e, 0x90, 0x3e,
  0xf1, 0x89, 0x68, 0x3e, 0xb0, 0x9f, 0x8f, 0x3e, 0xb3, 0xe9, 0xaf, 0xbd,
  0xc8, 0xda, 0x3b, 0xbd, 0x95, 0xba, 0x10, 0xbe, 0x67, 0x8f, 0x0f, 0xbc,
  0xd2, 0xe7, 0x01, 0x3e, 0x05, 0x2e, 0x03, 0xbd, 0x0f, 0x59, 0xdc, 0x3c,
  0xf9, 0xba, 0xb0, 0xbc, 0x65, 0xf1, 0x01, 0xbe, 0xb4, 0x93, 0x34, 0xbe,
  0x0b, 0x55, 0x56, 0xbd, 0xee, 0xf5, 0xd3, 0xbd, 0xa8, 0x1a, 0xa6, 0x3d,
  0xfb, 0xf4, 0x3a, 0xbd, 0xad, 0xcd, 0x85, 0xbd, 0x62, 0x71, 0x95, 0x3b,
  0x00, 0x9e, 0x94, 0xbe, 0xa8, 0x80, 0x8a, 0xbe, 0x79, 0x1a, 0xaf, 0xbd,
  0x7e, 0x6c, 0x0f, 0xbe, 0xc6, 0x55, 0x40, 0x3b, 0x21, 0x66, 0x82, 0xbe,
  0x3c, 0xe4, 0x98, 0xbd, 0x16, 0xce, 0xcc, 0xbe, 0x67, 0xe4, 0x80, 0xbe,
  0xc1, 0x74, 0x3b, 0xbe, 0x68, 0x31, 0xf6, 0xbd, 0x3c, 0x2b, 0xe8, 0xbd,
  0xb1, 0x56, 0x3d, 0xbd, 0x9b, 0x13, 0x88, 0x3e, 0x64, 0x48, 0x65, 0x3e,
  0xf4, 0x47, 0x80, 0xbd, 0x5c, 0x33, 0x7c, 0xbe, 0x03, 0xbf, 0x4b, 0xbe,
  0x9d, 0xb2, 0x99, 0x3d, 0xd6, 0xde, 0x7f, 0xbd, 0xdb, 0x08, 0xb2, 0x3d,
  0x35, 0x15, 0xc6, 0x3d, 0x9e, 0xbf, 0x4a, 0xbd, 0x90, 0x2c, 0x86, 0x3d,
  0x6c, 0xba, 0x27, 0xbe, 0xbd, 0x69, 0x65, 0xbe, 0x15, 0x73, 0x11, 0x3e,
  0x2c, 0xa7, 0xc6, 0xbb, 0x63, 0x08, 0x46, 0x3e, 0x79, 0xfe, 0xf8, 0x3e,
  0x70, 0x5a, 0x87, 0x3d, 0x9e, 0xc2, 0x16, 0x3f, 0x71, 0xaa, 0x42, 0xbe,
  0x6d, 0xaa, 0xb7, 0x3c, 0xbd, 0x40, 0xb3, 0x3c, 0x4d, 0x47, 0xed, 0xbc,
  0x06, 0x52, 0x58, 0x3d, 0x28, 0x17, 0x1f, 0x3e, 0x39, 0xfc, 0x13, 0x3d,
  0x24, 0xa7, 0x01, 0x3e, 0xb6, 0xa3, 0x30, 0xbd, 0x17, 0x52, 0x1f, 0xbd,
  0xcf, 0xdd, 0xb7, 0xbe, 0xc3, 0x56, 0xd9, 0xbd, 0x12, 0xad, 0x2e, 0x3e,
  0x25, 0xf8, 0xcd, 0x3d, 0x6b, 0xe6, 0x19, 0x3e, 0x83, 0xd2, 0x02, 0x3d,
  0x5f, 0x91, 0x97, 0x3c, 0xeb, 0x29, 0xe4, 0x3c, 0x07, 0xc3, 0xac, 0xbe,
  0xa4, 0xd3, 0xab, 0x3e, 0x5e, 0x10, 0x2e, 0x3c, 0x6e, 0xbe, 0x36, 0x3e,
  0xf6, 0x07, 0xde, 0x3e, 0xe6, 0xa4, 0x69, 0xba, 0x0e, 0x11, 0x82, 0x3d,
  0xf8, 0x39, 0x47, 0x3e, 0x92, 0x03, 0xb3, 0xbe, 0x1e, 0x53, 0x7b, 0x3d,
  0x29, 0x28, 0x66, 0x3e, 0xda, 0xd8, 0x9a, 0x3e, 0x43, 0x4a, 0xb3, 0x3d,
  0xe1, 0xe2, 0x70, 0x3e, 0x70, 0x90, 0x21, 0xbd, 0x59, 0x46, 0x65, 0xbc,
  0xe7, 0x44, 0x63, 0xbe, 0x24, 0x1a, 0x94, 0x3d, 0x17, 0x2b, 0x70, 0x3e,
  0x12, 0x42, 0x8b, 0xbe, 0xf7, 0xe4, 0x24, 0xbe, 0x79, 0xac, 0xe8, 0x3e,
  0xd6, 0xa5, 0xa1, 0xbd, 0x8b, 0x73, 0x47, 0xbe, 0x37, 0x92, 0x06, 0xbc,
  0x7d, 0xcb, 0x48, 0xbd, 0xcf, 0x8a, 0x06, 0x3e, 0x5e, 0x61, 0x33, 0xbe,
  0x62, 0xe4, 0xc4, 0xbe, 0x10, 0x74, 0x84, 0x3e, 0x8b, 0xd4, 0xab, 0xbe,
  0x3a, 0x14, 0x2a, 0xbf, 0x50, 0xb9, 0xa5, 0xbd, 0x01, 0x98, 0xb9, 0xbe,
  0x00, 0xd8, 0x19, 0x3f, 0x9d, 0x2e, 0x54, 0x3e, 0x43, 0xf8, 0x87, 0xbe,
  0xf2, 0xcc, 0x07, 0xbf, 0x6e, 0x9d, 0x1b, 0xbe, 0xe8, 0x13, 0x98, 0xbb,
  0x69, 0x9d, 0xd4, 0xbc, 0xee, 0x32, 0x60, 0x3c, 0xcf, 0x6a, 0xa3, 0xbe,
  0x7d, 0xa9, 0x30, 0x3e, 0xec, 0xe3, 0x47, 0x3e, 0x19, 0xbd, 0x17, 0xbe,
  0xd6, 0xfc, 0x4c, 0xbd, 0xce, 0x14, 0xc9, 0x3d, 0x42, 0xfc, 0xfd, 0x3d,
  0xcb, 0xcf, 0x95, 0x3e, 0x56, 0x20, 0x76, 0xbe, 0x50, 0x2f, 0x8b, 0xbe,
  0x53, 0x74, 0x5e, 0x3b, 0xa4, 0xee, 0x33, 0xbb, 0xea, 0x48, 0x13, 0x3d,
  0x3b, 0x5c, 0x54, 0xbc, 0xca, 0x5a, 0xa9, 0xbc, 0x2c, 0xc7, 0x56, 0xbd,
  0xda, 0xb1, 0xe0, 0xbd, 0x20, 0x3d, 0x2a, 0xbf, 0x9a, 0x5a, 0xab, 0xbd,
  0xb6, 0x77, 0x43, 0x3e, 0xb9, 0x8b, 0x76, 0xbd, 0x7f, 0xae, 0xd1, 0xbd,
  0x96, 0x91, 0x68, 0xbd, 0x08, 0xdb, 0x28, 0xbe, 0x1a, 0x0e, 0x96, 0x3e,
  0x1e, 0x11, 0x75, 0xbc, 0xff, 0x2d, 0x39, 0xbe, 0x67, 0xc2, 0x2f, 0x3e,
  0xc9, 0x7b, 0x85, 0x3e, 0x7e, 0xe2, 0x48, 0x3e, 0xf5, 0x67, 0xb0, 0xbc,
  0xab, 0x33, 0xda, 0xbe, 0xfa, 0xea, 0xc9, 0xbc, 0xbf, 0xfa, 0x8e, 0xbe,
  0xe1, 0x6a, 0xa9, 0xbe, 0xda, 0x28, 0xa0, 0xbd, 0x13, 0xde, 0x77, 0x3d,
  0x3a, 0xbc, 0xe1, 0x3c, 0xd9, 0x98, 0x0b, 0xbe, 0x53, 0x0b, 0xe4, 0xbe,
  0x91, 0x8d, 0x97, 0x3c, 0x71, 0x4a, 0x8a, 0xbb, 0x8b, 0x1d, 0xb7, 0xbe,
  0x5b, 0x1c, 0xa9, 0x3e, 0x5a, 0xa1, 0x73, 0xbd, 0xf1, 0x25, 0x26, 0x3e,
  0xc2, 0x71, 0x2a, 0xbd, 0x2c, 0x8e, 0xef, 0xbe, 0xf9, 0x66, 0x44, 0xbb,
  0x5c, 0x54, 0xa7, 0xbe, 0x92, 0x95, 0xca, 0xbe, 0xf9, 0x9f, 0xae, 0x3d,
  0x2a, 0xc3, 0x65, 0x3e, 0x5d, 0x49, 0x02, 0xbd, 0x58, 0xb2, 0x50, 0xbd,
  0x28, 0xb9, 0xb5, 0xbe, 0xc0, 0xb9, 0xec, 0xbd, 0x60, 0xd3, 0xe8, 0x3e,
  0x3e, 0x7b, 0x85, 0xbe, 0xa8, 0x61, 0x82, 0xbe, 0xad, 0x75, 0x65, 0xbe,
  0xf8, 0x74, 0x96, 0xbd, 0xe7, 0xe5, 0x9b, 0xbc, 0x79, 0x78, 0xd5, 0xbe,
  0x45, 0x0b, 0xfa, 0x3c, 0x8d, 0x04, 0xad, 0x3e, 0x96, 0x4e, 0x47, 0x3e,
  0x08, 0x17, 0x14, 0xbe, 0x18, 0xed, 0x1e, 0xbe, 0x0c, 0xb6, 0x43, 0xbe,
  0x14, 0x49, 0xc2, 0x3d, 0xb7, 0x19, 0xb9, 0x3e, 0x8f, 0xa6, 0x3e, 0xbe,
  0x09, 0x36, 0x06, 0x3f, 0x03, 0x61, 0x6e, 0xbe, 0x68, 0xe8, 0x81, 0x3e,
  0x6f, 0x4e, 0x25, 0x3b, 0xc9, 0xa0, 0xd6, 0xbd, 0xe2, 0x1f, 0x0b, 0xbd,
  0x0c, 0x9b, 0x73, 0xbe, 0xe7, 0xa8, 0xa4, 0x3e, 0x8e, 0x64, 0xb6, 0x3c,
  0x41, 0x46, 0xa6, 0xbe, 0x0b, 0xe3, 0x35, 0xbd, 0xd1, 0x48, 0x32, 0xbe,
  0x12, 0x95, 0xe2, 0xbe, 0x29, 0x6f, 0xc4, 0x3c, 0x57, 0x78, 0xc4, 0xbe,
  0x36, 0x89, 0x5b, 0xbe, 0x0b, 0x23, 0x83, 0xbe, 0x37, 0x1e, 0x52, 0xba,
  0xa2, 0x76, 0xb1, 0xba, 0xd7, 0xd6, 0xf6, 0xbd, 0xae, 0xde, 0xc1, 0xbe,
  0x81, 0xe5, 0x05, 0x3c, 0xad, 0x5c, 0x9b, 0xbd, 0x7a, 0xb0, 0x08, 0x3c,
  0xb6, 0xfb, 0x89, 0xbe, 0x22, 0x88, 0x3b, 0xbe, 0xce, 0x67, 0x71, 0xbe,
  0xb8, 0xaa, 0x6e, 0x3d, 0x5a, 0xba, 0x7c, 0x3c, 0xb1, 0xda, 0xa8, 0xbd,
  0x1f, 0xcc, 0xf5, 0xbd, 0x0a, 0x00, 0xc2, 0xbd, 0x14, 0x07, 0x9a, 0xbd,
  0xee, 0x94, 0xbc, 0xbb, 0x6c, 0x93, 0xe0, 0xbd, 0x54, 0x4e, 0x0e, 0xbd,
  0x2d, 0x65, 0x9d, 0xbd, 0x94, 0x3c, 0x18, 0x3c, 0xd9, 0x60, 0xa8, 0x3c,
  0x48, 0x66, 0x53, 0xbe, 0x16, 0xd3, 0x39, 0x3d, 0x9f, 0x54, 0xd4, 0xbd,
  0xeb, 0xd0, 0x61, 0xbe, 0xec, 0x7b, 0xb7, 0xbd, 0x22, 0xb7, 0xc6, 0xbd,
  0x1b, 0x4f, 0x53, 0xbb, 0x23, 0xf7, 0x96, 0x3c, 0xe0, 0x68, 0x62, 0x3e,
  0x01, 0xb6, 0x98, 0x3d, 0xa7, 0xf1, 0x6d, 0xbd, 0x53, 0xb1, 0xad, 0x3e,
  0xab, 0xc9, 0xf5, 0x3b, 0x0a, 0x55, 0x1c, 0xbe, 0xd2, 0x9d, 0xf7, 0xbc,
  0x46, 0x60, 0x73, 0x3d, 0x61, 0xf5, 0x0f, 0xbd, 0x67, 0xf3, 0x72, 0xbd,
  0x9b, 0x6d, 0xa2, 0xbe, 0x8b, 0xf3, 0x28, 0xbe, 0x52, 0xf3, 0x89, 0xbc,
  0x0e, 0xe6, 0x24, 0x3d, 0xcf, 0xc3, 0x04, 0xbe, 0xe9, 0xd4, 0x85, 0xbe,
  0x95, 0x60, 0x8a, 0xbe, 0xe2, 0xdd, 0xff, 0xff, 0x10, 0x00, 0x00, 0x00,
  0x0a, 0x00, 0x00, 0x00, 0x1c, 0x00, 0x00, 0x00, 0x38, 0x00, 0x00, 0x00,
  0x04, 0x00, 0x00, 0x00, 0x10, 0x00, 0x00, 0x00, 0x04, 0x00, 0x00, 0x00,
  0x01, 0x00, 0x00, 0x00, 0x08, 0x00, 0x00, 0x00, 0x1a, 0x00, 0x00, 0x00,
  0x73, 0x65, 0x71, 0x75, 0x65, 0x6e, 0x74, 0x69, 0x61, 0x6c, 0x2f, 0x63,
  0x6f, 0x6e, 0x76, 0x32, 0x64, 0x5f, 0x31, 0x2f, 0x43, 0x6f, 0x6e, 0x76,
  0x32, 0x44, 0x00, 0x00, 0x58, 0xdd, 0xff, 0xff, 0x62, 0xde, 0xff, 0xff,
  0x04, 0x00, 0x00, 0x00, 0x80, 0x01, 0x00, 0x00, 0xd2, 0x54, 0xab, 0xbd,
  0xcc, 0x5b, 0xd9, 0x3e, 0xf8, 0xbb, 0x58, 0x3e, 0x68, 0xe1, 0xa6, 0x3d,
  0xe2, 0x4c, 0x1f, 0xbe, 0x5a, 0x6b, 0xdd, 0xbd, 0x39, 0x61, 0x69, 0x3d,
  0xd5, 0x6d, 0xa7, 0xbe, 0xfc, 0xeb, 0xfc, 0xbd, 0x31, 0x46, 0xee, 0x3c,
  0xef, 0x9b, 0x58, 0xbd, 0x6b, 0x39, 0xaa, 0xbc, 0x96, 0x7b, 0xa9, 0xbc,
  0x99, 0xc7, 0x00, 0xbf, 0x16, 0x55, 0xa6, 0x3d, 0xef, 0x03, 0xfc, 0x3d,
  0xf0, 0xfc, 0x32, 0x3e, 0x38, 0x9a, 0xdb, 0x3d, 0xbe, 0x67, 0x06, 0xbf,
  0xa8, 0x74, 0xd2, 0x3d, 0xe0, 0x67, 0x8d, 0xbe, 0x3d, 0x50, 0x30, 0x3e,
  0xe9, 0xff, 0xf9, 0xbc, 0x59, 0xcf, 0x6c, 0xbd, 0x1d, 0xbb, 0x18, 0xbc,
  0x7b, 0x08, 0x66, 0xbd, 0x1f, 0xc5, 0x8d, 0xbd, 0xfe, 0x0d, 0x5c, 0xbe,
  0x21, 0xdc, 0x8c, 0xbe, 0x98, 0xf6, 0xe5, 0xbe, 0x1d, 0xf8, 0x55, 0x3e,
  0x0a, 0xa4, 0x11, 0x3e, 0x84, 0xd9, 0x8d, 0x3e, 0xbf, 0x43, 0x0d, 0x3c,
  0xd7, 0x2d, 0x24, 0x3e, 0x68, 0xaf, 0x47, 0x3e, 0x7b, 0x06, 0x82, 0xbd,
  0x39, 0x84, 0x6b, 0xbb, 0x39, 0x00, 0x13, 0x3d, 0x4a, 0x3e, 0x00, 0xbe,
  0x77, 0x11, 0x41, 0xbd, 0x01, 0x80, 0xf3, 0x3d, 0x44, 0x71, 0x58, 0x3d,
  0x40, 0xa7, 0x48, 0xbd, 0x91, 0x4c, 0x5c, 0xbc, 0xff, 0xe2, 0x2a, 0xbe,
  0x7c, 0x88, 0x9c, 0x3d, 0xdb, 0x06, 0x43, 0x3e, 0xaf, 0xef, 0xcc, 0x3d,
  0x35, 0xbc, 0x8b, 0x3d, 0xe5, 0x6e, 0x88, 0x3d, 0xbd, 0x72, 0x5c, 0xbd,
  0x6a, 0x46, 0x33, 0xbd, 0x9c, 0x69, 0x01, 0xbd, 0xf9, 0xe6, 0x64, 0xbe,
  0x1c, 0x50, 0x86, 0xbe, 0xb9, 0xf3, 0xe7, 0x39, 0x83, 0x41, 0xa5, 0xbd,
  0xee, 0x4f, 0xe6, 0x3d, 0x00, 0x21, 0x96, 0x3d, 0x82, 0x59, 0xc2, 0x3e,
  0xf8, 0xf0, 0xd4, 0x3d, 0x57, 0x55, 0x30, 0xbd, 0x26, 0x44, 0xa0, 0x3d,
  0x89, 0x95, 0x38, 0xbe, 0xac, 0x01, 0x7f, 0xbe, 0x2c, 0xc4, 0x2f, 0x3e,
  0x19, 0x7c, 0x01, 0x3e, 0x57, 0xeb, 0xc8, 0xbd, 0xb1, 0x2f, 0x9f, 0x3d,
  0x84, 0x09, 0xd5, 0x3c, 0x5c, 0xd4, 0x9d, 0xbe, 0x8a, 0x04, 0xc0, 0xbc,
  0xcb, 0x8a, 0xc1, 0xbc, 0x7d, 0x6c, 0xdc, 0xbd, 0x53, 0xb3, 0x1a, 0x3d,
  0x31, 0xc5, 0x7d, 0xbe, 0xaf, 0x0e, 0xca, 0xbc, 0xcb, 0x94, 0x8b, 0xbd,
  0xd8, 0x3a, 0x25, 0x3e, 0x0c, 0x7f, 0x9d, 0xbb, 0x2b, 0x54, 0xab, 0x3d,
  0x4b, 0xf9, 0x83, 0xbe, 0x2e, 0x24, 0x8a, 0x3d, 0xe1, 0x47, 0x0f, 0xbe,
  0x50, 0x1a, 0xae, 0xbd, 0x9f, 0x2b, 0x57, 0x3c, 0xdf, 0x02, 0x08, 0x3d,
  0x43, 0x58, 0xd4, 0xbe, 0xa1, 0x8f, 0x69, 0xbe, 0xa7, 0x20, 0xd1, 0xbd,
  0xbc, 0xb3, 0xc9, 0x3d, 0x74, 0xfb, 0x1f, 0xbd, 0x74, 0x3c, 0x47, 0x3e,
  0xf3, 0x25, 0x9d, 0x3e, 0xb2, 0xfb, 0x5c, 0x3e, 0xba, 0xdf, 0xff, 0xff,
  0x10, 0x00, 0x00, 0x00, 0x09, 0x00, 0x00, 0x00, 0x1c, 0x00, 0x00, 0x00,
  0x38, 0x00, 0x00, 0x00, 0x04, 0x00, 0x00, 0x00, 0x08, 0x00, 0x00, 0x00,
  0x04, 0x00, 0x00, 0x00, 0x03, 0x00, 0x00, 0x00, 0x01, 0x00, 0x00, 0x00,
  0x18, 0x00, 0x00, 0x00, 0x73, 0x65, 0x71, 0x75, 0x65, 0x6e, 0x74, 0x69,
  0x61, 0x6c, 0x2f, 0x63, 0x6f, 0x6e, 0x76, 0x32, 0x64, 0x2f, 0x43, 0x6f,
  0x6e, 0x76, 0x32, 0x44, 0x00, 0x00, 0x00, 0x00, 0x30, 0xdf, 0xff, 0xff,
  0x3a, 0xe0, 0xff, 0xff, 0x04, 0x00, 0x00, 0x00, 0x00, 0x01, 0x00, 0x00,
  0x94, 0xd4, 0xa4, 0x3e, 0xd8, 0x9d, 0x79, 0xbe, 0xbe, 0x75, 0x20, 0x3d,
  0xdc, 0x11, 0x43, 0xbd, 0x1e, 0x12, 0xbd, 0x3e, 0x56, 0xa5, 0x84, 0x3d,
  0xe9, 0x95, 0x02, 0xbe, 0xc6, 0x40, 0x02, 0xbd, 0x0c, 0x56, 0x26, 0x3e,
  0x19, 0x8d, 0x84, 0xbe, 0x83, 0x4b, 0x01, 0x3f, 0xf2, 0x2c, 0x24, 0x3e,
  0xdb, 0x52, 0xb7, 0x3e, 0xd7, 0x4e, 0x5f, 0x3e, 0x31, 0xdd, 0x08, 0x3d,
  0xbb, 0x1e, 0x52, 0xbe, 0xa3, 0x95, 0xaa, 0xbd, 0x6e, 0x99, 0x3d, 0xbf,
  0x58, 0x2e, 0x9b, 0x3e, 0x9e, 0xdc, 0x06, 0x3e, 0x1a, 0xd7, 0x90, 0x3e,
  0xf7, 0xd2, 0x2d, 0x3d, 0x85, 0x54, 0x21, 0xbe, 0xb1, 0xc6, 0xbf, 0xbd,
  0x6d, 0x78, 0x4d, 0x3e, 0x3b, 0x5c, 0xfa, 0xbe, 0xbe, 0x38, 0x90, 0xbe,
  0x88, 0x65, 0xa2, 0x3e, 0x47, 0x2d, 0xa9, 0x3e, 0x5c, 0x9c, 0x4d, 0xbe,
  0x03, 0x96, 0x95, 0x3e, 0x7e, 0x80, 0xde, 0xbe, 0xf7, 0x62, 0x91, 0xbd,
  0xa0, 0x74, 0x49, 0xbe, 0x37, 0x10, 0xfc, 0x3d, 0xb5, 0x97, 0x28, 0x3e,
  0x9c, 0xaa, 0xe9, 0x3e, 0xce, 0x3c, 0x74, 0x3d, 0xe7, 0xa6, 0xe4, 0xbd,
  0xf2, 0xd9, 0xb7, 0x3c, 0xee, 0xa3, 0x82, 0x3e, 0x2a, 0xe6, 0xa0, 0xbe,
  0x78, 0x08, 0x21, 0x3e, 0xed, 0xce, 0xe8, 0x3d, 0x1a, 0x42, 0xa9, 0x3e,
  0x1c, 0x33, 0xed, 0x3e, 0xa9, 0x5d, 0x62, 0x3e, 0x10, 0xc5, 0xb4, 0xbe,
  0x7c, 0x86, 0xe0, 0xbd, 0xd6, 0x38, 0x40, 0x3e, 0xd4, 0x85, 0x2d, 0x3e,
  0x25, 0x39, 0xb0, 0x3d, 0x2c, 0xc6, 0xcf, 0x3e, 0x30, 0x4b, 0xcb, 0x3d,
  0xc3, 0x00, 0x75, 0xbd, 0x16, 0x7c, 0x16, 0xbc, 0xc9, 0x4a, 0x89, 0x3e,
  0x57, 0x2f, 0x9d, 0xbe, 0x68, 0xff, 0xe6, 0x3d, 0xcc, 0x94, 0x80, 0x3e,
  0xb8, 0xb7, 0x9b, 0x3e, 0xee, 0x22, 0xcd, 0x3e, 0xea, 0x1f, 0x57, 0x3e,
  0x36, 0x73, 0x51, 0xbe, 0x12, 0xe1, 0xff, 0xff, 0x10, 0x00, 0x00, 0x00,
  0x08, 0x00, 0x00, 0x00, 0x14, 0x00, 0x00, 0x00, 0x30, 0x00, 0x00, 0x00,
  0x02, 0x00, 0x00, 0x00, 0x04, 0x00, 0x00, 0x00, 0x10, 0x00, 0x00, 0x00,
  0x19, 0x00, 0x00, 0x00, 0x73, 0x65, 0x71, 0x75, 0x65, 0x6e, 0x74, 0x69,
  0x61, 0x6c, 0x2f, 0x64, 0x65, 0x6e, 0x73, 0x65, 0x5f, 0x31, 0x2f, 0x4d,
  0x61, 0x74, 0x4d, 0x75, 0x6c, 0x00, 0x00, 0x00, 0x80, 0xe0, 0xff, 0xff,
  0x8a, 0xe1, 0xff, 0xff, 0x04, 0x00, 0x00, 0x00, 0x00, 0x1c, 0x00, 0x00,
  0x7d, 0x4d, 0x30, 0xbe, 0xe5, 0xc9, 0x54, 0x3d, 0x8e, 0xe7, 0x04, 0xbd,
  0xa6, 0x31, 0x35, 0xbe, 0xe6, 0xc2, 0x8f, 0xbd, 0xcd, 0xf0, 0x81, 0x3c,
  0xdd, 0xa5, 0xe0, 0xbe, 0x6e, 0x11, 0xb3, 0xbd, 0x09, 0x86, 0x55, 0xbd,
  0x52, 0xb2, 0xc9, 0xbe, 0xcf, 0x9a, 0xf5, 0xbd, 0x3c, 0xd3, 0x42, 0xbe,
  0x15, 0x82, 0x79, 0xbd, 0x46, 0x93, 0x38, 0xbe, 0x67, 0x83, 0x88, 0x3d,
  0x00, 0x61, 0x15, 0x3f, 0xd1, 0x76, 0xc9, 0xbd, 0x76, 0x24, 0xcd, 0xbb,
  0xea, 0xda, 0x83, 0xbe, 0x7d, 0x2f, 0x3c, 0x3f, 0xd9, 0xad, 0x69, 0xbe,
  0x52, 0x6a, 0x50, 0x3d, 0x68, 0xdf, 0x86, 0xbe, 0x08, 0x11, 0x40, 0xbe,
  0x6d, 0x2b, 0x5c, 0xbe, 0xdf, 0x1b, 0xb0, 0xbe, 0x7a, 0x01, 0x7c, 0x3d,
  0xe8, 0xde, 0x1f, 0xbe, 0xd3, 0x09, 0x01, 0xbe, 0x8b, 0xaa, 0xa8, 0x3d,
  0x80, 0xc3, 0x38, 0x3e, 0x77, 0x56, 0xe1, 0x3f, 0xd6, 0x76, 0x5b, 0xbd,
  0x16, 0xa9, 0xe2, 0x3c, 0x26, 0x2c, 0x2b, 0xbe, 0x5a, 0x3a, 0x84, 0x3d,
  0xc9, 0x2a, 0x56, 0xbe, 0x2d, 0xa2, 0x45, 0xbd, 0xfb, 0x05, 0x5e, 0xbe,
  0x60, 0xeb, 0x2b, 0xbe, 0xc1, 0xea, 0xc4, 0xbc, 0x1c, 0x4f, 0x4a, 0xbe,
  0x66, 0xcd, 0x8a, 0xbe, 0xa9, 0x03, 0x30, 0xbd, 0x9b, 0xeb, 0xcf, 0xbd,
  0x37, 0x35, 0x0a, 0x3e, 0xec, 0x3e, 0xec, 0xbd, 0x69, 0x44, 0xfb, 0x3f,
  0xf7, 0xa9, 0xef, 0x3d, 0xc3, 0xd1, 0xf3, 0x3d, 0x23, 0xde, 0x10, 0xbe,
  0x77, 0xb6, 0x32, 0x3d, 0x1b, 0x15, 0x4e, 0xbe, 0xa5, 0xd9, 0x8a, 0xbe,
  0x17, 0xfc, 0xee, 0xbd, 0x9c, 0x57, 0xaf, 0xbd, 0x36, 0x57, 0xbd, 0xbc,
  0x72, 0x35, 0x44, 0xbd, 0xb3, 0x23, 0x27, 0xbe, 0x07, 0x3e, 0x0f, 0x3d,
  0x3d, 0xb7, 0x85, 0xbe, 0xd4, 0x6a, 0xea, 0x3b, 0x81, 0x3c, 0xc1, 0xbd,
  0xac, 0x5b, 0xed, 0x3f, 0x82, 0x19, 0xc1, 0x3d, 0x70, 0x99, 0xb9, 0x3c,
  0x83, 0x94, 0x84, 0xbe, 0x4f, 0x7a, 0xe5, 0xbd, 0x66, 0x24, 0xc9, 0xbd,
  0x8f, 0xe4, 0x33, 0xbd, 0x71, 0x42, 0x36, 0xbe, 0x43, 0x58, 0xd8, 0xbb,
  0xa3, 0x29, 0x04, 0xbe, 0x8a, 0x2a, 0x4f, 0xbe, 0x9b, 0x6d, 0xd8, 0xbd,
  0x91, 0xe6, 0xb0, 0xbc, 0xd8, 0x4c, 0xb3, 0xbe, 0x59, 0x08, 0x20, 0x3e,
  0x6c, 0xa1, 0x23, 0x3d, 0x3b, 0x33, 0xe6, 0x3f, 0x88, 0xd2, 0x1d, 0x3d,
  0x49, 0x28, 0xed, 0x3d, 0x34, 0x03, 0x90, 0xbe, 0xdd, 0xf3, 0x2e, 0xbe,
  0x94, 0xb5, 0x5f, 0xbe, 0xba, 0xe9, 0xfb, 0xbd, 0xca, 0xbf, 0x76, 0xbe,
  0xde, 0x79, 0xa7, 0xbe, 0x45, 0x4b, 0x87, 0xbe, 0x84, 0x94, 0x07, 0xbe,
  0x1a, 0x50, 0x11, 0xbe, 0x30, 0x6b, 0x8b, 0xbd, 0xd0, 0x0a, 0xb9, 0xbe,
  0x0a, 0xac, 0x98, 0x3d, 0x2d, 0x06, 0x98, 0xbd, 0xda, 0x16, 0xc0, 0x3f,
  0xd3, 0x38, 0x03, 0x3d, 0x7f, 0xe6, 0x9c, 0xbd, 0xa8, 0xc0, 0x92, 0xbe,
  0x25, 0x5f, 0x9d, 0x3c, 0xcb, 0xd8, 0xbc, 0xbd, 0xee, 0x11, 0x65, 0xbe,
  0xed, 0xf1, 0x9c, 0xbe, 0xcf, 0xbb, 0x31, 0xbe, 0x20, 0xd9, 0x97, 0xbe,
  0x89, 0xbf, 0xb7, 0xbd, 0xc4, 0x7a, 0x78, 0xbe, 0xe1, 0x77, 0x4f, 0xbe,
  0x45, 0x86, 0x85, 0xbe, 0x43, 0xfa, 0x1f, 0xbe, 0x4c, 0x82, 0xed, 0xbd,
  0x39, 0x0b, 0x99, 0x3f, 0x48, 0xac, 0xff, 0xbd, 0x51, 0xb5, 0x90, 0x3c,
  0x21, 0x0c, 0xe4, 0x3d, 0xd3, 0xda, 0xdd, 0xbc, 0x90, 0x45, 0x28, 0x3d,
  0xc6, 0x9c, 0x0b, 0xbe, 0x09, 0x8d, 0xf3, 0xbd, 0x86, 0x1b, 0x44, 0x3e,
  0x75, 0x7b, 0x49, 0xbe, 0x39, 0x75, 0x6b, 0x3d, 0x61, 0xf8, 0x8a, 0x3d,
  0x71, 0x3c, 0x04, 0xbe, 0x4e, 0x1d, 0x09, 0xbe, 0x25, 0x21, 0xb4, 0xbb,
  0x66, 0x87, 0x31, 0x3e, 0xa7, 0xa9, 0x25, 0xbe, 0xdc, 0x67, 0x06, 0x3e,
  0xb7, 0xb9, 0x6a, 0xbd, 0x2d, 0x1a, 0x52, 0xbe, 0xec, 0x12, 0xb3, 0x3d,
  0x69, 0x41, 0x63, 0xbe, 0xbc, 0x74, 0xc1, 0xbd, 0x35, 0x9e, 0x3f, 0xbd,
  0x3d, 0x7b, 0x87, 0xbd, 0x18, 0x96, 0x70, 0x3c, 0x9e, 0xd7, 0x0c, 0x3d,
  0x5c, 0x5d, 0x32, 0xbe, 0xd7, 0x7d, 0x80, 0x3c, 0x8b, 0x52, 0xcd, 0x3d,
  0x53, 0x05, 0x5f, 0x3b, 0x5d, 0x8b, 0x81, 0xbd, 0xdd, 0x7e, 0x00, 0xbd,
  0xeb, 0x8e, 0x7d, 0xbd, 0x29, 0xeb, 0x21, 0xbe, 0x29, 0xa2, 0x25, 0x3e,
  0x0b, 0x17, 0x9e, 0xbd, 0x90, 0x89, 0xed, 0xba, 0xaa, 0x58, 0xd8, 0xbd,
  0x94, 0xb6, 0xb6, 0xbe, 0x73, 0xd0, 0xa6, 0x3d, 0x6f, 0x09, 0x98, 0x3c,
  0x63, 0x84, 0x4c, 0xbe, 0x4b, 0xcb, 0xd7, 0xbc, 0x68, 0x8f, 0xb1, 0xbd,
  0xe6, 0x09, 0xe5, 0xbd, 0x6f, 0x5a, 0xd7, 0xbd, 0x48, 0xd3, 0x02, 0x3e,
  0xa4, 0xec, 0xc0, 0xbd, 0x05, 0xaf, 0xe4, 0xbc, 0xb3, 0x0a, 0xc0, 0x3d,
  0x89, 0xec, 0x32, 0xbd, 0x24, 0x15, 0xf7, 0xbc, 0x73, 0xfd, 0xce, 0xbd,
  0x08, 0xcf, 0x35, 0xbd, 0xce, 0x2f, 0xca, 0xbe, 0x6b, 0x25, 0x1c, 0xbe,
  0x1b, 0x62, 0x9e, 0x3b, 0xe8, 0x3d, 0x33, 0xbe, 0x55, 0x17, 0x80, 0x3d,
  0x0a, 0xc7, 0x2a, 0xbe, 0x0f, 0x66, 0x89, 0xbc, 0x99, 0xbd, 0x0d, 0xbe,
  0x20, 0xaa, 0x07, 0x3a, 0xdf, 0xaf, 0x26, 0xbe, 0xf0, 0xb3, 0x65, 0xbe,
  0x8b, 0x6c, 0x66, 0xbe, 0xd5, 0xec, 0x4b, 0xbe, 0x87, 0xea, 0x45, 0xbe,
  0x55, 0x05, 0xfe, 0xbc, 0x4e, 0xfb, 0x33, 0xbe, 0x6d, 0xdd, 0xbf, 0xbe,
  0x18, 0x36, 0x38, 0xbe, 0xd1, 0x0f, 0x59, 0xbe, 0x6f, 0x73, 0x41, 0xbd,
  0x42, 0x07, 0xf4, 0xbd, 0x2d, 0x82, 0x21, 0xbe, 0x3e, 0xea, 0xec, 0xbd,
  0x0f, 0x8c, 0xa3, 0x39, 0x29, 0x3d, 0xa7, 0x3c, 0x20, 0x75, 0x39, 0xbe,
  0xb9, 0xc6, 0x8d, 0xbd, 0x8d, 0x55, 0x28, 0x3c, 0x1b, 0x09, 0x1d, 0xbe,
  0x42, 0xdc, 0xf1, 0xbc, 0xa1, 0x2e, 0xc8, 0x3d, 0xa2, 0xfb, 0x8a, 0x3e,
  0x78, 0x5f, 0xc0, 0xbd, 0x5f, 0x0a, 0x30, 0x3e, 0x5f, 0xb2, 0xaa, 0xbd,
  0x05, 0x89, 0x96, 0x3d, 0x25, 0x33, 0x0b, 0xbe, 0xb5, 0xb7, 0x66, 0xbd,
  0x87, 0x76, 0xc1, 0x3d, 0xe6, 0xad, 0x1e, 0x3e, 0x64, 0xc5, 0xb9, 0xbb,
  0x70, 0x20, 0x8b, 0x3d, 0x8a, 0x9a, 0x26, 0x3d, 0xab, 0x87, 0x52, 0x3d,
  0x4e, 0x2e, 0x11, 0xbe, 0x68, 0x65, 0x59, 0xbe, 0xc4, 0x6a, 0x33, 0x3d,
  0x11, 0xb1, 0xba, 0xbd, 0xe1, 0xb3, 0x4f, 0xbe, 0x35, 0xd0, 0x7d, 0xbe,
  0x42, 0x66, 0x17, 0xbe, 0xcd, 0x3b, 0x40, 0xbe, 0x7e, 0xe1, 0x15, 0x3d,
  0xa3, 0x4e, 0xef, 0x3d, 0xcb, 0x5a, 0x87, 0x3d, 0x8a, 0x78, 0xd3, 0x3d,
  0x65, 0xf4, 0x98, 0x3d, 0x1d, 0x3f, 0xe5, 0x3d, 0x49, 0x0b, 0x4d, 0xbf,
  0xd0, 0x47, 0x98, 0xbd, 0xc8, 0x78, 0x16, 0xbf, 0xc4, 0x23, 0x43, 0xbf,
  0x39, 0x4a, 0x02, 0xbc, 0x5c, 0xc6, 0x19, 0x3d, 0x68, 0x24, 0xf0, 0xbe,
  0x3b, 0x30, 0x16, 0x3e, 0xdd, 0x87, 0xe4, 0xbc, 0xe7, 0x68, 0x5b, 0xbf,
  0xd1, 0xf7, 0xb0, 0xbc, 0x48, 0x24, 0x19, 0xbf, 0x5a, 0x01, 0x0e, 0xbd,
  0x33, 0x50, 0x0c, 0x3d, 0x3d, 0x58, 0xfc, 0x3d, 0xa4, 0x21, 0x6e, 0xbe,
  0x88, 0xa4, 0x49, 0xbc, 0x95, 0xf8, 0x2d, 0x3d, 0x9f, 0xd1, 0x8b, 0xbe,
  0x66, 0x7f, 0x72, 0xbe, 0xcf, 0x21, 0x3f, 0xbe, 0x2b, 0xeb, 0x02, 0xbd,
  0x34, 0xfb, 0x9d, 0xbe, 0x80, 0x52, 0x5b, 0x3c, 0x6d, 0xab, 0xad, 0x3e,
  0x1f, 0x17, 0x1a, 0xbe, 0x0b, 0x44, 0x1a, 0xbd, 0x5d, 0x11, 0x93, 0x3e,
  0x02, 0xb0, 0x89, 0xbb, 0x75, 0x7a, 0x48, 0x3e, 0x64, 0xfd, 0xa3, 0x3d,
  0x1b, 0xf3, 0x13, 0xbe, 0xb5, 0x60, 0x39, 0x3e, 0xa1, 0xe9, 0x11, 0xbe,
  0xcf, 0x51, 0x47, 0x3d, 0x15, 0x95, 0x3b, 0x3d, 0x33, 0xda, 0x3d, 0x3e,
  0x23, 0xd9, 0x29, 0xbe, 0x68, 0x9e, 0x32, 0xbe, 0x0f, 0xf9, 0xcd, 0xbc,
  0xa8, 0x88, 0xfb, 0x3b, 0xbb, 0xd9, 0x08, 0x3e, 0x11, 0x50, 0x83, 0xbd,
  0x55, 0xa0, 0x90, 0x3e, 0xc0, 0xbc, 0xde, 0x3d, 0xf9, 0xd1, 0x9e, 0x3d,
  0xd1, 0xfa, 0x12, 0xbd, 0xee, 0x6d, 0x17, 0x3d, 0x9d, 0xcd, 0xe3, 0xbd,
  0x1d, 0x84, 0xe8, 0xbc, 0x6f, 0x37, 0x02, 0xbc, 0x34, 0x87, 0x64, 0x3d,
  0x3c, 0xaf, 0x0e, 0xbe, 0xee, 0x3f, 0xe3, 0xb9, 0xa5, 0xe9, 0x41, 0xbd,
  0xe1, 0x24, 0x8c, 0x3d, 0x78, 0x95, 0x17, 0x3e, 0x77, 0x52, 0x1d, 0x3e,
  0x71, 0x3f, 0xaf, 0xbe, 0x9d, 0xbe, 0x81, 0x3e, 0xa9, 0xfc, 0xe8, 0x3c,
  0xff, 0xb2, 0x30, 0xbe, 0xfe, 0xe2, 0x42, 0xbe, 0x83, 0x05, 0xe6, 0x3d,
  0x61, 0xa2, 0x1b, 0x3e, 0x68, 0xa2, 0xef, 0x3c, 0xf3, 0x92, 0x9a, 0x3d,
  0xf7, 0x26, 0x8e, 0x3d, 0x6a, 0x1d, 0xec, 0xbb, 0x78, 0x83, 0xb9, 0xbd,
  0xeb, 0xad, 0xec, 0xbd, 0xde, 0x66, 0x33, 0x3e, 0xb8, 0x83, 0xa4, 0x3d,
  0x6f, 0x01, 0xd5, 0x3d, 0x4e, 0x29, 0x99, 0xbe, 0x47, 0xb1, 0xf5, 0x3d,
  0x12, 0xf8, 0xff, 0x3c, 0x11, 0xb3, 0x3e, 0xbe, 0xd2, 0x76, 0x7d, 0xbe,
  0xb2, 0xad, 0xd0, 0xbd, 0xf5, 0x1c, 0x93, 0x3e, 0xcd, 0xea, 0x6d, 0xbe,
  0x72, 0xbd, 0xe0, 0x3d, 0x50, 0xfb, 0xaa, 0x3e, 0x25, 0xd5, 0x34, 0xbd,
  0x9c, 0x29, 0x0a, 0x3e, 0x21, 0x58, 0x84, 0xba, 0xb9, 0x99, 0x41, 0x3e,
  0xfd, 0x0a, 0xae, 0x3d, 0x53, 0x67, 0xc4, 0xbc, 0x06, 0xfe, 0xe2, 0xbe,
  0x68, 0xf0, 0x23, 0x3e, 0x5b, 0x6c, 0x31, 0xbd, 0x68, 0x6f, 0xa8, 0x3d,
  0xa8, 0x1a, 0x1d, 0x3c, 0x5c, 0xc7, 0xd4, 0xbb, 0x12, 0x5b, 0x3e, 0x3e,
  0x8e, 0x98, 0x11, 0xbe, 0xb6, 0x32, 0x2a, 0x3e, 0xc0, 0x73, 0x8c, 0x3e,
  0x01, 0x73, 0xb6, 0x3d, 0x8e, 0x7d, 0x70, 0xbe, 0x64, 0x0d, 0xb8, 0xbc,
  0x06, 0x5e, 0xd1, 0xbe, 0x87, 0xfd, 0xfb, 0x3c, 0x58, 0x36, 0x50, 0xbd,
  0x73, 0xd6, 0x96, 0xbe, 0xe7, 0xb2, 0x55, 0x3e, 0x2f, 0xef, 0x0b, 0xbe,
  0x5e, 0xe1, 0xa0, 0xbd, 0x81, 0x37, 0x19, 0x3f, 0xaa, 0x48, 0xa9, 0xbd,
  0x8b, 0x1e, 0x4d, 0x3c, 0x98, 0x0a, 0xec, 0x3c, 0x7f, 0xf7, 0x0d, 0xbe,
  0xa5, 0x8f, 0xce, 0x3c, 0xdc, 0x2c, 0x1a, 0x3e, 0x56, 0xa8, 0x2d, 0xbe,
  0xaa, 0xec, 0x3a, 0x3c, 0x62, 0xc7, 0x8b, 0xbe, 0xa2, 0x22, 0x58, 0x3c,
  0x2b, 0xe5, 0xa9, 0xbc, 0xe6, 0xc0, 0x98, 0xbd, 0x23, 0x3e, 0x3e, 0x3e,
  0xfa, 0x34, 0xe2, 0xbe, 0x6d, 0xb6, 0x6b, 0x3e, 0xd8, 0xab, 0x2d, 0xbe,
  0x2c, 0x92, 0xc4, 0x3d, 0x5b, 0x5b, 0xd3, 0x3d, 0xd8, 0x1f, 0x9e, 0x3d,
  0xff, 0x7b, 0xe8, 0xbd, 0x8a, 0x5e, 0xcb, 0xbc, 0xd6, 0x5e, 0x92, 0x3d,
  0xf7, 0xca, 0x8c, 0xbc, 0x02, 0x5a, 0x18, 0xbc, 0x58, 0x80, 0x72, 0xbe,
  0x1a, 0x63, 0xd4, 0x3e, 0xf7, 0xf5, 0xff, 0xbc, 0xac, 0xb2, 0x59, 0xbe,
  0x03, 0xa5, 0x0a, 0x3e, 0x06, 0x0b, 0x27, 0xbf, 0xee, 0x49, 0xd4, 0xbb,
  0x88, 0x43, 0x24, 0xbe, 0x4f, 0xc6, 0x9f, 0x3d, 0xb1, 0x34, 0x11, 0xbe,
  0x07, 0xbc, 0x73, 0xbe, 0xec, 0xbf, 0xbe, 0xbd, 0x2e, 0xd6, 0xce, 0xbd,
  0x56, 0x63, 0x9d, 0xbe, 0x40, 0xf3, 0x65, 0xbe, 0x6e, 0x68, 0xad, 0x3b,
  0xba, 0x1c, 0x82, 0xbe, 0x0c, 0xa1, 0x10, 0x3d, 0x67, 0xd2, 0x99, 0xbe,
  0x31, 0x8a, 0xf2, 0xbe, 0x62, 0xba, 0xc6, 0xbd, 0xc4, 0xcf, 0x13, 0xbf,
  0xde, 0x39, 0x44, 0xbd, 0x58, 0x61, 0x18, 0xbe, 0x86, 0xf4, 0xa7, 0xbd,
  0xcc, 0x07, 0x20, 0xbe, 0x33, 0x00, 0xaf, 0xbe, 0xd2, 0x08, 0x7f, 0xbd,
  0x3a, 0x6c, 0x4c, 0xbc, 0x7c, 0x0a, 0xed, 0xbd, 0x15, 0x7a, 0xb4, 0xbd,
  0xa4, 0x20, 0x28, 0xbd, 0xed, 0x6f, 0x00, 0x3d, 0xd7, 0xca, 0xb2, 0xbe,
  0x7d, 0x96, 0x2c, 0xbe, 0x07, 0x40, 0xbf, 0xbe, 0x05, 0x75, 0x3f, 0xbe,
  0x80, 0x80, 0xea, 0xbe, 0xf3, 0x79, 0x50, 0xbe, 0xf3, 0x0e, 0x44, 0xbe,
  0x0a, 0x20, 0xaa, 0x3e, 0xc0, 0xb3, 0x0d, 0xbe, 0xe0, 0x9a, 0x71, 0x3e,
  0xc4, 0x3d, 0x71, 0x3d, 0x84, 0x5d, 0xaf, 0xbd, 0xd7, 0x4d, 0x2e, 0xbb,
  0x85, 0xd3, 0xe2, 0x3d, 0xe6, 0x89, 0x2a, 0xbd, 0xcb, 0x41, 0x5c, 0xbe,
  0xd0, 0x6c, 0xb0, 0xbe, 0x39, 0x36, 0x17, 0x3e, 0x21, 0xc1, 0x04, 0xbe,
  0x96, 0x2b, 0xbc, 0x3d, 0xb6, 0xbf, 0x01, 0xbf, 0x69, 0xbd, 0xc4, 0x3d,
  0xc6, 0x79, 0xd4, 0xbe, 0x6a, 0xf5, 0x3b, 0x3e, 0xbf, 0x51, 0x72, 0xbe,
  0xed, 0x75, 0xa1, 0x3d, 0x34, 0x7e, 0x1a, 0xbd, 0xe6, 0x74, 0x3d, 0xbe,
  0x3e, 0x70, 0x4e, 0x3e, 0x34, 0x58, 0xe1, 0x3d, 0x8c, 0x91, 0x43, 0xbd,
  0xf0, 0xa5, 0xa2, 0x3d, 0xc2, 0x80, 0x5e, 0xbe, 0x18, 0xd2, 0xac, 0x3d,
  0x3b, 0xea, 0xc0, 0xbd, 0xa4, 0xd6, 0x21, 0x3e, 0xe5, 0xdd, 0x86, 0xbe,
  0x06, 0x78, 0x47, 0x3e, 0x51, 0x72, 0x8e, 0xbe, 0xba, 0xcf, 0x9e, 0x3e,
  0xa5, 0x81, 0x1b, 0x3e, 0x81, 0xc6, 0x3a, 0x3e, 0x3a, 0xbf, 0x3e, 0x3e,
  0x08, 0x7a, 0x60, 0xbe, 0x96, 0xa1, 0xae, 0x3e, 0x87, 0x57, 0x92, 0xbd,
  0x8c, 0x1c, 0x02, 0xbd, 0xed, 0x25, 0x91, 0xbe, 0xcc, 0x8c, 0x0e, 0x3d,
  0x3b, 0x3b, 0x3b, 0x3e, 0x76, 0xb8, 0x9f, 0xbd, 0x35, 0x25, 0x6f, 0x3e,
  0x1d, 0x7a, 0xae, 0x3e, 0x14, 0xe5, 0x8c, 0xbe, 0x4f, 0x4a, 0xd1, 0xbd,
  0x74, 0x5c, 0x0b, 0x3f, 0x9c, 0xec, 0x85, 0x3e, 0x15, 0x11, 0x04, 0x3e,
  0x28, 0xc6, 0x35, 0x3e, 0x2e, 0xcf, 0x3f, 0x3d, 0x54, 0x2c, 0xf3, 0x3e,
  0xa7, 0x55, 0x05, 0xbf, 0xeb, 0x8a, 0x80, 0xbc, 0xd9, 0x01, 0x8e, 0xbe,
  0x18, 0xdc, 0x7f, 0x3e, 0x38, 0xff, 0x04, 0x3d, 0xbf, 0x02, 0xad, 0xbb,
  0x72, 0x3a, 0xf6, 0x3e, 0xfa, 0x07, 0xdd, 0xbe, 0x6b, 0x23, 0x69, 0x3e,
  0xf8, 0xe9, 0x72, 0x3e, 0x23, 0xae, 0x41, 0x3e, 0xa3, 0xbc, 0x87, 0xbd,
  0xaa, 0x60, 0x9a, 0xbe, 0xa2, 0xfb, 0x34, 0x3d, 0x17, 0xd0, 0x7c, 0x3c,
  0xb3, 0x91, 0x28, 0xbe, 0x4b, 0xc0, 0xbd, 0x3d, 0xa4, 0xbd, 0x49, 0xbb,
  0xf3, 0x64, 0x8c, 0xbd, 0x50, 0x6c, 0xae, 0x3c, 0x44, 0xe4, 0x75, 0xbe,
  0xa7, 0x37, 0x22, 0xbc, 0x60, 0x9b, 0x17, 0xbe, 0xe4, 0x16, 0x38, 0xbf,
  0xb5, 0x08, 0x34, 0xbe, 0x32, 0x8c, 0x7b, 0xbd, 0x39, 0x91, 0x3f, 0xbe,
  0x49, 0x88, 0xe8, 0x3d, 0x7e, 0x0c, 0xab, 0xbd, 0x54, 0xb2, 0x7a, 0xba,
  0x6b, 0xe9, 0x1a, 0x3e, 0x83, 0x89, 0xb4, 0xbe, 0xb0, 0xaa, 0x47, 0xbe,
  0x7b, 0xda, 0xc6, 0xbb, 0x8f, 0xfd, 0x93, 0xbd, 0x42, 0xb3, 0x0c, 0xbf,
  0xd6, 0x4a, 0xad, 0xbe, 0x6f, 0x8b, 0xdc, 0xbd, 0xa8, 0xa8, 0x5e, 0xbd,
  0x4e, 0x46, 0xe1, 0xbe, 0x5f, 0x03, 0x86, 0xbe, 0xa7, 0xe8, 0x33, 0xbc,
  0x55, 0x94, 0xcc, 0xbc, 0x1a, 0x3a, 0x08, 0xbe, 0x5b, 0xe1, 0xde, 0xbe,
  0x66, 0xe5, 0x17, 0xbd, 0x1e, 0xbb, 0x0a, 0xbd, 0x63, 0x49, 0x66, 0xbe,
  0x14, 0x12, 0x7c, 0x3b, 0x43, 0xa2, 0x95, 0xbc, 0xe2, 0xa1, 0xc3, 0x3d,
  0x67, 0xde, 0x3e, 0xbf, 0xc3, 0xf5, 0xa6, 0xbd, 0x7e, 0xfd, 0xbc, 0xbd,
  0x35, 0xa0, 0x53, 0xbe, 0x91, 0x2f, 0xeb, 0xbe, 0x24, 0x14, 0x9d, 0xbe,
  0x90, 0x2d, 0x20, 0x3c, 0x67, 0xfd, 0x54, 0x3a, 0x13, 0x75, 0x17, 0xbe,
  0xd2, 0x91, 0xc1, 0x3d, 0x95, 0xe9, 0x80, 0x3c, 0x01, 0xdd, 0x68, 0xbc,
  0x65, 0x68, 0xae, 0x3e, 0x90, 0x61, 0x50, 0xbd, 0x87, 0xb8, 0x81, 0x3c,
  0x86, 0x51, 0xe2, 0xbc, 0x2a, 0xe6, 0xd2, 0xbe, 0x41, 0xb5, 0x0e, 0x3e,
  0x89, 0x4f, 0xc1, 0xbc, 0xac, 0x7c, 0x76, 0x3e, 0xa9, 0x82, 0xb2, 0xbe,
  0x0c, 0x24, 0x40, 0x3e, 0x02, 0x10, 0xcf, 0x3d, 0xa6, 0x86, 0x07, 0xbd,
  0xc6, 0x6c, 0x07, 0xbe, 0xcb, 0xc3, 0x21, 0x3e, 0x14, 0x8a, 0x26, 0xbc,
  0xa1, 0x21, 0x29, 0xbe, 0x73, 0xfa, 0x9f, 0x3e, 0xbb, 0x04, 0x2c, 0xbd,
  0xc6, 0x38, 0x19, 0xbb, 0x09, 0xb0, 0xbf, 0x3d, 0xd5, 0x95, 0xe3, 0xbd,
  0xd2, 0x7d, 0x00, 0x3e, 0xf2, 0x75, 0x36, 0xbd, 0xb8, 0x05, 0x70, 0x3e,
  0x95, 0x43, 0x83, 0xbe, 0x91, 0x17, 0xf7, 0x3c, 0xae, 0x79, 0x71, 0xbd,
  0xf2, 0x61, 0x85, 0xbd, 0x7b, 0x9e, 0x99, 0xbd, 0xad, 0xad, 0xfc, 0x3d,
  0x42, 0x77, 0x4f, 0x3d, 0xfc, 0xd1, 0x5d, 0xbe, 0x96, 0x85, 0xd1, 0x3e,
  0x4e, 0x41, 0x62, 0xbc, 0x26, 0x30, 0x5a, 0x3c, 0xe6, 0x32, 0x92, 0x3d,
  0x63, 0xe5, 0x94, 0x3d, 0xaf, 0xc5, 0x9b, 0x3d, 0x0b, 0x85, 0x86, 0xbd,
  0x10, 0x1f, 0xa6, 0x3e, 0x63, 0xc0, 0xf7, 0x3e, 0xbf, 0x49, 0xa5, 0xbc,
  0x80, 0xcd, 0x32, 0x3d, 0x89, 0x32, 0xeb, 0x3e, 0xab, 0x01, 0xdd, 0x3d,
  0xbb, 0xb7, 0xcb, 0xbe, 0xdb, 0x37, 0x12, 0x3e, 0xd3, 0x3b, 0x03, 0x3f,
  0x02, 0x70, 0x66, 0xbe, 0xf9, 0x5e, 0x17, 0xbd, 0x7e, 0x46, 0xf3, 0x3d,
  0x67, 0xa4, 0x8d, 0x3b, 0xcf, 0xc2, 0x8a, 0x3d, 0xc4, 0xd4, 0x12, 0x3e,
  0x48, 0x9e, 0xd6, 0xbd, 0x6e, 0x91, 0xee, 0xbe, 0x97, 0x58, 0xd6, 0xbc,
  0x4f, 0xdd, 0xd0, 0xbe, 0xa8, 0xe9, 0x04, 0xbf, 0xba, 0xdd, 0xeb, 0xbd,
  0x06, 0xdc, 0xd7, 0x3c, 0x3d, 0xaa, 0x7c, 0xbe, 0xe2, 0x2f, 0x5a, 0x3e,
  0xe0, 0xdf, 0xd6, 0xbc, 0x30, 0x28, 0x10, 0x3e, 0x51, 0xd6, 0x44, 0x3e,
  0x23, 0xe9, 0x02, 0x3e, 0x2a, 0xdf, 0x78, 0xbd, 0xfa, 0x54, 0xf7, 0xba,
  0xa4, 0xaa, 0x18, 0x3e, 0x09, 0x94, 0xec, 0xbc, 0x92, 0xc8, 0x43, 0xbe,
  0xb0, 0x9f, 0x03, 0x37, 0x43, 0x04, 0xe6, 0xbe, 0x1e, 0x0b, 0xcd, 0x3a,
  0x80, 0x60, 0xbb, 0xbb, 0x88, 0x94, 0x87, 0xbe, 0xc6, 0x90, 0x27, 0xba,
  0x29, 0xdb, 0xc9, 0x3d, 0xb3, 0x4b, 0xf0, 0xbb, 0xae, 0x2a, 0xa5, 0x3e,
  0x44, 0xb3, 0x30, 0x3e, 0xd8, 0xca, 0x14, 0x3e, 0xe4, 0x78, 0x71, 0x3d,
  0x01, 0xed, 0x04, 0x3e, 0xc9, 0x7f, 0x5d, 0x3d, 0xf4, 0xc7, 0x41, 0xbc,
  0xe7, 0xbe, 0x4f, 0xbe, 0x78, 0x62, 0x4c, 0xbc, 0xfa, 0xd5, 0x40, 0xbd,
  0x30, 0xf6, 0x4c, 0xbd, 0xa7, 0xe2, 0x91, 0xbc, 0x1e, 0x42, 0xad, 0x3d,
  0x5c, 0xe1, 0xf4, 0xbb, 0x20, 0xa4, 0x82, 0x3c, 0xf2, 0x8a, 0xfe, 0xbc,
  0xca, 0x09, 0xc3, 0x3e, 0x15, 0x6d, 0x93, 0x3d, 0x89, 0x3f, 0x2b, 0xbd,
  0xe3, 0x03, 0x63, 0x3d, 0x40, 0x54, 0x22, 0x3f, 0x7f, 0x7a, 0xbb, 0xbd,
  0x1e, 0x42, 0xf2, 0x3d, 0xb5, 0x89, 0xcb, 0x3d, 0x2f, 0xad, 0x46, 0x3d,
  0x2b, 0x67, 0x2c, 0x3d, 0x37, 0x31, 0xea, 0x3e, 0xb1, 0xea, 0xc8, 0xbd,
  0x5c, 0x29, 0x5c, 0xbe, 0x72, 0xf7, 0x6b, 0xbc, 0x1f, 0xb8, 0x36, 0xbd,
  0x8a, 0x41, 0x7f, 0xbc, 0xa0, 0x3c, 0x0c, 0x3d, 0x9c, 0x6e, 0x2e, 0x3e,
  0xf5, 0x8a, 0x83, 0xbd, 0x5e, 0xbb, 0x1b, 0x3e, 0x43, 0xf5, 0xf6, 0x3e,
  0xce, 0xdd, 0x19, 0xbe, 0xa8, 0x63, 0x4c, 0xbd, 0x26, 0x21, 0xac, 0xbe,
  0xc2, 0x1b, 0x02, 0xbe, 0xa3, 0x98, 0x36, 0xbe, 0x62, 0x4e, 0x87, 0x3e,
  0x2d, 0x08, 0xf5, 0xbc, 0x2b, 0x7b, 0x7d, 0xbe, 0xaa, 0x03, 0x67, 0xbe,
  0x65, 0x66, 0xe1, 0x3c, 0xa6, 0xa0, 0x38, 0x3d, 0xe8, 0x17, 0x9b, 0xbd,
  0x3b, 0x9c, 0xa8, 0xbd, 0x43, 0x1a, 0x4b, 0xbd, 0xda, 0x3f, 0x4d, 0xbe,
  0x04, 0x3c, 0x87, 0x3e, 0x32, 0x27, 0x28, 0xbe, 0x7c, 0xfd, 0xd4, 0xbd,
  0x1e, 0x70, 0x49, 0xbe, 0xb5, 0xe5, 0x0f, 0x3d, 0x0c, 0xfe, 0x2c, 0xbe,
  0xe8, 0x75, 0x23, 0x3e, 0x8e, 0xfd, 0x04, 0xbe, 0xa0, 0x7c, 0xdc, 0xbc,
  0x88, 0x10, 0xd4, 0xbe, 0x7a, 0x3f, 0xea, 0xbd, 0x35, 0x9d, 0xe1, 0x3c,
  0xaf, 0x07, 0xf5, 0x3c, 0x98, 0x6b, 0xed, 0xbd, 0x91, 0xf2, 0x83, 0xbd,
  0x27, 0x28, 0x98, 0x3e, 0xec, 0x1c, 0x2b, 0xbe, 0xe9, 0xdc, 0xc8, 0xbd,
  0xa3, 0xaa, 0x05, 0xbe, 0x29, 0xdf, 0xaa, 0xbe, 0x3e, 0x2e, 0x9f, 0x3d,
  0x8d, 0xef, 0x4f, 0x3e, 0xe6, 0x40, 0x0f, 0x3e, 0xac, 0xd7, 0x9e, 0xbe,
  0x94, 0x3b, 0xca, 0x3e, 0x34, 0x44, 0x1f, 0xbe, 0xe0, 0x26, 0x88, 0xbe,
  0xf2, 0x93, 0x2e, 0x3e, 0xe7, 0x01, 0xe8, 0xbc, 0x61, 0x9e, 0xf3, 0x3d,
  0x70, 0xd0, 0xc2, 0xbd, 0xe2, 0x72, 0x86, 0x3d, 0x1d, 0xbd, 0x69, 0xbe,
  0xd3, 0x62, 0x2b, 0xbc, 0x48, 0xa8, 0x87, 0x3e, 0x60, 0xb2, 0x62, 0xbe,
  0xa0, 0x3d, 0x8f, 0xbc, 0xf9, 0x57, 0xcf, 0xbd, 0x2f, 0x26, 0xa6, 0x3c,
  0xcc, 0x79, 0xcb, 0x3d, 0x89, 0xa8, 0x0f, 0x3d, 0xec, 0xe8, 0x4e, 0xbc,
  0x64, 0xb5, 0x88, 0x3d, 0xc8, 0xfd, 0xd0, 0x3e, 0xf0, 0x31, 0x68, 0x3e,
  0xb3, 0x51, 0x11, 0xbd, 0x2b, 0x29, 0xae, 0xbd, 0xe8, 0x2f, 0x92, 0x3d,
  0x05, 0x18, 0xa4, 0xbd, 0xd5, 0xa4, 0xf4, 0x3e, 0xcf, 0x10, 0xa8, 0x3d,
  0x08, 0xfa, 0x82, 0xbd, 0xb3, 0xd0, 0x58, 0x3d, 0x09, 0x89, 0xcc, 0x3c,
  0x62, 0x35, 0xc5, 0xbd, 0x2d, 0x4e, 0xeb, 0xbd, 0x36, 0xe9, 0x9d, 0x3e,
  0x4c, 0x88, 0x84, 0x3c, 0x9c, 0x38, 0x57, 0xbe, 0xd4, 0x16, 0xad, 0x3c,
  0x73, 0x83, 0xaf, 0x3e, 0xa2, 0x77, 0xcd, 0x3d, 0xb6, 0x22, 0xc1, 0x3b,
  0xc7, 0x0b, 0x4d, 0x3d, 0x3d, 0x98, 0x89, 0x3e, 0x81, 0xfc, 0xd0, 0x3e,
  0xa0, 0xb3, 0x12, 0x3e, 0xcc, 0xbf, 0xf9, 0x3d, 0xfe, 0xe4, 0x8a, 0x3d,
  0x42, 0x2c, 0x8d, 0xbc, 0x57, 0x22, 0x81, 0x3e, 0xb9, 0xb4, 0x2b, 0xbe,
  0xb8, 0x6d, 0x57, 0x3d, 0x91, 0x68, 0xd6, 0x3d, 0x6a, 0xa9, 0x24, 0xbd,
  0xf7, 0x29, 0x2c, 0xbd, 0xcc, 0x86, 0xeb, 0x3d, 0xd4, 0x65, 0x8d, 0x3d,
  0x3e, 0xa8, 0xca, 0xbb, 0x52, 0x51, 0x28, 0xbe, 0x63, 0xc0, 0x24, 0x3f,
  0xe7, 0xfd, 0xe3, 0x3d, 0xc9, 0xd6, 0xe8, 0x3d, 0x4c, 0xd3, 0x4c, 0x3d,
  0x81, 0x76, 0x92, 0x3d, 0xd7, 0x27, 0x51, 0x3d, 0x9f, 0x3a, 0xc2, 0xbd,
  0x2f, 0x6f, 0xad, 0xbd, 0xb1, 0xf4, 0x60, 0x3e, 0x14, 0x94, 0x34, 0x3d,
  0xe5, 0x30, 0xa0, 0xbe, 0x23, 0x0e, 0xc5, 0x3d, 0x81, 0xe1, 0xd1, 0x3d,
  0xa3, 0xd2, 0xd2, 0xbc, 0x2a, 0xba, 0xab, 0xbd, 0x28, 0xf1, 0xad, 0xbd,
  0xfb, 0x37, 0xef, 0x3e, 0x57, 0x5b, 0x65, 0x3e, 0x55, 0x49, 0xda, 0xbd,
  0x74, 0x0f, 0x01, 0xbe, 0x44, 0xbc, 0xfd, 0x3d, 0x74, 0x7d, 0x85, 0xbd,
  0xfb, 0x86, 0x1a, 0x3e, 0x8f, 0x9a, 0x68, 0x3d, 0x57, 0x80, 0xf2, 0x3d,
  0x8d, 0x50, 0x8e, 0xbe, 0xe9, 0x32, 0xb7, 0xbe, 0xfa, 0xb7, 0x9d, 0xbc,
  0xae, 0xdd, 0xbd, 0xbd, 0x5d, 0xdb, 0x6e, 0xbe, 0xc2, 0x55, 0xd1, 0xbe,
  0x29, 0x22, 0x87, 0x3e, 0xb6, 0x2d, 0x3f, 0x3e, 0x29, 0x8a, 0x30, 0x3d,
  0xb5, 0x63, 0x3a, 0xbe, 0xf3, 0x41, 0x9e, 0x3c, 0x18, 0x4b, 0x81, 0xbc,
  0x6f, 0x4e, 0xb0, 0xbd, 0x8c, 0xfa, 0x67, 0xbd, 0x06, 0x98, 0x9e, 0xbd,
  0x3d, 0xc2, 0x55, 0xbd, 0x21, 0x97, 0x31, 0xbf, 0xb2, 0x2e, 0x40, 0xbf,
  0x1f, 0xa3, 0x00, 0xbf, 0x16, 0x16, 0x8f, 0x3e, 0x2c, 0x51, 0xf0, 0xbd,
  0x9f, 0xe0, 0xc4, 0xbe, 0xd9, 0x3d, 0x0b, 0x3d, 0x4f, 0x42, 0xa6, 0xbe,
  0x7e, 0xe8, 0x33, 0x3e, 0x86, 0x3d, 0x6e, 0xbe, 0x33, 0xa5, 0x3e, 0xbe,
  0xae, 0x00, 0x31, 0xbd, 0x79, 0x7a, 0xde, 0xbc, 0x31, 0xe5, 0x31, 0xbe,
  0x3b, 0xbe, 0x07, 0xbe, 0xcf, 0xb5, 0xd6, 0x3d, 0x15, 0x12, 0x53, 0x3e,
  0xb8, 0xc2, 0x5f, 0x3e, 0x40, 0xb3, 0x8c, 0xbe, 0x3f, 0xed, 0xe8, 0x3e,
  0xe8, 0xea, 0x90, 0xbe, 0x9a, 0x2f, 0x90, 0xbc, 0x8d, 0x9f, 0x50, 0xbe,
  0x96, 0x0e, 0x7b, 0x3e, 0x29, 0xe8, 0x3b, 0x3d, 0xb4, 0x3c, 0xee, 0x3d,
  0x95, 0x6d, 0x89, 0x3e, 0x46, 0x8f, 0x85, 0xbd, 0x14, 0xc1, 0xab, 0x3e,
  0x3a, 0xfe, 0x05, 0x3e, 0x8a, 0x45, 0xe8, 0x3e, 0x24, 0xd2, 0xb8, 0xbd,
  0x25, 0x23, 0x7f, 0xbe, 0x64, 0x63, 0x43, 0xbc, 0x9a, 0x7f, 0x54, 0xbd,
  0xd8, 0x46, 0x97, 0xbe, 0x08, 0xde, 0x10, 0x3e, 0x0c, 0x29, 0x94, 0x3d,
  0x17, 0xc7, 0x0f, 0x3e, 0x47, 0x08, 0x1a, 0x3e, 0xdc, 0x83, 0x11, 0xbe,
  0xe8, 0xbb, 0xdf, 0x3c, 0xc6, 0x69, 0x6c, 0xbe, 0x0e, 0x5e, 0x7c, 0xbd,
  0xa8, 0x24, 0x9d, 0xbe, 0xfb, 0x46, 0x83, 0xbe, 0x89, 0xec, 0x6c, 0xbe,
  0x9f, 0xd0, 0x6a, 0x3e, 0x2f, 0x63, 0x2e, 0xbe, 0x68, 0x0d, 0xb5, 0xbc,
  0x5c, 0x8c, 0xd9, 0xbd, 0x88, 0x8e, 0xfd, 0xbe, 0x99, 0x5a, 0x8a, 0xbd,
  0x8d, 0xb2, 0x9b, 0xbd, 0x50, 0x40, 0x06, 0x3c, 0x79, 0xf8, 0x8e, 0xbe,
  0x48, 0x5f, 0xaa, 0xbe, 0xc7, 0x66, 0xa2, 0xbe, 0x6c, 0xfa, 0xc4, 0xbd,
  0xeb, 0xe4, 0x90, 0x3d, 0xa5, 0xc1, 0x14, 0xbe, 0x95, 0x19, 0xf4, 0xbd,
  0xcb, 0xdc, 0xa8, 0x3d, 0x84, 0x17, 0x56, 0xbe, 0x7f, 0x79, 0xa1, 0xbd,
  0x10, 0xe4, 0xa1, 0x3c, 0x93, 0x7b, 0xbc, 0xbd, 0xb9, 0xae, 0x3c, 0xbe,
  0xeb, 0xc2, 0x4c, 0xbe, 0xcb, 0xc6, 0xe0, 0xbd, 0x19, 0xca, 0x2a, 0xbd,
  0x9e, 0x9e, 0x33, 0xbf, 0x47, 0xd0, 0xb3, 0xbd, 0xaf, 0x0e, 0x9d, 0xbd,
  0x92, 0x71, 0xa5, 0xbc, 0x1b, 0x4b, 0x6f, 0x3d, 0x09, 0x3f, 0x00, 0xbe,
  0x12, 0xa9, 0xc9, 0xbe, 0xc5, 0xab, 0xcc, 0xbd, 0xeb, 0xe1, 0xf9, 0x3d,
  0xf9, 0x9c, 0xfa, 0x3c, 0x7a, 0x12, 0xbb, 0xbb, 0xe6, 0x40, 0x05, 0xbe,
  0x5d, 0xfc, 0xf1, 0xbd, 0x68, 0xb3, 0x60, 0xbe, 0x82, 0x8e, 0x47, 0xbc,
  0x01, 0x0a, 0x2a, 0xbe, 0x5d, 0x2d, 0xdb, 0xbe, 0x46, 0xcc, 0x11, 0xbc,
  0xde, 0xeb, 0xe5, 0xbd, 0xb9, 0x00, 0xa4, 0xbd, 0x8c, 0xab, 0xc3, 0x3d,
  0xe4, 0xc1, 0x07, 0xbe, 0x97, 0xde, 0x90, 0xbd, 0x01, 0x02, 0xac, 0xbe,
  0x8b, 0x7b, 0x67, 0x3d, 0x4b, 0xf0, 0x5e, 0xbe, 0x90, 0xc2, 0xab, 0x3d,
  0xee, 0x5a, 0xbe, 0xbd, 0xc5, 0xc5, 0x85, 0xbe, 0xad, 0x55, 0xba, 0xbd,
  0xea, 0x02, 0xb0, 0xbd, 0xdb, 0x59, 0x25, 0xbd, 0xf0, 0x06, 0x35, 0xbe,
  0xba, 0xad, 0x07, 0xbd, 0x9a, 0x79, 0xb9, 0xbd, 0x32, 0x86, 0x11, 0xbe,
  0xe9, 0x2c, 0xb5, 0xbd, 0x61, 0xe4, 0xd3, 0xbd, 0x2f, 0x81, 0x85, 0xbe,
  0xeb, 0xef, 0x59, 0xbd, 0x2f, 0x19, 0x3d, 0xbe, 0xae, 0xf6, 0x08, 0xbe,
  0x36, 0xc3, 0x09, 0xbe, 0x1e, 0x03, 0xda, 0x3d, 0x01, 0xf5, 0x8d, 0xbe,
  0x01, 0xd9, 0x21, 0xbd, 0xfa, 0xb3, 0xe2, 0xbd, 0xe8, 0x6e, 0x94, 0xbb,
  0xc5, 0xb6, 0x91, 0xbe, 0xf7, 0x7e, 0x16, 0xbe, 0x7e, 0x0e, 0xa8, 0xbd,
  0xee, 0x2c, 0x69, 0xbd, 0x59, 0x23, 0x71, 0xbe, 0x60, 0x1f, 0x37, 0xbe,
  0xc6, 0xe2, 0x5c, 0xbe, 0x5c, 0xb9, 0xbc, 0xbe, 0x40, 0xee, 0x8d, 0x3e,
  0xd3, 0xaa, 0xb7, 0xbe, 0xc8, 0x80, 0x95, 0x3d, 0x88, 0x2b, 0xfe, 0x3e,
  0xeb, 0x7d, 0x9c, 0xbe, 0xb4, 0xbd, 0x91, 0xbe, 0xed, 0x1c, 0x4a, 0x3d,
  0x1a, 0x55, 0xcb, 0xbd, 0xda, 0x07, 0xbd, 0xbd, 0xbf, 0x1f, 0x86, 0x3e,
  0x46, 0x15, 0x49, 0x3d, 0xc2, 0x3e, 0xc0, 0xbe, 0x72, 0x07, 0xa9, 0xbe,
  0x53, 0xf7, 0x43, 0xbf, 0x5f, 0xd9, 0x2a, 0xbe, 0x94, 0xe4, 0xdf, 0xbe,
  0xed, 0x86, 0x86, 0x3e, 0xee, 0xef, 0xe2, 0xbd, 0x86, 0x05, 0x7d, 0x3e,
  0xc1, 0x92, 0x5c, 0x3e, 0x44, 0xb3, 0xab, 0x3d, 0x99, 0x4d, 0xae, 0x3d,
  0x28, 0x65, 0x59, 0x3c, 0xd8, 0x2b, 0x88, 0x3d, 0xda, 0xde, 0xcf, 0x3c,
  0x6d, 0xc5, 0x26, 0x3e, 0xc3, 0xef, 0x85, 0x39, 0x4a, 0x2b, 0xe9, 0xbd,
  0x11, 0x78, 0x56, 0xbe, 0xf0, 0x1f, 0x15, 0xbf, 0xec, 0xe8, 0x06, 0x3e,
  0x32, 0x78, 0x23, 0x3c, 0x98, 0x64, 0x58, 0xbc, 0xc6, 0x7a, 0x8b, 0x3d,
  0x7e, 0x28, 0x5d, 0xbd, 0x37, 0x7e, 0x45, 0xbc, 0xc0, 0x46, 0x79, 0x3e,
  0xb9, 0x9d, 0x38, 0x3e, 0x27, 0x2d, 0x32, 0x3d, 0x62, 0x71, 0x90, 0x3e,
  0xe4, 0x6b, 0xb9, 0x3e, 0xee, 0xe1, 0x82, 0x3e, 0xf2, 0xeb, 0x30, 0xbc,
  0xf9, 0x7d, 0x6b, 0xbe, 0xac, 0x67, 0xe1, 0xbd, 0xfb, 0x0e, 0x91, 0xbd,
  0x72, 0x2d, 0x89, 0x3e, 0x85, 0x97, 0xc8, 0xbd, 0x09, 0x80, 0x99, 0xbe,
  0xe2, 0x84, 0x48, 0x3e, 0x4c, 0x1e, 0xc7, 0xbc, 0x7f, 0x85, 0x2b, 0xbd,
  0x4a, 0x12, 0x4a, 0x3e, 0x69, 0xe3, 0xd1, 0x3d, 0xb8, 0x06, 0x7a, 0x3d,
  0xa9, 0x68, 0x70, 0x3e, 0x29, 0x1e, 0x1b, 0x3f, 0xbe, 0xd6, 0x43, 0x3d,
  0xe3, 0xb8, 0x15, 0xbd, 0xdd, 0xfe, 0x8e, 0xbc, 0x44, 0x03, 0xff, 0xbd,
  0x03, 0xf7, 0xc6, 0xbd, 0x45, 0x14, 0x92, 0x3e, 0x6c, 0x44, 0xd7, 0x3c,
  0x6d, 0x35, 0xbc, 0xbc, 0x7e, 0xfa, 0x95, 0xbe, 0xba, 0xf4, 0x61, 0xbd,
  0xc6, 0x1c, 0x39, 0xbe, 0x5d, 0xc7, 0x03, 0xbd, 0xcf, 0xd9, 0x82, 0xbc,
  0xc1, 0xc9, 0xf3, 0x3c, 0xb1, 0x90, 0x91, 0xba, 0x2a, 0x76, 0x15, 0x3f,
  0xec, 0x28, 0x11, 0xbe, 0x78, 0x62, 0x21, 0xbe, 0x4b, 0xce, 0xa2, 0xbd,
  0x0e, 0x48, 0xf0, 0x3d, 0x7a, 0x57, 0x43, 0xbd, 0x08, 0x2e, 0x46, 0x3e,
  0x34, 0x8b, 0x23, 0xbe, 0xaf, 0x5f, 0x15, 0xbe, 0x0b, 0x4f, 0xc0, 0xbe,
  0x91, 0xbc, 0xe8, 0xbd, 0xa5, 0x20, 0xe1, 0xbc, 0xca, 0xb4, 0xa2, 0xbd,
  0x0c, 0x3f, 0x3b, 0x3e, 0xa4, 0x07, 0x03, 0x3d, 0x84, 0xf1, 0x5d, 0xbc,
  0xa2, 0xab, 0x00, 0x3f, 0x11, 0x5b, 0xc9, 0xbd, 0x76, 0xe6, 0xf2, 0xbd,
  0xe6, 0xfe, 0x7e, 0xbe, 0x60, 0xeb, 0x6e, 0x3d, 0x57, 0x07, 0xb4, 0xbc,
  0x8c, 0x96, 0xc2, 0x3d, 0xa7, 0x9d, 0xed, 0xbd, 0x61, 0xe9, 0x9e, 0x3b,
  0xf9, 0xc6, 0x9c, 0xbe, 0x53, 0xa2, 0x49, 0x3c, 0x26, 0x9b, 0x71, 0x3c,
  0xea, 0x67, 0x63, 0xbe, 0x03, 0xf3, 0x19, 0xbe, 0x8b, 0x58, 0xa6, 0x3c,
  0x26, 0xad, 0xa9, 0x3e, 0x94, 0x36, 0xa8, 0xbd, 0x44, 0x21, 0xae, 0xbd,
  0xfa, 0xe3, 0x9b, 0xbd, 0x5e, 0x92, 0xe9, 0xbe, 0xe8, 0x8c, 0x81, 0xbd,
  0x48, 0x30, 0x2e, 0x3e, 0x9c, 0x00, 0x15, 0xbe, 0xa6, 0x0b, 0xb5, 0xbe,
  0xd4, 0xff, 0x83, 0xbe, 0x75, 0x61, 0x97, 0x3e, 0xaa, 0x92, 0x28, 0x3d,
  0x06, 0x1b, 0x10, 0xbf, 0x79, 0x14, 0x9a, 0xbd, 0x28, 0x70, 0xd8, 0x3d,
  0x91, 0x0c, 0x15, 0xbf, 0x53, 0x10, 0x58, 0x3e, 0x8e, 0x58, 0x9e, 0xbe,
  0x4f, 0x0d, 0xb0, 0xbe, 0x66, 0xf9, 0xd2, 0xbe, 0xa3, 0xd8, 0x13, 0x3e,
  0x79, 0x2e, 0x4a, 0x3e, 0x75, 0x27, 0x26, 0x3e, 0x1c, 0x31, 0x12, 0xbd,
  0x51, 0x3a, 0x05, 0x3f, 0xd5, 0x51, 0x50, 0x3d, 0xe1, 0x4b, 0xe6, 0x3e,
  0xe2, 0x0b, 0x51, 0xbe, 0x99, 0x6c, 0xe8, 0xbe, 0x20, 0xe4, 0x87, 0xbd,
  0x92, 0x12, 0x3c, 0xbe, 0x86, 0x90, 0xb2, 0xbe, 0x2d, 0x06, 0x64, 0x3d,
  0x50, 0xef, 0x23, 0xbe, 0x06, 0x48, 0x8a, 0x3d, 0xfc, 0x23, 0x27, 0xbe,
  0xa4, 0xd5, 0xf9, 0x3d, 0x05, 0x4a, 0x11, 0x3e, 0x3b, 0xe4, 0x8b, 0x3e,
  0xe6, 0x8a, 0xfd, 0x3c, 0x52, 0xef, 0x08, 0x40, 0x66, 0x0c, 0xf7, 0x3c,
  0x82, 0x9e, 0x9e, 0x3e, 0x4c, 0x53, 0x5a, 0xbe, 0x80, 0x47, 0x83, 0xbe,
  0x08, 0xd6, 0xf6, 0xbd, 0xee, 0xda, 0x13, 0xbe, 0x2f, 0xbb, 0x11, 0xbe,
  0xd9, 0xa6, 0x32, 0x3d, 0xce, 0x14, 0x5e, 0x3d, 0x52, 0xa6, 0x97, 0xbe,
  0x17, 0x34, 0x09, 0xbd, 0x82, 0xc4, 0x41, 0xbe, 0x71, 0x0d, 0xd0, 0x3d,
  0x14, 0x97, 0xfe, 0x3d, 0xa1, 0x6b, 0xd4, 0x3d, 0x37, 0xa0, 0x2f, 0x40,
  0x20, 0x46, 0xba, 0xbd, 0x91, 0x88, 0x88, 0x3e, 0xf5, 0xf4, 0x18, 0xbe,
  0x98, 0xbd, 0xc0, 0xbd, 0xc1, 0xb8, 0xa4, 0x3c, 0x46, 0xde, 0x19, 0xbd,
  0x0d, 0x46, 0xd9, 0xbb, 0xaf, 0x76, 0xa7, 0x3c, 0x82, 0xee, 0x73, 0x3e,
  0x4a, 0xf1, 0x2f, 0xbe, 0x8b, 0xc8, 0x02, 0x3d, 0xc1, 0x49, 0x07, 0x3d,
  0xc4, 0x31, 0xeb, 0xbb, 0x10, 0x71, 0x96, 0x3d, 0x1e, 0xbf, 0x12, 0xbe,
  0x94, 0xa0, 0x0f, 0x40, 0xe2, 0xf9, 0xa1, 0xbd, 0x02, 0x12, 0xa7, 0x3d,
  0x88, 0xef, 0xcb, 0xbe, 0xf3, 0xa2, 0xb0, 0xbd, 0x63, 0xa5, 0x45, 0xbd,
  0x07, 0x7f, 0x40, 0x3d, 0xff, 0xdb, 0xcb, 0xbc, 0x83, 0x9c, 0x94, 0xbd,
  0xd7, 0xf6, 0xd2, 0x3d, 0x40, 0x3e, 0xcd, 0xbd, 0x86, 0x03, 0x5d, 0x3d,
  0x91, 0x94, 0x1a, 0xbe, 0xc1, 0x6a, 0xd1, 0x3b, 0xe7, 0xd3, 0x3f, 0x3d,
  0xdd, 0x0a, 0xb0, 0x3d, 0x1a, 0xb6, 0xf8, 0x3f, 0x12, 0xde, 0x50, 0xbd,
  0x89, 0x8b, 0x8d, 0x3e, 0x2c, 0x35, 0xee, 0xbe, 0xc2, 0x63, 0x33, 0x3e,
  0xd0, 0xbd, 0x85, 0xbd, 0x8e, 0xb0, 0x21, 0xbe, 0x68, 0x57, 0xd2, 0xbc,
  0xec, 0x21, 0x25, 0xbe, 0xe7, 0x51, 0xa4, 0xbe, 0x60, 0xfa, 0xaf, 0xbe,
  0x0e, 0x7e, 0x26, 0x3d, 0xf9, 0x4f, 0x1d, 0xbe, 0xa7, 0xdf, 0xb8, 0xbd,
  0xe7, 0x4d, 0x86, 0x3d, 0x4e, 0x6c, 0x0d, 0x3e, 0x73, 0x86, 0x07, 0x40,
  0x06, 0xc7, 0x49, 0xbf, 0xd6, 0x8f, 0x21, 0x3f, 0x2b, 0x03, 0x89, 0xbe,
  0xb1, 0xcc, 0x49, 0xbe, 0xc3, 0x3d, 0x34, 0xbd, 0xc9, 0x33, 0x18, 0x3e,
  0xa4, 0x6b, 0x05, 0xbc, 0x17, 0x56, 0xa3, 0xbe, 0x08, 0x3c, 0xa9, 0x3d,
  0x2b, 0x47, 0x72, 0xbc, 0x27, 0xf9, 0x04, 0x3e, 0xcb, 0x4e, 0x28, 0xbf,
  0xc1, 0x1f, 0xc6, 0xbe, 0xd7, 0x7b, 0xdc, 0xbe, 0x7c, 0xbe, 0x4f, 0xbe,
  0x7b, 0x61, 0x40, 0x3f, 0x51, 0x59, 0x10, 0xbe, 0x22, 0x6c, 0x06, 0xbe,
  0x9e, 0x3f, 0xbb, 0xbe, 0xdf, 0x1d, 0xcb, 0x3c, 0x89, 0xbb, 0x90, 0xbb,
  0x94, 0xb9, 0x78, 0xbe, 0xb1, 0x93, 0x71, 0xbe, 0x0a, 0x80, 0x11, 0x3e,
  0x0e, 0x5e, 0x1a, 0xbe, 0xe3, 0xe5, 0x68, 0xbe, 0x85, 0x4c, 0x91, 0xbe,
  0x4c, 0x6b, 0xd2, 0xbd, 0x0d, 0x54, 0xac, 0xbe, 0x4d, 0x92, 0x15, 0xbe,
  0xac, 0xb9, 0xe8, 0xbd, 0xb8, 0xad, 0x9a, 0x3f, 0x04, 0xbb, 0x32, 0xbe,
  0x65, 0x38, 0x11, 0x3e, 0x3e, 0x06, 0x92, 0xbe, 0x49, 0x69, 0x8d, 0x3d,
  0x2b, 0x42, 0x85, 0x3d, 0x8c, 0x70, 0x4b, 0xba, 0x23, 0x01, 0xe8, 0xbe,
  0x58, 0xef, 0xd2, 0x3d, 0xe5, 0x00, 0x6a, 0xbe, 0x6d, 0x7a, 0x81, 0xbc,
  0xc1, 0x03, 0x06, 0xbe, 0x7f, 0x56, 0xe2, 0xbd, 0xe3, 0x98, 0xc5, 0xbd,
  0xaf, 0x37, 0x4e, 0xbe, 0x62, 0xa0, 0xae, 0x3d, 0x38, 0xcc, 0x98, 0x3f,
  0xdf, 0x6f, 0xa3, 0x3d, 0x3e, 0xb8, 0x38, 0xbd, 0x0d, 0x8e, 0x9d, 0xbe,
  0x3d, 0x3f, 0x23, 0x3f, 0x81, 0xdf, 0x6d, 0xbe, 0x35, 0x34, 0xe9, 0x3d,
  0x74, 0x8e, 0x55, 0xbe, 0xf1, 0x5a, 0x8a, 0x3e, 0x52, 0x76, 0x95, 0xbe,
  0xc3, 0x51, 0xcf, 0x3c, 0xc4, 0x5a, 0x57, 0xbd, 0x90, 0x26, 0x25, 0xbe,
  0x2b, 0x69, 0x93, 0xbe, 0xc2, 0xd4, 0xeb, 0x3d, 0x9b, 0x66, 0x5e, 0x3e,
  0x0c, 0x1f, 0xc7, 0x3f, 0xa1, 0x8a, 0xaa, 0x3b, 0x16, 0x40, 0x59, 0xbe,
  0x11, 0x44, 0xd4, 0x3c, 0x0a, 0x83, 0x26, 0x3e, 0xa0, 0xc8, 0x5a, 0xbe,
  0x65, 0x80, 0x9a, 0x3d, 0x3e, 0x6e, 0xd2, 0xbe, 0x71, 0x4a, 0x1a, 0xbd,
  0x3e, 0x58, 0xca, 0x3d, 0x07, 0x44, 0xa3, 0xbd, 0x12, 0xe5, 0xa1, 0xbd,
  0xf8, 0x3e, 0x8a, 0xbe, 0x54, 0xb0, 0x04, 0x3d, 0x7a, 0xc4, 0x9c, 0xbd,
  0x1c, 0x46, 0xa6, 0x3e, 0xb7, 0xfe, 0xe1, 0x3f, 0xe9, 0x44, 0x0a, 0x3c,
  0x05, 0xb5, 0x1e, 0xbe, 0x6a, 0x43, 0xc3, 0xbe, 0xab, 0x47, 0x89, 0xbd,
  0x20, 0x75, 0x25, 0x3e, 0x94, 0x3d, 0x80, 0xbe, 0x5d, 0xde, 0x66, 0xbe,
  0x14, 0xcf, 0x35, 0x3d, 0x6d, 0x04, 0x9c, 0xbb, 0x7c, 0x34, 0x2c, 0xbd,
  0x65, 0x85, 0x02, 0xbe, 0x7b, 0x6b, 0x28, 0xbe, 0xb9, 0xf9, 0xb6, 0xbe,
  0xa3, 0x77, 0xf9, 0xbc, 0x3c, 0x10, 0x1b, 0x3e, 0x57, 0xa5, 0xd2, 0x3f,
  0xe9, 0x59, 0x28, 0x3e, 0x30, 0x86, 0x80, 0x3c, 0x0f, 0xaa, 0xa4, 0xbe,
  0x85, 0x79, 0x92, 0x3d, 0x8b, 0x82, 0xf3, 0xbd, 0xdf, 0x5f, 0x7e, 0x3d,
  0x9b, 0xe8, 0x81, 0xbe, 0x84, 0x0b, 0x8d, 0xbb, 0x15, 0x38, 0x06, 0xbe,
  0x7b, 0x86, 0x21, 0xbe, 0x5d, 0xbb, 0x49, 0xbe, 0x19, 0xfd, 0x30, 0x3d,
  0x96, 0xac, 0x34, 0xbe, 0x0e, 0x38, 0xce, 0x3c, 0x67, 0x54, 0x65, 0x3e,
  0xe6, 0xcb, 0xbb, 0x3f, 0x51, 0x5e, 0x29, 0xbe, 0x86, 0xd2, 0xe2, 0xbd,
  0x37, 0x78, 0x94, 0xbe, 0x7f, 0xe0, 0xc2, 0xbc, 0xf4, 0x5f, 0x52, 0xbe,
  0x29, 0x1e, 0x7d, 0xbe, 0xd2, 0xa8, 0x44, 0xbe, 0x39, 0x7c, 0xf6, 0xbd,
  0x02, 0x59, 0xa1, 0xbe, 0x50, 0x4d, 0xb2, 0xbd, 0xf7, 0x2e, 0x7b, 0xbe,
  0xbb, 0x18, 0x9f, 0xbe, 0x97, 0x87, 0x9b, 0xbe, 0xed, 0x3e, 0x03, 0xbe,
  0xc9, 0xc6, 0x4a, 0x3d, 0xc7, 0x14, 0xb1, 0x3f, 0xbf, 0x87, 0x16, 0xbf,
  0x7e, 0xd9, 0x44, 0xbd, 0x40, 0x01, 0xfa, 0xbe, 0x0e, 0x86, 0x39, 0xbf,
  0xb6, 0xe9, 0x30, 0xbe, 0xf8, 0x3b, 0x6a, 0x3e, 0x56, 0xf3, 0xb8, 0xbe,
  0x0b, 0x5e, 0x52, 0x3e, 0xa4, 0x55, 0x86, 0x3d, 0x08, 0x26, 0x2f, 0xbf,
  0x98, 0x0e, 0x85, 0x3d, 0xab, 0x9e, 0x02, 0xbf, 0xab, 0xd6, 0xd7, 0x3d,
  0xaa, 0x6c, 0x69, 0x3e, 0x5a, 0x85, 0xad, 0xbd, 0x8e, 0x52, 0x04, 0xbe,
  0xd5, 0x88, 0x99, 0x3d, 0x7f, 0x7b, 0x80, 0xbd, 0xf6, 0x4e, 0x39, 0xbd,
  0xa8, 0xc7, 0x9d, 0xbe, 0x5b, 0x0c, 0x60, 0xbd, 0x7d, 0x96, 0xb1, 0x3c,
  0x06, 0x81, 0x5e, 0xbe, 0x4a, 0xd0, 0xab, 0x3d, 0x15, 0xdb, 0x53, 0x3e,
  0x77, 0xfa, 0x01, 0x3d, 0x4a, 0x38, 0x51, 0xbe, 0x17, 0x1c, 0x99, 0x3e,
  0x39, 0xdc, 0x07, 0x3e, 0x3d, 0xa7, 0xa0, 0x3e, 0xbe, 0x07, 0x40, 0x3e,
  0xde, 0x6f, 0x63, 0xbe, 0xf5, 0x56, 0x84, 0xbd, 0xf8, 0xf0, 0xc5, 0x3d,
  0xe1, 0x55, 0x17, 0x3d, 0xfe, 0xe6, 0x9f, 0x3e, 0x87, 0x97, 0xc3, 0x3e,
  0x6b, 0x40, 0x80, 0xba, 0x99, 0xb9, 0xb0, 0xbc, 0x67, 0x0b, 0xc3, 0x3d,
  0x86, 0xe4, 0x0f, 0x3e, 0xd7, 0xfb, 0xec, 0x3d, 0xde, 0x9f, 0x1e, 0xbe,
  0x34, 0x9b, 0xd0, 0x3d, 0xd2, 0xdc, 0xe9, 0x3d, 0x0a, 0x29, 0x0e, 0xbe,
  0x59, 0x79, 0x2c, 0x3e, 0x48, 0x4c, 0xb1, 0x3b, 0x9b, 0xec, 0x4b, 0x3e,
  0xf1, 0x60, 0xa1, 0x3d, 0xc0, 0xce, 0x8a, 0x3d, 0x01, 0x1a, 0x91, 0x3d,
  0x0b, 0xa5, 0x43, 0x3e, 0x46, 0x89, 0xc3, 0xbd, 0x15, 0xba, 0x38, 0xbd,
  0x1f, 0x0f, 0x63, 0x3e, 0x37, 0x8b, 0x1f, 0x3e, 0xd6, 0x33, 0xb3, 0x3d,
  0x4f, 0x63, 0xac, 0xbe, 0xc1, 0x4b, 0xc0, 0x3d, 0x8f, 0x0e, 0x9c, 0x3d,
  0x4a, 0x95, 0x9b, 0xbd, 0x7f, 0x36, 0xee, 0x3d, 0xf5, 0x69, 0xeb, 0xbd,
  0x71, 0xef, 0x76, 0x3e, 0x1c, 0x1d, 0x75, 0x3c, 0xe5, 0xef, 0xe8, 0x3d,
  0xae, 0x79, 0x94, 0x3d, 0xb9, 0xb5, 0x20, 0x3d, 0x92, 0xdf, 0x4a, 0xbc,
  0x69, 0x23, 0x7d, 0x3d, 0x88, 0x4f, 0xb1, 0xbd, 0x12, 0x44, 0x1c, 0x3e,
  0xd0, 0x22, 0x17, 0xbd, 0x26, 0x36, 0xee, 0xbe, 0xb8, 0x0b, 0xc5, 0x3d,
  0xa1, 0x73, 0x83, 0xbd, 0x29, 0x06, 0xaf, 0x3d, 0xd5, 0xae, 0x42, 0x3d,
  0xd0, 0x92, 0x02, 0xbd, 0xba, 0x53, 0x5a, 0x3e, 0x11, 0xa5, 0x5c, 0xbe,
  0x08, 0xfc, 0x4d, 0x3e, 0xd8, 0x04, 0x32, 0x3e, 0xbd, 0x8c, 0xed, 0xbd,
  0x46, 0x3a, 0x4f, 0x3d, 0xfe, 0xfe, 0x80, 0xbc, 0x7c, 0x63, 0xc1, 0xbc,
  0x84, 0x4f, 0x4c, 0x3e, 0xef, 0x33, 0x93, 0x3d, 0x9b, 0xab, 0xaf, 0xbe,
  0x9b, 0xd8, 0x6b, 0x3d, 0x1f, 0x3f, 0xa6, 0xbd, 0xeb, 0xf0, 0x17, 0x3e,
  0x1a, 0x95, 0x17, 0x3e, 0x85, 0x74, 0x92, 0xbd, 0x12, 0xba, 0x19, 0x3e,
  0x26, 0x19, 0x80, 0xbe, 0x11, 0xb8, 0x07, 0x3e, 0x19, 0x9a, 0xb2, 0x3e,
  0x00, 0xf7, 0x29, 0x3e, 0xae, 0xb5, 0xa1, 0xbe, 0xa8, 0x1f, 0x4f, 0xbd,
  0xcd, 0x26, 0x0d, 0xbe, 0xf6, 0xe1, 0x94, 0xbd, 0x2e, 0xcc, 0xdd, 0x3d,
  0x97, 0xcb, 0xf8, 0xbe, 0xc4, 0xfa, 0x8b, 0x3e, 0xe0, 0xcb, 0x6d, 0xbe,
  0xa2, 0xda, 0x19, 0xbe, 0xba, 0xbb, 0xc4, 0x3e, 0x69, 0x94, 0x9c, 0x3d,
  0xd4, 0x3a, 0x41, 0xbf, 0xcc, 0xaf, 0x9d, 0x3e, 0xee, 0x50, 0x13, 0xbf,
  0x74, 0x8b, 0x79, 0xbf, 0xfe, 0xd5, 0x3a, 0xbe, 0x14, 0x66, 0x00, 0x3e,
  0x3c, 0x91, 0x34, 0xbf, 0xf9, 0xf0, 0x8e, 0x3e, 0xbc, 0x62, 0x62, 0xbe,
  0xbd, 0x5c, 0x0b, 0xbf, 0xc5, 0x52, 0xa6, 0xbe, 0x76, 0xd8, 0x18, 0xbe,
  0x55, 0x35, 0xc8, 0x3e, 0x32, 0xf8, 0xf6, 0x3e, 0x85, 0x67, 0x33, 0x3e,
  0x0d, 0x1a, 0x2b, 0x3f, 0xe5, 0x2a, 0x79, 0x3e, 0x4e, 0xeb, 0xcf, 0x3e,
  0x4e, 0xdf, 0x13, 0x3e, 0x86, 0xf6, 0x06, 0xbd, 0xda, 0xc8, 0x4a, 0xbe,
  0xdb, 0x68, 0x32, 0xbd, 0x97, 0x9b, 0x62, 0xbe, 0x31, 0xc3, 0x1d, 0x3d,
  0xe7, 0xc9, 0xf4, 0x3d, 0x6c, 0x7e, 0x21, 0x3e, 0x52, 0x0c, 0xff, 0xbd,
  0x5b, 0x7a, 0x36, 0x3e, 0xc8, 0xa3, 0x7a, 0x3d, 0x15, 0x4d, 0x9a, 0x3e,
  0xa0, 0x05, 0xc6, 0xb9, 0x32, 0x3b, 0xeb, 0x3f, 0x67, 0x17, 0x01, 0x3e,
  0xa8, 0x83, 0xba, 0x3e, 0xf4, 0xc2, 0x0a, 0x3d, 0xf0, 0x32, 0x5b, 0x3e,
  0x1f, 0x1c, 0x55, 0xbe, 0x76, 0xf6, 0xd0, 0x3c, 0x2c, 0x7d, 0x0d, 0xbe,
  0x97, 0x03, 0xc6, 0xbc, 0x48, 0x34, 0x29, 0x3c, 0x8c, 0x8f, 0x57, 0xbc,
  0x15, 0xff, 0xda, 0x3c, 0x92, 0x73, 0xcb, 0xbd, 0xbb, 0x77, 0xa0, 0x3b,
  0x6c, 0xd6, 0x94, 0x3c, 0xb4, 0x2c, 0xd6, 0x3d, 0x25, 0x7d, 0x12, 0x40,
  0x1c, 0x85, 0x45, 0x3a, 0xcb, 0xec, 0x01, 0x3f, 0xb7, 0x7d, 0xd1, 0xbc,
  0xea, 0x56, 0x40, 0x3e, 0x0f, 0x59, 0x53, 0x3e, 0x35, 0x70, 0x73, 0xbe,
  0x58, 0x3e, 0xd6, 0xbd, 0x4c, 0x65, 0x29, 0x3d, 0x0d, 0x2a, 0xff, 0xbc,
  0xd0, 0xa8, 0xa9, 0xbe, 0xf5, 0x81, 0x40, 0x3d, 0x96, 0x7b, 0x19, 0xbe,
  0x79, 0x9a, 0x84, 0xbd, 0x89, 0x59, 0xf7, 0x3b, 0xb5, 0xcd, 0xeb, 0xbd,
  0x2a, 0x0b, 0x11, 0x40, 0x39, 0x92, 0x75, 0xbe, 0x7c, 0x29, 0x80, 0x3e,
  0x62, 0xbe, 0x1e, 0xbd, 0x17, 0xb4, 0x5c, 0xbd, 0x74, 0x7d, 0x7a, 0xbe,
  0x65, 0xd9, 0xf7, 0x3b, 0x77, 0x15, 0xa1, 0xbd, 0x15, 0xf6, 0xa5, 0x3c,
  0x36, 0xd7, 0x18, 0xbe, 0x22, 0x94, 0x96, 0xbe, 0x8f, 0x92, 0x7f, 0x3d,
  0x5a, 0xa7, 0x0d, 0xbe, 0x22, 0x6c, 0x00, 0xbe, 0xdb, 0xb4, 0x19, 0x3d,
  0xd4, 0x4d, 0x1e, 0x3d, 0xc0, 0x1a, 0xf3, 0x3f, 0x1a, 0xa5, 0xda, 0x3d,
  0xff, 0xb3, 0x62, 0x3e, 0xd0, 0x9b, 0x25, 0x3b, 0xc0, 0xfc, 0x27, 0xbd,
  0xe3, 0xde, 0x45, 0xbe, 0xd3, 0x31, 0x45, 0xbe, 0x82, 0xb6, 0xb6, 0xba,
  0xb3, 0xe8, 0xc8, 0xbe, 0xd0, 0x37, 0x22, 0xbe, 0x4d, 0x4e, 0x84, 0xbe,
  0xd1, 0x9a, 0x0c, 0x3d, 0xbd, 0xa1, 0x37, 0xbe, 0x92, 0x85, 0x7d, 0xbe,
  0xaf, 0x09, 0xeb, 0x3d, 0xf0, 0xe2, 0xbb, 0xbd, 0xf9, 0x83, 0xf6, 0x3f,
  0xa1, 0x93, 0xee, 0xbd, 0xc2, 0x90, 0xc6, 0x3e, 0x06, 0x4c, 0x12, 0x3e,
  0xbf, 0x7b, 0x27, 0x3e, 0xc0, 0xdb, 0xa3, 0x3d, 0xb5, 0x74, 0x9f, 0x3d,
  0x65, 0x86, 0x02, 0xbd, 0x65, 0xa4, 0x04, 0xbf, 0x6b, 0x37, 0xca, 0x3d,
  0xc5, 0xaf, 0x29, 0x3d, 0xd1, 0x8f, 0xae, 0x3d, 0x65, 0x38, 0xed, 0xbc,
  0xb1, 0xfe, 0x1f, 0xbf, 0x21, 0x2c, 0x3e, 0xbf, 0x9c, 0x35, 0x7b, 0x3e,
  0x89, 0x2c, 0x36, 0x3f, 0x4b, 0x78, 0x4e, 0x3e, 0xac, 0x52, 0x20, 0x3e,
  0x19, 0x90, 0xaa, 0x3c, 0x42, 0xed, 0x85, 0xbc, 0xd4, 0x4d, 0xa6, 0x3e,
  0x81, 0x65, 0x1d, 0xbe, 0x46, 0x05, 0x42, 0x3d, 0xd7, 0xb2, 0x6b, 0xbd,
  0x4e, 0xf8, 0x76, 0x3e, 0x13, 0xbe, 0xa1, 0x3d, 0x17, 0xa5, 0x63, 0x3d,
  0xcb, 0x5e, 0xdd, 0x3e, 0xd9, 0x62, 0x21, 0xbe, 0x73, 0x2e, 0x4e, 0x3e,
  0x98, 0x8f, 0xf6, 0x3e, 0x0d, 0x43, 0xd5, 0x3e, 0xb6, 0x7f, 0xa5, 0xbd,
  0xdf, 0xd1, 0x1a, 0x3e, 0x95, 0x8b, 0x85, 0xbc, 0x7a, 0xa5, 0x29, 0xbd,
  0x13, 0xb3, 0x85, 0x3d, 0xc7, 0x4b, 0xfe, 0xbd, 0xee, 0xe4, 0xcc, 0x3c,
  0xe9, 0x84, 0x9e, 0x3d, 0x03, 0x62, 0x22, 0xbe, 0xd7, 0x30, 0xa7, 0xbd,
  0x0a, 0x5f, 0x1a, 0xbe, 0xb5, 0xc3, 0x05, 0x3e, 0xd9, 0x68, 0xcd, 0xbe,
  0xd0, 0xd0, 0x71, 0xbc, 0x51, 0xe5, 0x01, 0x3d, 0x54, 0xd0, 0x84, 0xbd,
  0xb6, 0x12, 0xf8, 0x3c, 0x17, 0x73, 0x01, 0xbd, 0x6f, 0x3c, 0xdc, 0xbd,
  0xfd, 0x8b, 0x0c, 0xbe, 0xc7, 0xde, 0xae, 0xbe, 0x97, 0x85, 0x62, 0x3c,
  0x17, 0x71, 0x8a, 0x3b, 0x75, 0x46, 0xad, 0xbc, 0x39, 0x7e, 0x07, 0x3c,
  0xf4, 0xcf, 0x8a, 0xbd, 0x63, 0x9f, 0xb4, 0xbe, 0x25, 0xe9, 0x1e, 0xbe,
  0xf8, 0xf6, 0x4c, 0xbe, 0xd5, 0x99, 0x5d, 0x38, 0x30, 0xd4, 0x4c, 0x3e,
  0x05, 0xae, 0x8f, 0x3c, 0x0b, 0xe5, 0x5f, 0xbe, 0x4d, 0x72, 0xe2, 0xbd,
  0x96, 0x08, 0x5b, 0x3d, 0x9f, 0xc6, 0xbe, 0x3d, 0x3f, 0xad, 0x8d, 0xbc,
  0x70, 0x4d, 0x12, 0xbe, 0x9d, 0x1f, 0xd4, 0xbc, 0x7e, 0x00, 0x10, 0x3e,
  0x7f, 0xcc, 0xc4, 0xbe, 0x54, 0x0c, 0x56, 0xbe, 0x57, 0xca, 0xc9, 0xbe,
  0x64, 0x45, 0x0b, 0xbe, 0xd9, 0x30, 0x30, 0xbe, 0x23, 0x6f, 0x84, 0xbd,
  0x73, 0x61, 0x08, 0x3e, 0x05, 0xeb, 0xe5, 0xbd, 0xee, 0x75, 0x9a, 0x3d,
  0x7c, 0xd5, 0x36, 0xbe, 0x06, 0xeb, 0x50, 0x3c, 0xb5, 0x06, 0x93, 0xbd,
  0x9f, 0x4e, 0x93, 0xbe, 0x5a, 0x1c, 0x39, 0x3e, 0xe4, 0x72, 0xa9, 0xbc,
  0x89, 0xee, 0x97, 0x3d, 0x66, 0x14, 0x59, 0xbe, 0x55, 0x3b, 0xef, 0xba,
  0x2a, 0xe2, 0x73, 0xbe, 0xcc, 0xac, 0xcb, 0xbd, 0xd4, 0x15, 0x9b, 0xbe,
  0x1b, 0xfc, 0x28, 0xbd, 0x36, 0xf7, 0xd7, 0x3d, 0x1c, 0xaf, 0x16, 0xbe,
  0xfc, 0xd3, 0x52, 0x3d, 0xe9, 0x85, 0x3f, 0x3a, 0x0e, 0xfa, 0x90, 0xb7,
  0xa3, 0xbe, 0xe9, 0xbd, 0xe2, 0x89, 0x7f, 0x3e, 0xf3, 0x75, 0x67, 0x3e,
  0x90, 0xc5, 0x86, 0xbc, 0x4b, 0xf8, 0x18, 0xbd, 0x13, 0x4a, 0x07, 0xbe,
  0xd3, 0xf0, 0x4f, 0x3e, 0x5a, 0xf5, 0x9f, 0x3d, 0x0c, 0x9c, 0x35, 0x3e,
  0x12, 0x87, 0x43, 0xbe, 0x94, 0xcd, 0xd9, 0x3d, 0x60, 0xac, 0x2d, 0xbb,
  0xa3, 0x56, 0x49, 0xbd, 0xb3, 0x35, 0x77, 0x3d, 0x39, 0x64, 0xa1, 0x3d,
  0xb2, 0x04, 0x99, 0xbd, 0xe1, 0xa6, 0xf5, 0xbd, 0xd4, 0xf2, 0xae, 0x3e,
  0x19, 0xea, 0x75, 0xbe, 0xf5, 0x24, 0x39, 0xbd, 0xa5, 0xbc, 0x1d, 0xbe,
  0x2e, 0xab, 0x53, 0x3d, 0xcd, 0x6c, 0x96, 0xbd, 0x8f, 0x1e, 0xb0, 0xbc,
  0xe6, 0xfc, 0x2f, 0x3d, 0x53, 0x9d, 0xaa, 0x3e, 0x4a, 0x32, 0x2f, 0xbe,
  0xb5, 0x5d, 0xe6, 0xbd, 0xf2, 0xb7, 0xb9, 0x3d, 0x55, 0xd0, 0x83, 0xbf,
  0x1e, 0x42, 0x3a, 0xbe, 0x7d, 0x68, 0x33, 0xbf, 0x54, 0x8a, 0x5e, 0xbf,
  0xf0, 0xba, 0x85, 0xbe, 0xb2, 0x5e, 0x94, 0x3d, 0xcd, 0x25, 0xd7, 0xbe,
  0x54, 0xef, 0xbc, 0x3d, 0xba, 0xc1, 0x14, 0xbc, 0x3a, 0xcb, 0x04, 0xbf,
  0x3d, 0xcb, 0xee, 0x3c, 0x31, 0x4a, 0x20, 0xbf, 0x68, 0x0c, 0x4f, 0x3e,
  0x3d, 0x35, 0x8e, 0x3e, 0xcd, 0xd9, 0x1c, 0x3e, 0xea, 0xf9, 0x50, 0xbe,
  0xb6, 0xaf, 0x99, 0xbe, 0x8e, 0x0a, 0x22, 0xbe, 0x57, 0x36, 0x7b, 0xbd,
  0x7e, 0xc4, 0xcd, 0xbe, 0xfb, 0x21, 0x04, 0x3e, 0x27, 0xaf, 0x36, 0xbe,
  0xd1, 0xde, 0x80, 0xbe, 0x68, 0xf8, 0x3c, 0x3e, 0x58, 0xd0, 0x8e, 0x3e,
  0xa6, 0x38, 0x07, 0x3d, 0x24, 0xb3, 0xd3, 0xbc, 0xdb, 0xbe, 0x25, 0x3e,
  0x45, 0xd5, 0x84, 0x3d, 0x32, 0x62, 0x12, 0xbd, 0x8c, 0x9b, 0x57, 0x3e,
  0x00, 0x7b, 0x37, 0x3d, 0xd8, 0x51, 0xcf, 0x3d, 0xee, 0x1b, 0x2c, 0xbd,
  0xe0, 0xb8, 0xcb, 0xbb, 0xcf, 0xc3, 0x9c, 0x3d, 0xf2, 0x9f, 0x77, 0x3e,
  0xeb, 0xe4, 0x3c, 0xbe, 0x83, 0x0b, 0x1c, 0xbe, 0xbe, 0x18, 0x24, 0x3e,
  0x37, 0xf0, 0xff, 0xbc, 0xe9, 0xd8, 0x0a, 0x3e, 0xac, 0xce, 0x4c, 0xbe,
  0x77, 0x25, 0x9d, 0x3e, 0xb3, 0xac, 0xc8, 0xbd, 0xdd, 0x26, 0xd2, 0x3d,
  0x04, 0x99, 0x23, 0xbe, 0x13, 0xec, 0x44, 0xbe, 0xe7, 0x27, 0x67, 0x3e,
  0x03, 0xbe, 0x5d, 0xbe, 0x98, 0x21, 0x1f, 0xbb, 0x44, 0xc8, 0x9d, 0x3e,
  0xfd, 0xcb, 0x35, 0x3c, 0x86, 0xff, 0xfc, 0xbd, 0x56, 0x6c, 0xb0, 0xbd,
  0x92, 0x4a, 0x35, 0xbd, 0x8a, 0x37, 0xb8, 0x3c, 0x45, 0x7e, 0xbf, 0x3c,
  0xd4, 0x6b, 0xa8, 0xbe, 0xbf, 0x97, 0xae, 0xbc, 0x50, 0xd7, 0xac, 0xbd,
  0xdd, 0x92, 0xa6, 0x3d, 0x36, 0x4e, 0x24, 0x3e, 0x71, 0x04, 0x11, 0xbe,
  0xb3, 0x40, 0xb5, 0x3d, 0x5d, 0x27, 0xd0, 0xbd, 0xd1, 0xfa, 0x44, 0x3d,
  0x22, 0x04, 0x54, 0x3e, 0x20, 0x1f, 0xf9, 0xbc, 0x1c, 0x78, 0x29, 0x3d,
  0x96, 0x1b, 0xc9, 0xbd, 0xa7, 0x5d, 0x7e, 0x3c, 0x66, 0x65, 0x2a, 0xbe,
  0x7a, 0x85, 0xac, 0x3d, 0xcd, 0x61, 0xcd, 0xbe, 0x0a, 0xff, 0x9f, 0x3d,
  0xf1, 0x3d, 0xb1, 0xbb, 0xe8, 0xb7, 0x00, 0x3e, 0x91, 0xcb, 0x31, 0x3e,
  0xa8, 0x7e, 0x5f, 0xbb, 0x2c, 0x5e, 0x1c, 0x3e, 0xc2, 0x08, 0x25, 0xbe,
  0x7b, 0x38, 0x02, 0x3e, 0x3e, 0xa6, 0x8d, 0x3e, 0x9b, 0xbf, 0xcf, 0xbd,
  0xc3, 0x13, 0x01, 0x3e, 0x85, 0xde, 0x56, 0xbd, 0x45, 0x62, 0xe5, 0x3d,
  0x8c, 0x67, 0x93, 0x3e, 0xcc, 0x3f, 0xc6, 0x3c, 0xbf, 0x07, 0xcf, 0xbe,
  0x6d, 0x4c, 0x6d, 0x3e, 0xac, 0x93, 0xc4, 0xbd, 0x3a, 0x7c, 0xbd, 0x3d,
  0x09, 0x36, 0x39, 0xbc, 0x1c, 0x39, 0x12, 0x3d, 0xea, 0xa4, 0xae, 0x3e,
  0x16, 0x83, 0x2e, 0xbe, 0x71, 0x0b, 0x8c, 0x3e, 0x9f, 0x5e, 0xfc, 0x3d,
  0x95, 0x3b, 0xe3, 0x3d, 0xac, 0x9d, 0xb8, 0xbe, 0xf5, 0xd2, 0x96, 0xbc,
  0x7d, 0xf1, 0x79, 0xbe, 0xe8, 0x40, 0xdf, 0xbd, 0x11, 0x22, 0x3b, 0x3d,
  0x9f, 0xf7, 0x1d, 0xbf, 0xe1, 0x0e, 0x00, 0x3f, 0xb1, 0x93, 0x49, 0xbe,
  0xbe, 0x1e, 0x0f, 0xbe, 0x9d, 0x9b, 0x08, 0x3f, 0x0b, 0xf4, 0x79, 0x3d,
  0x94, 0x37, 0x2f, 0x3c, 0x7c, 0x83, 0x84, 0xbe, 0x54, 0x87, 0xa8, 0x3d,
  0x2c, 0x67, 0x4d, 0x3e, 0xa6, 0x4d, 0x8d, 0x3d, 0x9b, 0xa0, 0x4f, 0xbe,
  0xc2, 0xa2, 0x6f, 0x3a, 0xc1, 0xb4, 0xa4, 0x3e, 0xd3, 0x0a, 0x48, 0xbd,
  0x8b, 0xd7, 0xa9, 0xbe, 0x55, 0xb4, 0x8f, 0x3e, 0x68, 0x10, 0xf4, 0xbd,
  0x16, 0x2e, 0x30, 0xbe, 0x8b, 0x07, 0x14, 0x3e, 0xaf, 0xef, 0xd1, 0xbd,
  0x18, 0x93, 0x30, 0x3e, 0xc8, 0xbe, 0x92, 0x3d, 0x35, 0x89, 0x7d, 0xbe,
  0xac, 0x9a, 0x0c, 0xbe, 0x6e, 0x75, 0x9d, 0xbe, 0x66, 0xd7, 0xf3, 0xbc,
  0x83, 0x69, 0xb3, 0x3e, 0xc2, 0x54, 0x78, 0xbe, 0x60, 0x9e, 0x4e, 0x3e,
  0x7d, 0x41, 0xaa, 0xbd, 0x1b, 0x57, 0x9e, 0xbd, 0xf4, 0xdf, 0xd4, 0x3d,
  0xb4, 0xe1, 0xfe, 0xbd, 0x16, 0x11, 0xc9, 0xbd, 0x4c, 0x58, 0x04, 0x3e,
  0x97, 0xfa, 0x90, 0xbd, 0x7d, 0xc8, 0xdd, 0xbd, 0x48, 0x17, 0x18, 0x3d,
  0xe2, 0xe8, 0xb8, 0x3d, 0x5d, 0xe4, 0x46, 0x3e, 0xf9, 0xdf, 0xb2, 0xbd,
  0xea, 0xb4, 0xfc, 0x3d, 0xb7, 0x20, 0x11, 0x3e, 0xfd, 0xb0, 0xce, 0xbe,
  0x17, 0xff, 0x76, 0x3e, 0x96, 0x48, 0x25, 0xbe, 0xb8, 0x8f, 0xab, 0xbd,
  0x4f, 0x38, 0x90, 0x3b, 0xb2, 0x33, 0x13, 0x3e, 0x8a, 0x6b, 0x04, 0xbd,
  0x7e, 0xe7, 0xfe, 0xbd, 0xd2, 0x6e, 0x11, 0x3e, 0x25, 0x68, 0x02, 0xbe,
  0x78, 0xd8, 0xdb, 0x3d, 0x2e, 0xf1, 0x03, 0x3e, 0x99, 0x4b, 0x31, 0x3d,
  0xe8, 0xdb, 0x8b, 0xbe, 0xaf, 0x6d, 0x36, 0x3e, 0x29, 0xff, 0xd9, 0x3d,
  0x58, 0xfa, 0xf9, 0xbe, 0x9f, 0x19, 0xcb, 0x3e, 0x36, 0x27, 0xd0, 0xbd,
  0x90, 0xb8, 0x17, 0xbe, 0xfe, 0xd9, 0x41, 0xbd, 0xcd, 0x72, 0x7d, 0xbe,
  0x4f, 0x34, 0x84, 0xbe, 0x37, 0x6a, 0xf3, 0x3c, 0x5e, 0xb4, 0x3d, 0x3e,
  0x45, 0xee, 0x33, 0xbe, 0x2a, 0x75, 0x84, 0xbe, 0x1c, 0xe1, 0x95, 0x3e,
  0xf8, 0xef, 0x74, 0x3e, 0xd9, 0xd2, 0xbb, 0x3d, 0xa0, 0x9f, 0x35, 0xbe,
  0x98, 0x53, 0x93, 0xbe, 0xd5, 0xbb, 0x82, 0xbe, 0xdb, 0xc0, 0x94, 0x3e,
  0x6f, 0x75, 0x53, 0xbe, 0x29, 0xce, 0x09, 0x3d, 0xc9, 0xcb, 0x43, 0x3b,
  0x2f, 0x2f, 0x62, 0xbe, 0x15, 0x6b, 0xdc, 0xbd, 0x0e, 0x4e, 0xa1, 0xbd,
  0xc2, 0x57, 0x3f, 0xbe, 0x31, 0x47, 0x3b, 0xbe, 0xe1, 0x6f, 0x17, 0xbe,
  0x57, 0x39, 0x92, 0xbe, 0x38, 0xbc, 0x26, 0xbd, 0x26, 0x7d, 0x99, 0x3d,
  0xcf, 0x59, 0x27, 0x3e, 0x45, 0x33, 0x64, 0x3e, 0x00, 0xcd, 0xa3, 0xbe,
  0xe0, 0x22, 0x72, 0x3e, 0x53, 0xae, 0x81, 0xbe, 0x15, 0x5f, 0xb1, 0xbd,
  0x6b, 0x41, 0x38, 0xbe, 0xee, 0xc0, 0x1d, 0xbe, 0x9d, 0xba, 0xb5, 0x3c,
  0xfc, 0x0a, 0xa8, 0x3e, 0x45, 0x8e, 0xcd, 0x3d, 0xa4, 0x0b, 0x4d, 0x3c,
  0xfe, 0x74, 0x37, 0xbd, 0x01, 0x1e, 0x14, 0x3e, 0xb4, 0xe2, 0x6a, 0xbd,
  0x60, 0x19, 0x26, 0x3e, 0x13, 0xf0, 0x0a, 0x3d, 0xeb, 0xdd, 0x30, 0xbe,
  0xd2, 0x35, 0x2d, 0xbe, 0x76, 0xe3, 0xd4, 0x3e, 0x09, 0x78, 0x16, 0xbe,
  0x59, 0xaf, 0x6f, 0xbe, 0x98, 0x62, 0xe0, 0xbd, 0x81, 0xf0, 0x1e, 0xbe,
  0x53, 0x12, 0x52, 0xbc, 0xfb, 0x67, 0x06, 0xbe, 0xee, 0x5d, 0xe8, 0x3d,
  0xbb, 0x0c, 0xea, 0xbd, 0x62, 0xfd, 0xff, 0xff, 0x10, 0x00, 0x00, 0x00,
  0x07, 0x00, 0x00, 0x00, 0x14, 0x00, 0x00, 0x00, 0x2c, 0x00, 0x00, 0x00,
  0x02, 0x00, 0x00, 0x00, 0x10, 0x00, 0x00, 0x00, 0x70, 0x00, 0x00, 0x00,
  0x17, 0x00, 0x00, 0x00, 0x73, 0x65, 0x71, 0x75, 0x65, 0x6e, 0x74, 0x69,
  0x61, 0x6c, 0x2f, 0x64, 0x65, 0x6e, 0x73, 0x65, 0x2f, 0x4d, 0x61, 0x74,
  0x4d, 0x75, 0x6c, 0x00, 0xcc, 0xfc, 0xff, 0xff, 0xd6, 0xfd, 0xff, 0xff,
  0x04, 0x00, 0x00, 0x00, 0x08, 0x00, 0x00, 0x00, 0xff, 0xff, 0xff, 0xff,
  0x70, 0x00, 0x00, 0x00, 0x00, 0x00, 0x0e, 0x00, 0x18, 0x00, 0x08, 0x00,
  0x07, 0x00, 0x0c, 0x00, 0x10, 0x00, 0x14, 0x00, 0x0e, 0x00, 0x00, 0x00,
  0x00, 0x00, 0x00, 0x02, 0x10, 0x00, 0x00, 0x00, 0x06, 0x00, 0x00, 0x00,
  0x10, 0x00, 0x00, 0x00, 0x2c, 0x00, 0x00, 0x00, 0x01, 0x00, 0x00, 0x00,
  0x02, 0x00, 0x00, 0x00, 0x18, 0x00, 0x00, 0x00, 0x73, 0x65, 0x71, 0x75,
  0x65, 0x6e, 0x74, 0x69, 0x61, 0x6c, 0x2f, 0x66, 0x6c, 0x61, 0x74, 0x74,
  0x65, 0x6e, 0x2f, 0x43, 0x6f, 0x6e, 0x73, 0x74, 0x00, 0x00, 0x00, 0x00,
  0x34, 0xfd, 0xff, 0xff, 0x3e, 0xfe, 0xff, 0xff, 0x04, 0x00, 0x00, 0x00,
  0x10, 0x00, 0x00, 0x00, 0xb0, 0xa7, 0xfd, 0xbd, 0xed, 0xc6, 0x2b, 0xc0,
  0xec, 0xa2, 0x53, 0xc0, 0xb0, 0x0f, 0x09, 0x40, 0x26, 0xfe, 0xff, 0xff,
  0x10, 0x00, 0x00, 0x00, 0x05, 0x00, 0x00, 0x00, 0x10, 0x00, 0x00, 0x00,
  0x44, 0x00, 0x00, 0x00, 0x01, 0x00, 0x00, 0x00, 0x04, 0x00, 0x00, 0x00,
  0x32, 0x00, 0x00, 0x00, 0x73, 0x65, 0x71, 0x75, 0x65, 0x6e, 0x74, 0x69,
  0x61, 0x6c, 0x2f, 0x64, 0x65, 0x6e, 0x73, 0x65, 0x5f, 0x31, 0x2f, 0x42,
  0x69, 0x61, 0x73, 0x41, 0x64, 0x64, 0x2f, 0x52, 0x65, 0x61, 0x64, 0x56,
  0x61, 0x72, 0x69, 0x61, 0x62, 0x6c, 0x65, 0x4f, 0x70, 0x2f, 0x72, 0x65,
  0x73, 0x6f, 0x75, 0x72, 0x63, 0x65, 0x00, 0x00, 0xa8, 0xfd, 0xff, 0xff,
  0xb2, 0xfe, 0xff, 0xff, 0x04, 0x00, 0x00, 0x00, 0x40, 0x00, 0x00, 0x00,
  0x89, 0xd0, 0x82, 0x3d, 0x17, 0x56, 0x43, 0xbe, 0x97, 0x8a, 0x31, 0xbe,
  0x68, 0xd4, 0x61, 0xbf, 0x76, 0x3f, 0xd7, 0xbe, 0xf7, 0x60, 0x23, 0x3f,
  0x23, 0x0c, 0x3d, 0x3f, 0xc5, 0x99, 0x92, 0xbf, 0x4a, 0x66, 0x62, 0x3f,
  0xee, 0x26, 0x11, 0xbf, 0xf6, 0xe0, 0xa1, 0xbd, 0x89, 0x42, 0x2c, 0x3e,
  0xc0, 0x27, 0xe0, 0xbe, 0x68, 0x17, 0xf1, 0xbe, 0x50, 0xcd, 0x48, 0x3e,
  0xec, 0x6e, 0xf7, 0xba, 0xca, 0xfe, 0xff, 0xff, 0x10, 0x00, 0x00, 0x00,
  0x04, 0x00, 0x00, 0x00, 0x10, 0x00, 0x00, 0x00, 0x44, 0x00, 0x00, 0x00,
  0x01, 0x00, 0x00, 0x00, 0x10, 0x00, 0x00, 0x00, 0x30, 0x00, 0x00, 0x00,
  0x73, 0x65, 0x71, 0x75, 0x65, 0x6e, 0x74, 0x69, 0x61, 0x6c, 0x2f, 0x64,
  0x65, 0x6e, 0x73, 0x65, 0x2f, 0x42, 0x69, 0x61, 0x73, 0x41, 0x64, 0x64,
  0x2f, 0x52, 0x65, 0x61, 0x64, 0x56, 0x61, 0x72, 0x69, 0x61, 0x62, 0x6c,
  0x65, 0x4f, 0x70, 0x2f, 0x72, 0x65, 0x73, 0x6f, 0x75, 0x72, 0x63, 0x65,
  0x00, 0x00, 0x00, 0x00, 0x4c, 0xfe, 0xff, 0xff, 0x56, 0xff, 0xff, 0xff,
  0x04, 0x00, 0x00, 0x00, 0x40, 0x00, 0x00, 0x00, 0x3d, 0xc7, 0x97, 0x3e,
  0xce, 0x33, 0x56, 0xbf, 0xab, 0x42, 0xd1, 0x3e, 0x00, 0x0c, 0x46, 0x3f,
  0xf9, 0x10, 0xa8, 0xbf, 0xa0, 0x6d, 0x97, 0xbc, 0xdc, 0x64, 0x6d, 0x3d,
  0x04, 0x85, 0xb6, 0x3e, 0xa6, 0xee, 0x2d, 0xbf, 0xe1, 0xf4, 0x11, 0xbd,
  0x97, 0x69, 0xb0, 0xbe, 0x4e, 0xaf, 0x07, 0xbf, 0x71, 0xc8, 0x90, 0x3e,
  0xf0, 0x74, 0xb4, 0xbd, 0x31, 0x35, 0x74, 0x3e, 0x66, 0x1f, 0x23, 0x40,
  0x6e, 0xff, 0xff, 0xff, 0x10, 0x00, 0x00, 0x00, 0x03, 0x00, 0x00, 0x00,
  0x10, 0x00, 0x00, 0x00, 0x48, 0x00, 0x00, 0x00, 0x01, 0x00, 0x00, 0x00,
  0x10, 0x00, 0x00, 0x00, 0x33, 0x00, 0x00, 0x00, 0x73, 0x65, 0x71, 0x75,
  0x65, 0x6e, 0x74, 0x69, 0x61, 0x6c, 0x2f, 0x63, 0x6f, 0x6e, 0x76, 0x32,
  0x64, 0x5f, 0x31, 0x2f, 0x42, 0x69, 0x61, 0x73, 0x41, 0x64, 0x64, 0x2f,
  0x52, 0x65, 0x61, 0x64, 0x56, 0x61, 0x72, 0x69, 0x61, 0x62, 0x6c, 0x65,
  0x4f, 0x70, 0x2f, 0x72, 0x65, 0x73, 0x6f, 0x75, 0x72, 0x63, 0x65, 0x00,
  0x04, 0x00, 0x06, 0x00, 0x04, 0x00, 0x00, 0x00, 0x00, 0x00, 0x06, 0x00,
  0x08, 0x00, 0x04, 0x00, 0x06, 0x00, 0x00, 0x00, 0x04, 0x00, 0x00, 0x00,
  0x20, 0x00, 0x00, 0x00, 0x70, 0x7b, 0xec, 0xbf, 0xb6, 0xa8, 0x1c, 0xbd,
  0x3f, 0x85, 0xe6, 0xbf, 0x7f, 0x2d, 0x7c, 0xbf, 0x0a, 0x2f, 0x67, 0xbf,
  0x55, 0xb2, 0x1d, 0xbf, 0x80, 0x02, 0x9a, 0xbf, 0x15, 0x58, 0x19, 0xbf,
  0x00, 0x00, 0x0e, 0x00, 0x14, 0x00, 0x04, 0x00, 0x00, 0x00, 0x08, 0x00,
  0x0c, 0x00, 0x10, 0x00, 0x0e, 0x00, 0x00, 0x00, 0x10, 0x00, 0x00, 0x00,
  0x02, 0x00, 0x00, 0x00, 0x10, 0x00, 0x00, 0x00, 0x44, 0x00, 0x00, 0x00,
  0x01, 0x00, 0x00, 0x00, 0x08, 0x00, 0x00, 0x00, 0x31, 0x00, 0x00, 0x00,
  0x73, 0x65, 0x71, 0x75, 0x65, 0x6e, 0x74, 0x69, 0x61, 0x6c, 0x2f, 0x63,
  0x6f, 0x6e, 0x76, 0x32, 0x64, 0x2f, 0x42, 0x69, 0x61, 0x73, 0x41, 0x64,
  0x64, 0x2f, 0x52, 0x65, 0x61, 0x64, 0x56, 0x61, 0x72, 0x69, 0x61, 0x62,
  0x6c, 0x65, 0x4f, 0x70, 0x2f, 0x72, 0x65, 0x73, 0x6f, 0x75, 0x72, 0x63,
  0x65, 0x00, 0x00, 0x00, 0x90, 0xff, 0xff, 0xff, 0x14, 0x00, 0x18, 0x00,
  0x04, 0x00, 0x00, 0x00, 0x08, 0x00, 0x0c, 0x00, 0x10, 0x00, 0x00, 0x00,
  0x00, 0x00, 0x14, 0x00, 0x14, 0x00, 0x00, 0x00, 0x14, 0x00, 0x00, 0x00,
  0x01, 0x00, 0x00, 0x00, 0x20, 0x00, 0x00, 0x00, 0x44, 0x00, 0x00, 0x00,
  0x2c, 0x00, 0x00, 0x00, 0x04, 0x00, 0x00, 0x00, 0x01, 0x00, 0x00, 0x00,
  0x40, 0x00, 0x00, 0x00, 0x03, 0x00, 0x00, 0x00, 0x01, 0x00, 0x00, 0x00,
  0x0c, 0x00, 0x00, 0x00, 0x63, 0x6f, 0x6e, 0x76, 0x32, 0x64, 0x5f, 0x69,
  0x6e, 0x70, 0x75, 0x74, 0x00, 0x00, 0x00, 0x00, 0x04, 0x00, 0x00, 0x00,
  0xff, 0xff, 0xff, 0xff, 0x40, 0x00, 0x00, 0x00, 0x03, 0x00, 0x00, 0x00,
  0x01, 0x00, 0x00, 0x00, 0xfc, 0xff, 0xff, 0xff, 0x04, 0x00, 0x04, 0x00,
  0x04, 0x00, 0x00, 0x00
};


unsigned int model_tflite_len = 13120;// Fill the int in `src/model.cc` here
