#include "magic_wand_model_data.h"


// We need to keep the data array aligned on some architectures.

#ifdef __has_attribute

#define HAVE_ATTRIBUTE(x) __has_attribute(x)

#else

#define HAVE_ATTRIBUTE(x) 0

#endif

#if HAVE_ATTRIBUTE(aligned) || (defined(__GNUC__) && !defined(__clang__))

#define DATA_ALIGN_ATTRIBUTE __attribute__((aligned(4)))

#else

#define DATA_ALIGN_ATTRIBUTE

#endif


const unsigned char g_magic_wand_model_data[] DATA_ALIGN_ATTRIBUTE = {
  // Paste the data of the char array in `src/model.cc` here
  0x1c, 0x00, 0x00, 0x00, 0x54, 0x46, 0x4c, 0x33, 0x14, 0x00, 0x20, 0x00,
  0x04, 0x00, 0x08, 0x00, 0x0c, 0x00, 0x10, 0x00, 0x14, 0x00, 0x00, 0x00,
  0x18, 0x00, 0x1c, 0x00, 0x14, 0x00, 0x00, 0x00, 0x03, 0x00, 0x00, 0x00,
  0x18, 0x00, 0x00, 0x00, 0x2c, 0x00, 0x00, 0x00, 0xd8, 0x00, 0x00, 0x00,
  0x2c, 0x00, 0x00, 0x00, 0x80, 0x00, 0x00, 0x00, 0x78, 0x00, 0x00, 0x00,
  0x05, 0x00, 0x00, 0x00, 0x28, 0x07, 0x00, 0x00, 0x44, 0x06, 0x00, 0x00,
  0xbc, 0x03, 0x00, 0x00, 0xf8, 0x02, 0x00, 0x00, 0xac, 0x01, 0x00, 0x00,
  0x01, 0x00, 0x00, 0x00, 0xd0, 0x00, 0x00, 0x00, 0x14, 0x00, 0x00, 0x00,
  0x98, 0x32, 0x00, 0x00, 0x94, 0x32, 0x00, 0x00, 0x8c, 0x31, 0x00, 0x00,
  0xd8, 0x30, 0x00, 0x00, 0x30, 0x30, 0x00, 0x00, 0xbc, 0x2f, 0x00, 0x00,
  0x50, 0x2f, 0x00, 0x00, 0x00, 0x13, 0x00, 0x00, 0xec, 0x11, 0x00, 0x00,
  0x10, 0x10, 0x00, 0x00, 0xb4, 0x07, 0x00, 0x00, 0x6c, 0x32, 0x00, 0x00,
  0x68, 0x32, 0x00, 0x00, 0x64, 0x32, 0x00, 0x00, 0x60, 0x32, 0x00, 0x00,
  0x5c, 0x32, 0x00, 0x00, 0x58, 0x32, 0x00, 0x00, 0x54, 0x32, 0x00, 0x00,
  0x50, 0x32, 0x00, 0x00, 0x3c, 0x00, 0x00, 0x00, 0x00, 0x00, 0x00, 0x00,
  0x01, 0x00, 0x00, 0x00, 0x0c, 0x00, 0x00, 0x00, 0x08, 0x00, 0x0c, 0x00,
  0x04, 0x00, 0x08, 0x00, 0x08, 0x00, 0x00, 0x00, 0x08, 0x00, 0x00, 0x00,
  0x13, 0x00, 0x00, 0x00, 0x13, 0x00, 0x00, 0x00, 0x6d, 0x69, 0x6e, 0x5f,
  0x72, 0x75, 0x6e, 0x74, 0x69, 0x6d, 0x65, 0x5f, 0x76, 0x65, 0x72, 0x73,
  0x69, 0x6f, 0x6e, 0x00, 0xfa, 0xce, 0xff, 0xff, 0x04, 0x00, 0x00, 0x00,
  0x10, 0x00, 0x00, 0x00, 0x31, 0x2e, 0x35, 0x2e, 0x30, 0x00, 0x00, 0x00,
  0x00, 0x00, 0x00, 0x00, 0x00, 0x00, 0x00, 0x00, 0x0f, 0x00, 0x00, 0x00,
  0x4d, 0x4c, 0x49, 0x52, 0x20, 0x43, 0x6f, 0x6e, 0x76, 0x65, 0x72, 0x74,
  0x65, 0x64, 0x2e, 0x00, 0x00, 0x00, 0x0e, 0x00, 0x18, 0x00, 0x04, 0x00,
  0x08, 0x00, 0x0c, 0x00, 0x10, 0x00, 0x14, 0x00, 0x0e, 0x00, 0x00, 0x00,
  0x14, 0x00, 0x00, 0x00, 0x5c, 0x00, 0x00, 0x00, 0x60, 0x00, 0x00, 0x00,
  0x64, 0x00, 0x00, 0x00, 0x84, 0x00, 0x00, 0x00, 0x12, 0x00, 0x00, 0x00,
  0x58, 0x31, 0x00, 0x00, 0xe8, 0x30, 0x00, 0x00, 0x44, 0x30, 0x00, 0x00,
  0x9c, 0x2f, 0x00, 0x00, 0xf4, 0x2e, 0x00, 0x00, 0x94, 0x2e, 0x00, 0x00,
  0x2c, 0x2e, 0x00, 0x00, 0xd8, 0x11, 0x00, 0x00, 0xbc, 0x10, 0x00, 0x00,
  0xe0, 0x0e, 0x00, 0x00, 0x0c, 0x06, 0x00, 0x00, 0x28, 0x05, 0x00, 0x00,
  0xe8, 0x03, 0x00, 0x00, 0x3c, 0x03, 0x00, 0x00, 0x98, 0x02, 0x00, 0x00,
  0xd4, 0x01, 0x00, 0x00, 0x10, 0x01, 0x00, 0x00, 0x84, 0x00, 0x00, 0x00,
  0x01, 0x00, 0x00, 0x00, 0x00, 0x00, 0x00, 0x00, 0x01, 0x00, 0x00, 0x00,
  0x11, 0x00, 0x00, 0x00, 0x08, 0x00, 0x00, 0x00, 0x74, 0x05, 0x00, 0x00,
  0x94, 0x04, 0x00, 0x00, 0x78, 0x03, 0x00, 0x00, 0xbc, 0x02, 0x00, 0x00,
  0x30, 0x02, 0x00, 0x00, 0x50, 0x01, 0x00, 0x00, 0xa8, 0x00, 0x00, 0x00,
  0x10, 0x00, 0x00, 0x00, 0x04, 0x00, 0x00, 0x00, 0x6d, 0x61, 0x69, 0x6e,
  0x00, 0x00, 0x00, 0x00, 0x7a, 0xff, 0xff, 0xff, 0x00, 0x00, 0x00, 0x09,
  0x04, 0x00, 0x00, 0x00, 0x1c, 0x00, 0x00, 0x00, 0x10, 0x00, 0x00, 0x00,
  0x04, 0x00, 0x00, 0x00, 0xf6, 0xcf, 0xff, 0xff, 0x00, 0x00, 0x80, 0x3f,
  0x01, 0x00, 0x00, 0x00, 0x11, 0x00, 0x00, 0x00, 0x01, 0x00, 0x00, 0x00,
  0x10, 0x00, 0x00, 0x00, 0xa0, 0xfa, 0xff, 0xff, 0x19, 0x00, 0x00, 0x00,
  0x00, 0x00, 0x00, 0x19, 0x01, 0x00, 0x00, 0x00, 0x84, 0xcf, 0xff, 0xff,
  0x14, 0x00, 0x00, 0x00, 0x12, 0x00, 0x00, 0x00, 0x18, 0x00, 0x00, 0x00,
  0x30, 0x00, 0x00, 0x00, 0x20, 0x00, 0x00, 0x00, 0x02, 0x00, 0x00, 0x00,
  0x01, 0x00, 0x00, 0x00, 0x03, 0x00, 0x00, 0x00, 0x08, 0x00, 0x00, 0x00,
  0x49, 0x64, 0x65, 0x6e, 0x74, 0x69, 0x74, 0x79, 0x00, 0x00, 0x00, 0x00,
  0x02, 0x00, 0x00, 0x00, 0xff, 0xff, 0xff, 0xff, 0x03, 0x00, 0x00, 0x00,
  0x68, 0xd0, 0xff, 0xff, 0x00, 0x00, 0x0e, 0x00, 0x18, 0x00, 0x08, 0x00,
  0x0c, 0x00, 0x10, 0x00, 0x07, 0x00, 0x14, 0x00, 0x0e, 0x00, 0x00, 0x00,
  0x00, 0x00, 0x00, 0x08, 0x03, 0x00, 0x00, 0x00, 0x18, 0x00, 0x00, 0x00,
  0x0c, 0x00, 0x00, 0x00, 0x04, 0x00, 0x00, 0x00, 0x84, 0xcf, 0xff, 0xff,
  0x01, 0x00, 0x00, 0x00, 0x10, 0x00, 0x00, 0x00, 0x03, 0x00, 0x00, 0x00,
  0x0f, 0x00, 0x00, 0x00, 0x07, 0x00, 0x00, 0x00, 0x04, 0x00, 0x00, 0x00,
  0x0c, 0xd0, 0xff, 0xff, 0x14, 0x00, 0x00, 0x00, 0x11, 0x00, 0x00, 0x00,
  0x18, 0x00, 0x00, 0x00, 0x5c, 0x00, 0x00, 0x00, 0x4c, 0x00, 0x00, 0x00,
  0x02, 0x00, 0x00, 0x00, 0x01, 0x00, 0x00, 0x00, 0x03, 0x00, 0x00, 0x00,
  0x34, 0x00, 0x00, 0x00, 0x73, 0x65, 0x71, 0x75, 0x65, 0x6e, 0x74, 0x69,
  0x61, 0x6c, 0x2f, 0x64, 0x65, 0x6e, 0x73, 0x65, 0x5f, 0x31, 0x2f, 0x4d,
  0x61, 0x74, 0x4d, 0x75, 0x6c, 0x3b, 0x73, 0x65, 0x71, 0x75, 0x65, 0x6e,
  0x74, 0x69, 0x61, 0x6c, 0x2f, 0x64, 0x65, 0x6e, 0x73, 0x65, 0x5f, 0x31,
  0x2f, 0x42, 0x69, 0x61, 0x73, 0x41, 0x64, 0x64, 0x00, 0x00, 0x00, 0x00,
  0x02, 0x00, 0x00, 0x00, 0xff, 0xff, 0xff, 0xff, 0x03, 0x00, 0x00, 0x00,
  0x0c, 0xd0, 0xff, 0xff, 0xda, 0xfc, 0xff, 0xff, 0x00, 0x00, 0x00, 0x08,
  0x03, 0x00, 0x00, 0x00, 0x24, 0x00, 0x00, 0x00, 0x18, 0x00, 0x00, 0x00,
  0x0c, 0x00, 0x00, 0x00, 0x00, 0x00, 0x06, 0x00, 0x08, 0x00, 0x07, 0x00,
  0x06, 0x00, 0x00, 0x00, 0x00, 0x00, 0x00, 0x01, 0x01, 0x00, 0x00, 0x00,
  0x0f, 0x00, 0x00, 0x00, 0x03, 0x00, 0x00, 0x00, 0x0e, 0x00, 0x00, 0x00,
  0x06, 0x00, 0x00, 0x00, 0x03, 0x00, 0x00, 0x00, 0xe8, 0xfb, 0xff, 0xff,
  0x09, 0x00, 0x00, 0x00, 0x00, 0x00, 0x00, 0x09, 0x01, 0x00, 0x00, 0x00,
  0xcc, 0xd0, 0xff, 0xff, 0x14, 0x00, 0x00, 0x00, 0x10, 0x00, 0x00, 0x00,
  0x18, 0x00, 0x00, 0x00, 0x6c, 0x00, 0x00, 0x00, 0x5c, 0x00, 0x00, 0x00,
  0x02, 0x00, 0x00, 0x00, 0x01, 0x00, 0x00, 0x00, 0x10, 0x00, 0x00, 0x00,
  0x46, 0x00, 0x00, 0x00, 0x73, 0x65, 0x71, 0x75, 0x65, 0x6e, 0x74, 0x69,
  0x61, 0x6c, 0x2f, 0x64, 0x65, 0x6e, 0x73, 0x65, 0x2f, 0x4d, 0x61, 0x74,
  0x4d, 0x75, 0x6c, 0x3b, 0x73, 0x65, 0x71, 0x75, 0x65, 0x6e, 0x74, 0x69,
  0x61, 0x6c, 0x2f, 0x64, 0x65, 0x6e, 0x73, 0x65, 0x2f, 0x52, 0x65, 0x6c,
  0x75, 0x3b, 0x73, 0x65, 0x71, 0x75, 0x65, 0x6e, 0x74, 0x69, 0x61, 0x6c,
  0x2f, 0x64, 0x65, 0x6e, 0x73, 0x65, 0x2f, 0x42, 0x69, 0x61, 0x73, 0x41,
  0x64, 0x64, 0x00, 0x00, 0x02, 0x00, 0x00, 0x00, 0xff, 0xff, 0xff, 0xff,
  0x10, 0x00, 0x00, 0x00, 0xec, 0xd1, 0xff, 0xff, 0x00, 0x00, 0x0a, 0x00,
  0x10, 0x00, 0x04, 0x00, 0x08, 0x00, 0x0c, 0x00, 0x0a, 0x00, 0x00, 0x00,
  0x02, 0x00, 0x00, 0x00, 0x10, 0x00, 0x00, 0x00, 0x04, 0x00, 0x00, 0x00,
  0x01, 0x00, 0x00, 0x00, 0x0e, 0x00, 0x00, 0x00, 0x02, 0x00, 0x00, 0x00,
  0x0d, 0x00, 0x00, 0x00, 0x05, 0x00, 0x00, 0x00, 0xa8, 0xfc, 0xff, 0xff,
  0x16, 0x00, 0x00, 0x00, 0x00, 0x00, 0x00, 0x16, 0x01, 0x00, 0x00, 0x00,
  0x8c, 0xd1, 0xff, 0xff, 0x14, 0x00, 0x00, 0x00, 0x0f, 0x00, 0x00, 0x00,
  0x18, 0x00, 0x00, 0x00, 0x40, 0x00, 0x00, 0x00, 0x30, 0x00, 0x00, 0x00,
  0x02, 0x00, 0x00, 0x00, 0x01, 0x00, 0x00, 0x00, 0x70, 0x00, 0x00, 0x00,
  0x1a, 0x00, 0x00, 0x00, 0x73, 0x65, 0x71, 0x75, 0x65, 0x6e, 0x74, 0x69,
  0x61, 0x6c, 0x2f, 0x66, 0x6c, 0x61, 0x74, 0x74, 0x65, 0x6e, 0x2f, 0x52,
  0x65, 0x73, 0x68, 0x61, 0x70, 0x65, 0x00, 0x00, 0x02, 0x00, 0x00, 0x00,
  0xff, 0xff, 0xff, 0xff, 0x70, 0x00, 0x00, 0x00, 0x70, 0xd1, 0xff, 0xff,
  0x3e, 0xfe, 0xff, 0xff, 0x00, 0x00, 0x00, 0x05, 0x01, 0x00, 0x00, 0x00,
  0x38, 0x00, 0x00, 0x00, 0x2c, 0x00, 0x00, 0x00, 0x14, 0x00, 0x00, 0x00,
  0x00, 0x00, 0x0e, 0x00, 0x14, 0x00, 0x00, 0x00, 0x10, 0x00, 0x0c, 0x00,
  0x08, 0x00, 0x04, 0x00, 0x0e, 0x00, 0x00, 0x00, 0x03, 0x00, 0x00, 0x00,
  0x01, 0x00, 0x00, 0x00, 0x03, 0x00, 0x00, 0x00, 0x01, 0x00, 0x00, 0x00,
  0x01, 0x00, 0x00, 0x00, 0x0d, 0x00, 0x00, 0x00, 0x01, 0x00, 0x00, 0x00,
  0x0c, 0x00, 0x00, 0x00, 0x2c, 0xd2, 0xff, 0xff, 0x14, 0x00, 0x00, 0x00,
  0x0e, 0x00, 0x00, 0x00, 0x20, 0x00, 0x00, 0x00, 0x58, 0x00, 0x00, 0x00,
  0x40, 0x00, 0x00, 0x00, 0x04, 0x00, 0x00, 0x00, 0x01, 0x00, 0x00, 0x00,
  0x07, 0x00, 0x00, 0x00, 0x01, 0x00, 0x00, 0x00, 0x10, 0x00, 0x00, 0x00,
  0x22, 0x00, 0x00, 0x00, 0x73, 0x65, 0x71, 0x75, 0x65, 0x6e, 0x74, 0x69,
  0x61, 0x6c, 0x2f, 0x6d, 0x61, 0x78, 0x5f, 0x70, 0x6f, 0x6f, 0x6c, 0x69,
  0x6e, 0x67, 0x32, 0x64, 0x5f, 0x31, 0x2f, 0x4d, 0x61, 0x78, 0x50, 0x6f,
  0x6f, 0x6c, 0x00, 0x00, 0x04, 0x00, 0x00, 0x00, 0xff, 0xff, 0xff, 0xff,
  0x07, 0x00, 0x00, 0x00, 0x01, 0x00, 0x00, 0x00, 0x10, 0x00, 0x00, 0x00,
  0x28, 0xd2, 0xff, 0xff, 0x1a, 0xfe, 0xff, 0xff, 0x00, 0x00, 0x00, 0x01,
  0x24, 0x00, 0x00, 0x00, 0x18, 0x00, 0x00, 0x00, 0x04, 0x00, 0x00, 0x00,
  0x0c, 0xfe, 0xff, 0xff, 0x01, 0x00, 0x00, 0x00, 0x01, 0x00, 0x00, 0x00,
  0x00, 0x00, 0x00, 0x01, 0x01, 0x00, 0x00, 0x00, 0x0c, 0x00, 0x00, 0x00,
  0x03, 0x00, 0x00, 0x00, 0x0b, 0x00, 0x00, 0x00, 0x09, 0x00, 0x00, 0x00,
  0x02, 0x00, 0x00, 0x00, 0xd4, 0xd2, 0xff, 0xff, 0x14, 0x00, 0x00, 0x00,
  0x0d, 0x00, 0x00, 0x00, 0x20, 0x00, 0x00, 0x00, 0xb8, 0x00, 0x00, 0x00,
  0xa0, 0x00, 0x00, 0x00, 0x04, 0x00, 0x00, 0x00, 0x01, 0x00, 0x00, 0x00,
  0x15, 0x00, 0x00, 0x00, 0x01, 0x00, 0x00, 0x00, 0x10, 0x00, 0x00, 0x00,
  0x83, 0x00, 0x00, 0x00, 0x73, 0x65, 0x71, 0x75, 0x65, 0x6e, 0x74, 0x69,
  0x61, 0x6c, 0x2f, 0x63, 0x6f, 0x6e, 0x76, 0x32, 0x64, 0x5f, 0x31, 0x2f,
  0x52, 0x65, 0x6c, 0x75, 0x3b, 0x73, 0x65, 0x71, 0x75, 0x65, 0x6e, 0x74,
  0x69, 0x61, 0x6c, 0x2f, 0x63, 0x6f, 0x6e, 0x76, 0x32, 0x64, 0x5f, 0x31,
  0x2f, 0x42, 0x69, 0x61, 0x73, 0x41, 0x64, 0x64, 0x3b, 0x73, 0x65, 0x71,
  0x75, 0x65, 0x6e, 0x74, 0x69, 0x61, 0x6c, 0x2f, 0x63, 0x6f, 0x6e, 0x76,
  0x32, 0x64, 0x5f, 0x31, 0x2f, 0x43, 0x6f, 0x6e, 0x76, 0x32, 0x44, 0x3b,
  0x73, 0x65, 0x71, 0x75, 0x65, 0x6e, 0x74, 0x69, 0x61, 0x6c, 0x2f, 0x63,
  0x6f, 0x6e, 0x76, 0x32, 0x64, 0x5f, 0x31, 0x2f, 0x42, 0x69, 0x61, 0x73,
  0x41, 0x64, 0x64, 0x2f, 0x52, 0x65, 0x61, 0x64, 0x56, 0x61, 0x72, 0x69,
  0x61, 0x62, 0x6c, 0x65, 0x4f, 0x70, 0x2f, 0x72, 0x65, 0x73, 0x6f, 0x75,
  0x72, 0x63, 0x65, 0x00, 0x04, 0x00, 0x00, 0x00, 0xff, 0xff, 0xff, 0xff,
  0x15, 0x00, 0x00, 0x00, 0x01, 0x00, 0x00, 0x00, 0x10, 0x00, 0x00, 0x00,
  0x40, 0xd4, 0xff, 0xff, 0x00, 0x00, 0x0e, 0x00, 0x1a, 0x00, 0x08, 0x00,
  0x0c, 0x00, 0x10, 0x00, 0x07, 0x00, 0x14, 0x00, 0x0e, 0x00, 0x00, 0x00,
  0x00, 0x00, 0x00, 0x05, 0x01, 0x00, 0x00, 0x00, 0x3c, 0x00, 0x00, 0x00,
  0x30, 0x00, 0x00, 0x00, 0x14, 0x00, 0x00, 0x00, 0x00, 0x00, 0x0e, 0x00,
  0x18, 0x00, 0x17, 0x00, 0x10, 0x00, 0x0c, 0x00, 0x08, 0x00, 0x04, 0x00,
  0x0e, 0x00, 0x00, 0x00, 0x03, 0x00, 0x00, 0x00, 0x03, 0x00, 0x00, 0x00,
  0x03, 0x00, 0x00, 0x00, 0x03, 0x00, 0x00, 0x00, 0x00, 0x00, 0x00, 0x01,
  0x01, 0x00, 0x00, 0x00, 0x0b, 0x00, 0x00, 0x00, 0x01, 0x00, 0x00, 0x00,
  0x0a, 0x00, 0x00, 0x00, 0x2c, 0xff, 0xff, 0xff, 0x11, 0x00, 0x00, 0x00,
  0x00, 0x00, 0x00, 0x11, 0x01, 0x00, 0x00, 0x00, 0x10, 0xd4, 0xff, 0xff,
  0x14, 0x00, 0x00, 0x00, 0x0c, 0x00, 0x00, 0x00, 0x20, 0x00, 0x00, 0x00,
  0x58, 0x00, 0x00, 0x00, 0x40, 0x00, 0x00, 0x00, 0x04, 0x00, 0x00, 0x00,
  0x01, 0x00, 0x00, 0x00, 0x15, 0x00, 0x00, 0x00, 0x01, 0x00, 0x00, 0x00,
  0x08, 0x00, 0x00, 0x00, 0x20, 0x00, 0x00, 0x00, 0x73, 0x65, 0x71, 0x75,
  0x65, 0x6e, 0x74, 0x69, 0x61, 0x6c, 0x2f, 0x6d, 0x61, 0x78, 0x5f, 0x70,
  0x6f, 0x6f, 0x6c, 0x69, 0x6e, 0x67, 0x32, 0x64, 0x2f, 0x4d, 0x61, 0x78,
  0x50, 0x6f, 0x6f, 0x6c, 0x00, 0x00, 0x00, 0x00, 0x04, 0x00, 0x00, 0x00,
  0xff, 0xff, 0xff, 0xff, 0x15, 0x00, 0x00, 0x00, 0x01, 0x00, 0x00, 0x00,
  0x08, 0x00, 0x00, 0x00, 0x1c, 0xd5, 0xff, 0xff, 0x00, 0x00, 0x0e, 0x00,
  0x14, 0x00, 0x00, 0x00, 0x08, 0x00, 0x0c, 0x00, 0x07, 0x00, 0x10, 0x00,
  0x0e, 0x00, 0x00, 0x00, 0x00, 0x00, 0x00, 0x01, 0x30, 0x00, 0x00, 0x00,
  0x24, 0x00, 0x00, 0x00, 0x10, 0x00, 0x00, 0x00, 0x0c, 0x00, 0x10, 0x00,
  0x00, 0x00, 0x04, 0x00, 0x08, 0x00, 0x0f, 0x00, 0x0c, 0x00, 0x00, 0x00,
  0x01, 0x00, 0x00, 0x00, 0x01, 0x00, 0x00, 0x00, 0x00, 0x00, 0x00, 0x01,
  0x01, 0x00, 0x00, 0x00, 0x0a, 0x00, 0x00, 0x00, 0x03, 0x00, 0x00, 0x00,
  0x00, 0x00, 0x00, 0x00, 0x08, 0x00, 0x00, 0x00, 0x01, 0x00, 0x00, 0x00,
  0x0c, 0x00, 0x10, 0x00, 0x0b, 0x00, 0x00, 0x00, 0x0c, 0x00, 0x04, 0x00,
  0x0c, 0x00, 0x00, 0x00, 0x03, 0x00, 0x00, 0x00, 0x00, 0x00, 0x00, 0x03,
  0x01, 0x00, 0x00, 0x00, 0xf0, 0xd4, 0xff, 0xff, 0x14, 0x00, 0x00, 0x00,
  0x0b, 0x00, 0x00, 0x00, 0x20, 0x00, 0x00, 0x00, 0xb0, 0x00, 0x00, 0x00,
  0x98, 0x00, 0x00, 0x00, 0x04, 0x00, 0x00, 0x00, 0x01, 0x00, 0x00, 0x00,
  0x40, 0x00, 0x00, 0x00, 0x03, 0x00, 0x00, 0x00, 0x08, 0x00, 0x00, 0x00,
  0x7b, 0x00, 0x00, 0x00, 0x73, 0x65, 0x71, 0x75, 0x65, 0x6e, 0x74, 0x69,
  0x61, 0x6c, 0x2f, 0x63, 0x6f, 0x6e, 0x76, 0x32, 0x64, 0x2f, 0x52, 0x65,
  0x6c, 0x75, 0x3b, 0x73, 0x65, 0x71, 0x75, 0x65, 0x6e, 0x74, 0x69, 0x61,
  0x6c, 0x2f, 0x63, 0x6f, 0x6e, 0x76, 0x32, 0x64, 0x2f, 0x42, 0x69, 0x61,
  0x73, 0x41, 0x64, 0x64, 0x3b, 0x73, 0x65, 0x71, 0x75, 0x65, 0x6e, 0x74,
  0x69, 0x61, 0x6c, 0x2f, 0x63, 0x6f, 0x6e, 0x76, 0x32, 0x64, 0x2f, 0x43,
  0x6f, 0x6e, 0x76, 0x32, 0x44, 0x3b, 0x73, 0x65, 0x71, 0x75, 0x65, 0x6e,
  0x74, 0x69, 0x61, 0x6c, 0x2f, 0x63, 0x6f, 0x6e, 0x76, 0x32, 0x64, 0x2f,
  0x42, 0x69, 0x61, 0x73, 0x41, 0x64, 0x64, 0x2f, 0x52, 0x65, 0x61, 0x64,
  0x56, 0x61, 0x72, 0x69, 0x61, 0x62, 0x6c, 0x65, 0x4f, 0x70, 0x2f, 0x72,
  0x65, 0x73, 0x6f, 0x75, 0x72, 0x63, 0x65, 0x00, 0x04, 0x00, 0x00, 0x00,
  0xff, 0xff, 0xff, 0xff, 0x40, 0x00, 0x00, 0x00, 0x03, 0x00, 0x00, 0x00,
  0x08, 0x00, 0x00, 0x00, 0x44, 0xd5, 0xff, 0xff, 0x4e, 0xd6, 0xff, 0xff,
  0x04, 0x00, 0x00, 0x00, 0x00, 0x08, 0x00, 0x00, 0x34, 0xac, 0x0c, 0xbd,
  0xbc, 0x53, 0x94, 0xbe, 0x58, 0x96, 0xb0, 0xbe, 0x9c, 0x6c, 0xce, 0xbd,
  0x83, 0x60, 0xca, 0x3d, 0xd6, 0x21, 0x9a, 0xbc, 0x14, 0xf7, 0x93, 0x3d,
  0x04, 0x13, 0xe1, 0x3d, 0x0d, 0x7a, 0xc4, 0xbd, 0xe3, 0x90, 0x60, 0xbe,
  0xa3, 0xdc, 0x0e, 0xbf, 0x95, 0x91, 0x4e, 0x3e, 0x35, 0x9b, 0x48, 0x3d,
  0xbc, 0x22, 0x73, 0xbe, 0x68, 0x9d, 0x1b, 0xbe, 0xe4, 0x65, 0xd1, 0x3d,
  0xf5, 0x30, 0xfb, 0xbd, 0x78, 0x54, 0xad, 0x3d, 0x3b, 0x8e, 0x56, 0xbe,
  0xf6, 0xeb, 0x2b, 0x3d, 0x20, 0x3d, 0x73, 0x3e, 0xd0, 0x04, 0x03, 0xbf,
  0x12, 0xe4, 0x67, 0xbc, 0xf1, 0x90, 0xd5, 0xbd, 0x86, 0x7e, 0xf4, 0xbd,
  0x42, 0x6b, 0x0c, 0x3e, 0x33, 0xf0, 0xa2, 0xbd, 0x44, 0x95, 0x8b, 0x3b,
  0x68, 0x91, 0x2f, 0x3e, 0x99, 0xf4, 0xbd, 0xbe, 0x8d, 0x8b, 0xc9, 0xbd,
  0xb0, 0x85, 0x36, 0x3e, 0xb0, 0x37, 0x52, 0x3d, 0xfd, 0x4d, 0xd3, 0xbe,
  0xc0, 0x14, 0x90, 0xbe, 0x1e, 0xe6, 0x46, 0xbe, 0xa8, 0x84, 0xb7, 0xbe,
  0x43, 0x63, 0x04, 0x3c, 0x63, 0x63, 0x9d, 0xbe, 0x01, 0x11, 0x27, 0xbd,
  0x41, 0xfe, 0x35, 0xbd, 0x55, 0xa5, 0x66, 0xbe, 0x63, 0xf0, 0x66, 0x3e,
  0xf1, 0xc9, 0x8a, 0x3d, 0x5e, 0xe7, 0xe1, 0xbd, 0xdf, 0xd5, 0x90, 0x3e,
  0xbd, 0x4c, 0xa5, 0xbe, 0xfc, 0x09, 0x0d, 0x3b, 0x65, 0x60, 0x25, 0xbe,
  0x5b, 0x9a, 0xe4, 0x3c, 0xcb, 0xe7, 0x99, 0xbc, 0x4f, 0x91, 0xd5, 0xbd,
  0x8d, 0xd6, 0x14, 0xbe, 0x1c, 0xed, 0xd4, 0xbd, 0x58, 0x42, 0xe9, 0x3d,
  0x3d, 0x6f, 0xb1, 0xbd, 0x28, 0x46, 0x17, 0xbe, 0x91, 0x1c, 0x53, 0x3e,
  0xcd, 0x8f, 0xe5, 0x3d, 0x7d, 0x7b, 0x4e, 0xbe, 0xd3, 0x2f, 0x1e, 0x3f,
  0xb2, 0x45, 0xeb, 0xbd, 0x65, 0xfd, 0x0b, 0x3e, 0x91, 0xa2, 0xa3, 0xbd,
  0x5d, 0x67, 0x9a, 0xbd, 0xf0, 0xd6, 0x7f, 0x3e, 0x68, 0xb7, 0xb0, 0x3c,
  0x62, 0x1c, 0x93, 0xbe, 0xff, 0x5a, 0x1d, 0x3d, 0x48, 0x6d, 0x8c, 0xbe,
  0x6c, 0xd4, 0x80, 0x3d, 0x2f, 0x54, 0x97, 0xbe, 0x87, 0x19, 0x67, 0xbd,
  0xab, 0xb8, 0x84, 0xbd, 0x6d, 0x0f, 0x0f, 0x3d, 0x96, 0x66, 0x62, 0xbe,
  0xf5, 0x0d, 0xb4, 0xbe, 0x8a, 0x6e, 0xb8, 0x3e, 0x8d, 0xbe, 0x8d, 0xbe,
  0x38, 0x83, 0x22, 0xbe, 0x0b, 0xf5, 0x32, 0xbd, 0x68, 0x28, 0x70, 0xbd,
  0x84, 0x40, 0x18, 0xbe, 0x73, 0xff, 0xfb, 0xbd, 0x1d, 0x50, 0xb3, 0xbc,
  0x82, 0x4f, 0x0f, 0xbe, 0x5b, 0xe5, 0x02, 0xbd, 0x67, 0xb6, 0x43, 0x3d,
  0x8e, 0x9f, 0xbe, 0xbc, 0x03, 0xe8, 0x6c, 0xbd, 0x2c, 0x03, 0x8d, 0x3c,
  0x96, 0xd4, 0x9c, 0x3c, 0xf5, 0x23, 0x8b, 0x3e, 0x88, 0xb9, 0x74, 0xbd,
  0x17, 0x41, 0x2c, 0xbd, 0xd1, 0x43, 0x62, 0x3d, 0xd0, 0x25, 0x19, 0x3d,
  0x26, 0xa7, 0x90, 0xbd, 0x5b, 0x8a, 0xb9, 0xbe, 0x01, 0xf2, 0x22, 0xbe,
  0x9b, 0x56, 0xdb, 0xbe, 0x73, 0xaf, 0xf3, 0xbd, 0x80, 0xdd, 0x2d, 0xbf,
  0x7f, 0xc0, 0x54, 0xbd, 0xba, 0x96, 0x1c, 0x3d, 0x39, 0xdb, 0x20, 0xbf,
  0x8a, 0x6d, 0x99, 0xbf, 0x3d, 0xc4, 0xc5, 0xbe, 0x7b, 0xb7, 0x82, 0xbf,
  0x07, 0x7c, 0xe1, 0x3d, 0x4c, 0x37, 0x86, 0xbf, 0x69, 0x71, 0x39, 0x3d,
  0xbe, 0x9e, 0xf5, 0x3d, 0xe7, 0x9d, 0xa2, 0xbf, 0x17, 0x43, 0xe0, 0x3d,
  0xdd, 0x40, 0x87, 0xbc, 0xd6, 0xef, 0xfa, 0x3d, 0xe9, 0x99, 0x48, 0x3e,
  0xd8, 0xaf, 0xa5, 0xbf, 0xe8, 0xad, 0x94, 0x3d, 0xd0, 0x26, 0xb9, 0xbc,
  0x6a, 0xdb, 0x9d, 0xbf, 0x0e, 0x0d, 0x77, 0xbd, 0x29, 0x2b, 0xc5, 0xbd,
  0xa3, 0x17, 0x0a, 0x3e, 0x13, 0xb5, 0x1a, 0xbe, 0x4b, 0xc9, 0xb0, 0xbf,
  0x9e, 0xac, 0x1e, 0xbe, 0xd5, 0xae, 0x6f, 0xbe, 0xe2, 0xe1, 0xc7, 0xbe,
  0xc2, 0x63, 0xb9, 0xbe, 0x8f, 0x04, 0x80, 0xbe, 0x56, 0x87, 0x3b, 0xbd,
  0x69, 0x12, 0x00, 0xbf, 0xd4, 0xf2, 0xe8, 0xbe, 0x13, 0xbc, 0x80, 0xbe,
  0x02, 0x0e, 0x73, 0x3d, 0xb3, 0x7f, 0x82, 0x3e, 0xa9, 0xec, 0xab, 0x3d,
  0xa0, 0x0a, 0x09, 0x3e, 0xc0, 0xaf, 0xd5, 0xbb, 0xa3, 0xc7, 0x94, 0xbd,
  0x3e, 0xf2, 0x12, 0xbd, 0x44, 0x41, 0x61, 0x3d, 0x41, 0xb5, 0x8f, 0xba,
  0xce, 0x87, 0x3f, 0x3e, 0x6e, 0xcb, 0x5a, 0x3d, 0x4d, 0x33, 0xdd, 0x3e,
  0x19, 0x23, 0x3c, 0x3e, 0x07, 0x16, 0x16, 0xbe, 0x24, 0x89, 0x3c, 0x3e,
  0xd0, 0xc0, 0x9b, 0xbb, 0x89, 0xc6, 0xf7, 0x3d, 0xdc, 0xeb, 0xf9, 0x3b,
  0x24, 0xe2, 0x95, 0xbd, 0x21, 0xe5, 0xc9, 0xbc, 0x6e, 0xec, 0x12, 0x3e,
  0x01, 0xdc, 0xed, 0xbd, 0x93, 0x60, 0xf1, 0x3c, 0x0a, 0x26, 0x03, 0xbd,
  0x0f, 0x88, 0x09, 0xbe, 0x3a, 0x95, 0x4e, 0x3e, 0x2d, 0xe2, 0x25, 0x3d,
  0x66, 0x2d, 0xcf, 0xbe, 0x40, 0x51, 0xbf, 0xbc, 0x20, 0x9f, 0x01, 0xbd,
  0x0c, 0x9c, 0x37, 0xbd, 0xb5, 0x16, 0x1a, 0xbe, 0x87, 0xe2, 0x43, 0xbe,
  0x5f, 0x94, 0xa6, 0x3e, 0x61, 0x0c, 0x03, 0x3f, 0xa2, 0x31, 0xcf, 0xbe,
  0x89, 0xa5, 0x4d, 0xbd, 0xc1, 0xa7, 0x17, 0x3d, 0xb9, 0x5d, 0x8d, 0x3e,
  0xa9, 0xde, 0x9e, 0xbd, 0x70, 0xc3, 0x2e, 0xbe, 0xd8, 0x07, 0xd4, 0xbd,
  0x40, 0x27, 0x1c, 0xbd, 0x77, 0x6a, 0xaf, 0xbe, 0xb3, 0xdd, 0xf0, 0x3c,
  0xce, 0x16, 0xbc, 0xbc, 0x58, 0xb3, 0x9f, 0x3c, 0x87, 0xa7, 0x84, 0xbc,
  0xab, 0xc6, 0xcc, 0xbd, 0xdb, 0x2d, 0x7f, 0x3e, 0x93, 0x24, 0x50, 0x3e,
  0x09, 0x71, 0xce, 0xbe, 0x06, 0xe8, 0xc8, 0xbd, 0x8c, 0xbf, 0x31, 0xbd,
  0x7f, 0x9c, 0x5c, 0xbd, 0x1e, 0x78, 0xf2, 0x3d, 0x5b, 0xe0, 0x0a, 0xbe,
  0x7e, 0xee, 0x88, 0x3d, 0x88, 0x34, 0x80, 0x3e, 0xbe, 0xf9, 0xd4, 0x3d,
  0xc5, 0x3f, 0xc2, 0xbd, 0x87, 0x8c, 0x61, 0x3d, 0x0c, 0x0a, 0x22, 0x3e,
  0x34, 0x7e, 0x69, 0x3d, 0xc2, 0x31, 0xcd, 0xbd, 0xd9, 0xf9, 0xe3, 0xbd,
  0xd4, 0xd2, 0xa4, 0x3e, 0xfd, 0x05, 0x2f, 0xbe, 0x85, 0xff, 0x2e, 0x3d,
  0x7d, 0x5a, 0x88, 0x3c, 0x94, 0xca, 0xe0, 0x3e, 0x95, 0x9a, 0x38, 0x3e,
  0x55, 0x91, 0x7a, 0xbd, 0x53, 0x3a, 0xa6, 0x3d, 0x2d, 0x57, 0xe6, 0xbd,
  0xfe, 0xe6, 0x8d, 0xbd, 0xc2, 0x5f, 0x75, 0x3c, 0xa9, 0x2e, 0x79, 0xbd,
  0x4e, 0x05, 0x02, 0xbe, 0x16, 0xa5, 0xbd, 0xbc, 0xb2, 0x05, 0xd4, 0x3b,
  0x56, 0xea, 0x90, 0xbc, 0xf0, 0x1d, 0xe6, 0x3c, 0x2a, 0xa0, 0xda, 0xbd,
  0x4a, 0x40, 0xb8, 0xbd, 0x5e, 0x44, 0x6c, 0x3e, 0x6b, 0x9f, 0x07, 0x3d,
  0x57, 0x4e, 0xdd, 0x3d, 0x0e, 0x18, 0xbe, 0xbe, 0x68, 0xbd, 0xa0, 0xbb,
  0xec, 0xd1, 0x88, 0x3e, 0x36, 0xed, 0x5f, 0xbe, 0xb1, 0x38, 0x34, 0xbe,
  0x7c, 0xbd, 0xf4, 0xbe, 0x11, 0xf2, 0xe3, 0xbd, 0xc5, 0xd7, 0x0e, 0xbd,
  0xbf, 0x9c, 0x9a, 0xbe, 0xfa, 0xd8, 0xa8, 0x3e, 0x03, 0x01, 0xeb, 0x3e,
  0xe4, 0xea, 0xb0, 0x3e, 0x49, 0x8c, 0x4a, 0x3e, 0x11, 0x5d, 0x7c, 0xbe,
  0xa4, 0x45, 0x97, 0x3e, 0xe2, 0x3b, 0x44, 0x3d, 0xfa, 0x95, 0x9f, 0xbe,
  0x5f, 0x21, 0xcb, 0x3e, 0x8c, 0x49, 0xd9, 0xbd, 0x4f, 0x0c, 0xa9, 0x3d,
  0x63, 0xa2, 0x85, 0x3e, 0x78, 0xd8, 0x8b, 0xbe, 0x1f, 0xf7, 0x19, 0xbd,
  0x36, 0x93, 0x8f, 0xbd, 0xb3, 0x7b, 0x50, 0xbe, 0xd2, 0xad, 0x6f, 0x3e,
  0x1c, 0xa6, 0xa8, 0xbd, 0x15, 0x09, 0xac, 0x3d, 0x7c, 0xb2, 0x4d, 0x3e,
  0x26, 0xb1, 0xc2, 0xbe, 0xbf, 0xbf, 0xbe, 0xbd, 0xf6, 0x91, 0x4c, 0x3d,
  0x49, 0x9f, 0xa9, 0x3d, 0xd5, 0xbf, 0x00, 0x3d, 0xab, 0x75, 0x1a, 0xbd,
  0x55, 0xbe, 0x5b, 0x3e, 0xe1, 0x5b, 0xb7, 0x3e, 0x7b, 0xdd, 0xa7, 0xbc,
  0x9f, 0x57, 0xe6, 0x3d, 0x4d, 0x8c, 0x73, 0xbd, 0xd9, 0x2d, 0x0f, 0x3d,
  0x34, 0xa5, 0x84, 0x3d, 0x25, 0x78, 0x31, 0x3d, 0xf0, 0xb0, 0x87, 0x3c,
  0x9f, 0x7c, 0x56, 0xbd, 0xf1, 0x86, 0x7a, 0xbd, 0xc7, 0x91, 0xbe, 0x3c,
  0x38, 0x18, 0xc9, 0xbd, 0x56, 0xf2, 0x4c, 0x3e, 0x85, 0xc5, 0xce, 0x3d,
  0x67, 0xd9, 0x64, 0xbe, 0xd0, 0x46, 0x62, 0xbb, 0xb7, 0xd0, 0xb1, 0xbd,
  0x0f, 0xf9, 0xde, 0xbc, 0xaf, 0xae, 0x8f, 0xbe, 0x8b, 0x08, 0xca, 0xbc,
  0x62, 0x1e, 0x27, 0xbd, 0xa4, 0xc8, 0xe4, 0x3c, 0xfe, 0xcc, 0x60, 0xbd,
  0x41, 0x0f, 0x1e, 0xbd, 0xff, 0x32, 0x5a, 0xbd, 0x7a, 0x29, 0x31, 0xbd,
  0x68, 0x8b, 0x8f, 0xbe, 0x5a, 0xfc, 0x4f, 0xbc, 0xb3, 0xdf, 0x8b, 0x3e,
  0xbb, 0x62, 0x87, 0x3d, 0xee, 0x28, 0xa9, 0x3e, 0xaa, 0x86, 0x02, 0x3e,
  0x22, 0x37, 0x94, 0x3e, 0x22, 0xf3, 0x78, 0xbc, 0x93, 0x8c, 0x96, 0x3e,
  0xb7, 0x3e, 0x3d, 0xbe, 0x5f, 0x92, 0x79, 0x3e, 0xf4, 0x31, 0x40, 0xbe,
  0xf6, 0x17, 0x1c, 0x3e, 0x0a, 0x86, 0x86, 0xbd, 0x79, 0xf7, 0xab, 0x3d,
  0x91, 0x1e, 0x05, 0xbd, 0x90, 0x92, 0xdc, 0x3d, 0xe8, 0x58, 0x29, 0xbe,
  0x59, 0x74, 0x2c, 0xbd, 0xdf, 0xb7, 0x99, 0xbe, 0xde, 0xba, 0xa4, 0xbd,
  0xda, 0x6c, 0xb6, 0xba, 0xef, 0x38, 0xbf, 0xbd, 0xfd, 0x3b, 0xc7, 0xbd,
  0x90, 0x55, 0xad, 0xbd, 0x75, 0xa7, 0x8b, 0xbe, 0x29, 0xae, 0x8a, 0x3e,
  0x02, 0xbd, 0x53, 0xbe, 0xa2, 0x4e, 0x0b, 0xbe, 0xd4, 0xff, 0xf6, 0xbd,
  0x54, 0xf0, 0xe0, 0xbc, 0x58, 0xa8, 0x0b, 0xbe, 0x63, 0x6a, 0x79, 0x3e,
  0xf1, 0xd3, 0xa3, 0xbe, 0x7f, 0x94, 0xaf, 0xba, 0xb7, 0x76, 0x5f, 0xbd,
  0x97, 0x8e, 0x40, 0x3e, 0x11, 0xa8, 0x63, 0xbd, 0x71, 0x2b, 0x9c, 0x3d,
  0xac, 0x47, 0x61, 0x3e, 0x5e, 0xcc, 0x7d, 0x3e, 0xd1, 0xad, 0x35, 0xbd,
  0x4e, 0x97, 0x6c, 0xbd, 0x53, 0x10, 0x3c, 0x3e, 0x91, 0x48, 0xf7, 0xbc,
  0x91, 0x7a, 0xef, 0xbd, 0xad, 0x6f, 0x85, 0xbd, 0x9c, 0x53, 0xc5, 0x3d,
  0x3d, 0xbb, 0xc8, 0x3d, 0xcc, 0x99, 0x91, 0xbd, 0x56, 0x0c, 0xbc, 0xbe,
  0x10, 0xce, 0x4c, 0x3d, 0x5c, 0x15, 0xec, 0x3d, 0x37, 0xac, 0xe6, 0xbe,
  0xd2, 0x7d, 0x21, 0xbe, 0xd5, 0xc1, 0x92, 0xbd, 0x13, 0xd3, 0xc3, 0xbd,
  0x81, 0x72, 0x3c, 0xbe, 0x5e, 0x0e, 0xe0, 0xbe, 0xe6, 0x01, 0x0c, 0x3e,
  0xbb, 0xef, 0x37, 0xbe, 0x84, 0x09, 0xc6, 0xbe, 0x9c, 0x76, 0x5c, 0xbe,
  0x57, 0xe2, 0xcf, 0xbd, 0x02, 0xe5, 0x1f, 0x3d, 0xa0, 0xd6, 0xdb, 0xbd,
  0x00, 0xd2, 0x8e, 0xbc, 0x53, 0xa0, 0x02, 0xbe, 0x08, 0x99, 0x04, 0x3b,
  0x9d, 0x35, 0x46, 0x3e, 0x21, 0xee, 0x33, 0xbf, 0x73, 0x1f, 0xd1, 0xbb,
  0xfd, 0x4a, 0x24, 0xbd, 0xe9, 0x8b, 0xea, 0x3c, 0x6e, 0x82, 0x06, 0xbc,
  0x32, 0x3e, 0xe0, 0xbe, 0x87, 0x3b, 0x18, 0xbf, 0x9c, 0x28, 0x89, 0xbc,
  0x9b, 0x1a, 0x68, 0xbf, 0x41, 0x8e, 0x74, 0x3d, 0xee, 0xc6, 0xbd, 0xbe,
  0x99, 0x97, 0xaf, 0x3c, 0xa4, 0xd0, 0x7b, 0x3d, 0xfc, 0xa2, 0x41, 0xbf,
  0xb8, 0x3d, 0x98, 0xbf, 0x42, 0x73, 0x3b, 0x3c, 0x18, 0x3a, 0x68, 0xbf,
  0x8a, 0x46, 0xe9, 0x3a, 0x81, 0xd4, 0x8a, 0xbf, 0x59, 0x36, 0x8f, 0xbc,
  0xd5, 0x4f, 0x62, 0x3c, 0x26, 0x02, 0x40, 0xbf, 0xb4, 0xa3, 0x85, 0x3e,
  0x79, 0x7c, 0x3c, 0xbd, 0x3d, 0x59, 0xdb, 0x3e, 0x38, 0x75, 0xeb, 0xbb,
  0x75, 0x6d, 0x8e, 0xbf, 0x66, 0xfe, 0x89, 0x3d, 0xe4, 0xa7, 0xb5, 0xbe,
  0xee, 0xdf, 0x81, 0xbc, 0x34, 0xa7, 0x19, 0xbe, 0xc0, 0xc6, 0x12, 0xbd,
  0xde, 0xc0, 0x86, 0xbe, 0xaf, 0x58, 0xb9, 0xbd, 0x8a, 0x8f, 0x58, 0x3e,
  0x94, 0x00, 0xb1, 0xbe, 0xcf, 0xe2, 0x64, 0x3e, 0xcf, 0x4c, 0x92, 0x3d,
  0xf4, 0xa0, 0xce, 0xbd, 0x77, 0xa1, 0x65, 0xbd, 0xce, 0x77, 0x8e, 0xbe,
  0x2d, 0xbb, 0xeb, 0xbd, 0xe0, 0xe6, 0xa8, 0x3d, 0xc7, 0x29, 0x6b, 0xbe,
  0x8d, 0xbd, 0x02, 0xbc, 0x01, 0x45, 0x94, 0x3c, 0xdc, 0xef, 0xd2, 0x3b,
  0x78, 0x06, 0x5a, 0x3e, 0xc6, 0xc1, 0x1e, 0x3d, 0x8c, 0x43, 0x01, 0x3e,
  0x71, 0xcf, 0x8c, 0xbd, 0x57, 0x26, 0x5f, 0xbe, 0x09, 0x86, 0x8a, 0x3e,
  0x18, 0x43, 0x47, 0x3e, 0xce, 0xa5, 0xaa, 0x3e, 0x96, 0x63, 0xf8, 0xbd,
  0xa4, 0xb1, 0x8e, 0xbe, 0x1f, 0xfa, 0xf9, 0xbd, 0x0c, 0xfa, 0x93, 0x3e,
  0xa0, 0x5b, 0x80, 0xbe, 0xe1, 0xc6, 0x0e, 0xbe, 0xbb, 0x14, 0x77, 0xbc,
  0xa6, 0x22, 0xbb, 0xbe, 0x09, 0x6c, 0xf5, 0xbd, 0x1d, 0x34, 0x51, 0xbe,
  0x34, 0xd8, 0x0b, 0xbd, 0x23, 0xf8, 0x9d, 0x3e, 0xd8, 0x54, 0xe3, 0xbd,
  0x00, 0xef, 0x21, 0xbe, 0x79, 0x67, 0x44, 0xbe, 0x4e, 0xde, 0x9b, 0xbd,
  0x83, 0xd6, 0x47, 0xbe, 0x45, 0xce, 0x2c, 0xbe, 0x84, 0xf6, 0x28, 0xbe,
  0x73, 0xc0, 0x6b, 0x3e, 0x4f, 0x46, 0x55, 0xbb, 0x53, 0xbc, 0xa7, 0xbe,
  0xd1, 0x91, 0xc6, 0x3a, 0x9d, 0xcb, 0x13, 0x3e, 0xc8, 0x3b, 0xb4, 0xbd,
  0xbd, 0x35, 0x41, 0xbe, 0x5b, 0xa7, 0x1e, 0xbe, 0x3b, 0xac, 0xc1, 0x3e,
  0x10, 0xd3, 0x87, 0xbe, 0x21, 0x2e, 0x2e, 0xbe, 0xff, 0x3a, 0x8a, 0x3c,
  0x62, 0x0b, 0xb3, 0x3d, 0x89, 0x3c, 0x82, 0x3d, 0x21, 0x57, 0x8c, 0xbe,
  0xee, 0xb3, 0x7e, 0xbe, 0x93, 0x5e, 0x54, 0x3d, 0xba, 0xcc, 0xbe, 0xbc,
  0xb2, 0x28, 0xab, 0xbe, 0x37, 0x7e, 0xe7, 0xbd, 0x73, 0xf7, 0x7d, 0xbe,
  0x83, 0xea, 0x54, 0xbd, 0x73, 0x04, 0x98, 0x3d, 0xa5, 0xa8, 0x66, 0xbe,
  0x0b, 0x01, 0xb6, 0xbe, 0xd9, 0x32, 0x53, 0xbe, 0xfb, 0xc7, 0xec, 0xbc,
  0x7c, 0x2b, 0xc2, 0x3e, 0x6d, 0xde, 0x19, 0xbd, 0xd7, 0x40, 0x2c, 0x3e,
  0x35, 0x1c, 0x29, 0x3e, 0xe9, 0x01, 0x48, 0x3e, 0xd4, 0x9e, 0x7a, 0x3e,
  0x7c, 0x66, 0x75, 0xbd, 0x8c, 0xfe, 0xf7, 0x3b, 0x48, 0xc9, 0x04, 0x39,
  0x91, 0xae, 0x6b, 0xbd, 0xcb, 0x2c, 0xad, 0x3c, 0xba, 0x69, 0xe1, 0xbb,
  0xdb, 0x13, 0x90, 0x3b, 0x0f, 0x19, 0xa2, 0x3c, 0x31, 0xd4, 0x72, 0x3d,
  0x0d, 0x24, 0x1e, 0xbd, 0x09, 0x39, 0x2f, 0x3e, 0xd1, 0x3d, 0xb5, 0x3e,
  0xd7, 0xf3, 0x94, 0x3e, 0x3e, 0xfd, 0xa3, 0x3e, 0x83, 0xc5, 0xbf, 0xbd,
  0x1a, 0xc1, 0x3c, 0x3e, 0xf5, 0xa2, 0x34, 0x3e, 0x16, 0x31, 0xff, 0x3d,
  0x7e, 0xb7, 0x65, 0xbb, 0x7c, 0xf3, 0x71, 0xbe, 0x10, 0xdf, 0x32, 0xbc,
  0x0d, 0x72, 0x76, 0x3c, 0x42, 0x7a, 0x7b, 0xbc, 0xdd, 0x34, 0x9a, 0x3e,
  0x5f, 0xe0, 0xe7, 0xbd, 0xa4, 0x31, 0xd6, 0xbc, 0xaf, 0x00, 0x2c, 0xbe,
  0xc0, 0x98, 0xb3, 0x3d, 0xb3, 0xf5, 0x8e, 0xbe, 0x3b, 0x14, 0x25, 0xbe,
  0x82, 0x8b, 0x18, 0xbe, 0x5e, 0xf4, 0xc5, 0x3e, 0xfb, 0x9e, 0x79, 0x3c,
  0x42, 0xa4, 0xe9, 0xbd, 0xf8, 0xd1, 0xfd, 0xbd, 0x8e, 0xef, 0xc2, 0xbd,
  0x94, 0x93, 0x8b, 0xbd, 0xf5, 0x67, 0xbb, 0x3c, 0x54, 0x1c, 0x88, 0xbe,
  0x08, 0xb7, 0x24, 0xb9, 0xac, 0x95, 0x78, 0xbe, 0xb3, 0x1e, 0x59, 0xbe,
  0x79, 0xdc, 0xae, 0xbd, 0x53, 0x0e, 0x92, 0xbd, 0xa7, 0x3c, 0xa6, 0xbc,
  0xbf, 0x2f, 0xd1, 0xbd, 0x14, 0x63, 0xb0, 0x3d, 0x18, 0xe2, 0x2d, 0x3d,
  0xed, 0xc8, 0xa7, 0xbd, 0x26, 0xde, 0xff, 0xff, 0x10, 0x00, 0x00, 0x00,
  0x0a, 0x00, 0x00, 0x00, 0x1c, 0x00, 0x00, 0x00, 0x38, 0x00, 0x00, 0x00,
  0x04, 0x00, 0x00, 0x00, 0x10, 0x00, 0x00, 0x00, 0x04, 0x00, 0x00, 0x00,
  0x01, 0x00, 0x00, 0x00, 0x08, 0x00, 0x00, 0x00, 0x1a, 0x00, 0x00, 0x00,
  0x73, 0x65, 0x71, 0x75, 0x65, 0x6e, 0x74, 0x69, 0x61, 0x6c, 0x2f, 0x63,
  0x6f, 0x6e, 0x76, 0x32, 0x64, 0x5f, 0x31, 0x2f, 0x43, 0x6f, 0x6e, 0x76,
  0x32, 0x44, 0x00, 0x00, 0x9c, 0xdd, 0xff, 0xff, 0xa6, 0xde, 0xff, 0xff,
  0x04, 0x00, 0x00, 0x00, 0x80, 0x01, 0x00, 0x00, 0x8c, 0xb8, 0x0b, 0x3e,
  0x5c, 0xe2, 0x0d, 0x3c, 0x78, 0x7d, 0x07, 0xbf, 0xdb, 0x2f, 0x7a, 0x3e,
  0x5c, 0xf0, 0xec, 0x3d, 0x43, 0xf9, 0xcc, 0x3d, 0x88, 0x76, 0x64, 0x3e,
  0x54, 0xaa, 0x5e, 0xbd, 0x8c, 0xd0, 0xdd, 0xbe, 0xfe, 0xd4, 0x85, 0xbe,
  0xa0, 0x0c, 0xdd, 0x3d, 0x99, 0x58, 0x14, 0xbf, 0xda, 0xc0, 0x2a, 0x3b,
  0x8f, 0xfd, 0x21, 0xbe, 0xeb, 0xb8, 0xbb, 0xbe, 0x41, 0x75, 0x3e, 0x3e,
  0x12, 0xae, 0x97, 0x3c, 0x96, 0xdd, 0xb2, 0xbc, 0x9e, 0x4e, 0x6d, 0xbc,
  0x71, 0xca, 0xdb, 0xbd, 0x16, 0xf4, 0xb2, 0xbb, 0x36, 0xeb, 0x4c, 0x3e,
  0xe8, 0x9d, 0x29, 0xbe, 0x53, 0x97, 0xf9, 0xbd, 0xb7, 0x00, 0x64, 0xbc,
  0xab, 0x42, 0x4d, 0x3e, 0xd9, 0x27, 0x8c, 0xbd, 0xc4, 0x39, 0x54, 0xbe,
  0xbe, 0x48, 0x38, 0xbe, 0xfb, 0x41, 0x51, 0x3e, 0xa6, 0x94, 0x57, 0xbe,
  0xea, 0xfa, 0x25, 0xbe, 0xfc, 0x00, 0xab, 0x3d, 0x8e, 0xc8, 0x2f, 0xbe,
  0x8f, 0x5f, 0x8a, 0xbe, 0x5d, 0x45, 0x04, 0xbf, 0x18, 0x2b, 0x87, 0x3e,
  0x6e, 0x68, 0x14, 0x3d, 0x28, 0x16, 0x5d, 0x3d, 0x7e, 0xad, 0x96, 0x3e,
  0x5e, 0x65, 0x70, 0xbe, 0xab, 0x3c, 0x9a, 0x3d, 0xf2, 0xa5, 0x7c, 0xbd,
  0x08, 0x58, 0x55, 0x3e, 0x48, 0x0c, 0x1f, 0xbe, 0x79, 0x03, 0x61, 0xbe,
  0x99, 0x1b, 0x16, 0xbe, 0x40, 0x90, 0x1c, 0xbe, 0x38, 0xaa, 0xd8, 0x3d,
  0x5b, 0x95, 0x97, 0xbd, 0xef, 0x61, 0x85, 0x3d, 0xed, 0xf0, 0xc1, 0x3d,
  0x73, 0x56, 0x96, 0x3c, 0x9f, 0xf4, 0x23, 0xbc, 0x83, 0xcc, 0xc6, 0x3c,
  0x19, 0xd4, 0x42, 0xbe, 0x18, 0x8b, 0xa4, 0x3d, 0xd2, 0x4a, 0x49, 0x3e,
  0x03, 0xfe, 0x90, 0xbe, 0xa9, 0xe6, 0x80, 0xbe, 0x36, 0x46, 0xae, 0x3d,
  0xa1, 0xb6, 0x17, 0x3e, 0x93, 0x6f, 0xea, 0xbd, 0xf9, 0xbf, 0x9c, 0xbd,
  0x46, 0xe5, 0x11, 0xbe, 0xc4, 0x67, 0x67, 0x3d, 0x5b, 0xc1, 0x4d, 0xbd,
  0x21, 0x47, 0x39, 0xbe, 0x94, 0x4c, 0x1f, 0x3e, 0xf4, 0x7b, 0xfe, 0xbd,
  0xa3, 0xc2, 0xa9, 0xbd, 0x06, 0x68, 0x3d, 0x3e, 0x73, 0xec, 0xda, 0xbe,
  0xb2, 0xcc, 0x9f, 0xbd, 0x0f, 0x07, 0x77, 0xbd, 0x13, 0xac, 0x80, 0x3e,
  0x5c, 0x21, 0xcb, 0xbd, 0x2e, 0xcc, 0x6c, 0xbe, 0x30, 0x15, 0x0f, 0x3d,
  0x27, 0xf6, 0x14, 0xbe, 0x3f, 0xdf, 0x45, 0x3d, 0x95, 0x37, 0x0a, 0x3e,
  0xb3, 0x6b, 0xe4, 0x3d, 0x93, 0x75, 0xb6, 0x3d, 0xe4, 0x17, 0xf7, 0xbd,
  0x8e, 0x95, 0x54, 0x3d, 0x4a, 0x43, 0x2a, 0xbe, 0x40, 0xa5, 0xb4, 0xbc,
  0xb2, 0x18, 0x2f, 0x3e, 0xb5, 0x39, 0x8e, 0xbd, 0x15, 0x95, 0x3f, 0xbe,
  0x8a, 0x4d, 0xd2, 0xbd, 0xda, 0x2f, 0xd1, 0xbd, 0x02, 0xa7, 0x85, 0xbe,
  0xa8, 0xa3, 0x97, 0x3d, 0x8e, 0x75, 0x85, 0xbd, 0xfe, 0xdf, 0xff, 0xff,
  0x10, 0x00, 0x00, 0x00, 0x09, 0x00, 0x00, 0x00, 0x1c, 0x00, 0x00, 0x00,
  0x38, 0x00, 0x00, 0x00, 0x04, 0x00, 0x00, 0x00, 0x08, 0x00, 0x00, 0x00,
  0x04, 0x00, 0x00, 0x00, 0x03, 0x00, 0x00, 0x00, 0x01, 0x00, 0x00, 0x00,
  0x18, 0x00, 0x00, 0x00, 0x73, 0x65, 0x71, 0x75, 0x65, 0x6e, 0x74, 0x69,
  0x61, 0x6c, 0x2f, 0x63, 0x6f, 0x6e, 0x76, 0x32, 0x64, 0x2f, 0x43, 0x6f,
  0x6e, 0x76, 0x32, 0x44, 0x00, 0x00, 0x00, 0x00, 0x74, 0xdf, 0xff, 0xff,
  0x7e, 0xe0, 0xff, 0xff, 0x04, 0x00, 0x00, 0x00, 0xc0, 0x00, 0x00, 0x00,
  0x91, 0xad, 0xd2, 0x3e, 0xb6, 0xef, 0x49, 0x3d, 0x65, 0x1e, 0x4d, 0x3e,
  0x36, 0x1e, 0xbd, 0x3d, 0xa0, 0xbc, 0xd3, 0x3e, 0xed, 0x95, 0x15, 0x3c,
  0x16, 0x30, 0x60, 0x3e, 0x4e, 0xb1, 0x15, 0xbe, 0xe3, 0x30, 0xb7, 0xbe,
  0x55, 0x5a, 0x09, 0xbe, 0xd2, 0x64, 0x84, 0x3e, 0x46, 0x0b, 0xfc, 0x3e,
  0x78, 0x01, 0x6b, 0x3d, 0x8e, 0x62, 0x71, 0x3e, 0xa5, 0x44, 0x0a, 0xbe,
  0xe8, 0x23, 0xf9, 0x3c, 0xdf, 0x4f, 0x93, 0x3e, 0x60, 0xe5, 0x91, 0x3e,
  0x05, 0xb8, 0xad, 0x3e, 0x1d, 0x7f, 0xcb, 0xbe, 0xe1, 0x3a, 0x2a, 0xbe,
  0x09, 0xc9, 0x85, 0x3e, 0xa4, 0xeb, 0xf6, 0xbe, 0x59, 0x55, 0x83, 0xbd,
  0x85, 0x33, 0xdc, 0x3e, 0x00, 0x04, 0x29, 0xbd, 0x9c, 0xa4, 0xf1, 0x3d,
  0x26, 0x65, 0xf3, 0x3e, 0xfe, 0x3e, 0x34, 0x3e, 0x7d, 0xaf, 0x41, 0x3e,
  0x09, 0xc3, 0x37, 0xbe, 0x42, 0xc9, 0x1d, 0x3d, 0xda, 0x7a, 0xa3, 0x3e,
  0x91, 0x22, 0x30, 0x3e, 0x37, 0x50, 0xd3, 0xbe, 0xae, 0xf0, 0xdb, 0x3d,
  0x30, 0x38, 0xb8, 0xbe, 0x75, 0x6f, 0x83, 0x3e, 0xfe, 0x7b, 0x5c, 0xbf,
  0x9e, 0x18, 0x12, 0xbe, 0xb6, 0x0d, 0xdd, 0x3e, 0xf2, 0xa4, 0x0c, 0xbe,
  0x16, 0x89, 0x2c, 0x3e, 0xda, 0xd7, 0xfa, 0x3e, 0x42, 0xbb, 0xcf, 0x3d,
  0xd1, 0x8e, 0x57, 0x3e, 0x94, 0x23, 0xa2, 0xbd, 0x79, 0xba, 0x82, 0x3d,
  0x16, 0xe1, 0xff, 0xff, 0x10, 0x00, 0x00, 0x00, 0x08, 0x00, 0x00, 0x00,
  0x14, 0x00, 0x00, 0x00, 0x30, 0x00, 0x00, 0x00, 0x02, 0x00, 0x00, 0x00,
  0x03, 0x00, 0x00, 0x00, 0x10, 0x00, 0x00, 0x00, 0x19, 0x00, 0x00, 0x00,
  0x73, 0x65, 0x71, 0x75, 0x65, 0x6e, 0x74, 0x69, 0x61, 0x6c, 0x2f, 0x64,
  0x65, 0x6e, 0x73, 0x65, 0x5f, 0x31, 0x2f, 0x4d, 0x61, 0x74, 0x4d, 0x75,
  0x6c, 0x00, 0x00, 0x00, 0x84, 0xe0, 0xff, 0xff, 0x8e, 0xe1, 0xff, 0xff,
  0x04, 0x00, 0x00, 0x00, 0x00, 0x1c, 0x00, 0x00, 0x9e, 0xcd, 0xd1, 0x3d,
  0xce, 0x0f, 0xa9, 0xbd, 0x7b, 0x13, 0xf2, 0x3d, 0x07, 0xab, 0x3f, 0x3e,
  0x8e, 0x90, 0x17, 0xbf, 0x0b, 0xbd, 0x40, 0xbf, 0x9d, 0xed, 0x66, 0xbe,
  0x94, 0xc6, 0x39, 0xbf, 0xec, 0x5e, 0x95, 0xbe, 0xb6, 0x1d, 0xbd, 0xbe,
  0xf4, 0xd6, 0x14, 0xbf, 0x3e, 0x5e, 0xc7, 0x3e, 0xde, 0x58, 0xff, 0xbd,
  0xf1, 0x4c, 0x4b, 0x3e, 0x43, 0x84, 0x8d, 0xbe, 0xa3, 0xe3, 0x0b, 0x3f,
  0xae, 0xf5, 0x8f, 0x3b, 0x99, 0x12, 0x86, 0x3f, 0x4a, 0xf3, 0x83, 0xbd,
  0x14, 0x30, 0xcd, 0x3d, 0x02, 0xff, 0x31, 0xbe, 0x91, 0x8f, 0x08, 0xbe,
  0xb9, 0x3d, 0x0b, 0xbe, 0x93, 0x33, 0x72, 0xbd, 0x99, 0x32, 0x67, 0xbe,
  0x31, 0x6c, 0xc9, 0xbe, 0xa1, 0x3e, 0x31, 0x3b, 0x28, 0x4f, 0xa5, 0xbd,
  0xaf, 0x93, 0x73, 0x3e, 0x51, 0xdf, 0xec, 0x3e, 0x93, 0xe7, 0x21, 0xbd,
  0x22, 0x81, 0xe9, 0x3e, 0xf7, 0x4d, 0xb4, 0xbd, 0x0c, 0x28, 0x66, 0x3e,
  0x2d, 0x6b, 0x12, 0xbe, 0x50, 0x25, 0xcf, 0xbd, 0x2c, 0x45, 0xd0, 0xbe,
  0x11, 0xb1, 0x36, 0x3c, 0xcc, 0xf8, 0x89, 0x3b, 0xbd, 0x07, 0xca, 0x3d,
  0x6e, 0x54, 0xd7, 0xbd, 0x4a, 0xcc, 0xc0, 0x3c, 0x23, 0x23, 0xbf, 0xbd,
  0x13, 0xcf, 0x7a, 0xbc, 0xe9, 0xb3, 0xb9, 0xbc, 0x2e, 0xf4, 0x16, 0x3f,
  0x15, 0xf0, 0x96, 0x3d, 0xe6, 0xa2, 0xfb, 0x3e, 0xd7, 0x3e, 0x39, 0xbe,
  0xf2, 0xe5, 0x44, 0x3e, 0xed, 0xe8, 0x9b, 0x3d, 0x7c, 0xcd, 0xb9, 0xbc,
  0x19, 0xb2, 0xe1, 0xbe, 0xc9, 0x31, 0x23, 0x3e, 0x20, 0x75, 0x83, 0xbd,
  0x36, 0xa9, 0xa8, 0xbc, 0x6c, 0xeb, 0xa7, 0xbd, 0x80, 0x5c, 0xa1, 0xbd,
  0xc3, 0xd8, 0xa1, 0x3a, 0xa4, 0x4c, 0xd1, 0xbc, 0x07, 0x9d, 0xed, 0xbd,
  0xe5, 0xe6, 0x3a, 0x3f, 0xc4, 0x5e, 0xba, 0x3c, 0x1e, 0xdd, 0x76, 0x3f,
  0x63, 0xe6, 0xca, 0xbe, 0x45, 0x8f, 0x85, 0x3e, 0x92, 0xe8, 0x62, 0xbe,
  0x59, 0x89, 0x27, 0x3b, 0x59, 0x58, 0xac, 0xbe, 0x2c, 0xcf, 0x12, 0x3e,
  0x70, 0xa3, 0x01, 0xbd, 0x60, 0xd8, 0xb1, 0xbc, 0xca, 0xb4, 0xcd, 0x3d,
  0x45, 0x44, 0x81, 0xbd, 0xb2, 0xb7, 0x62, 0xbc, 0x9c, 0xa4, 0x16, 0xbe,
  0xfe, 0xa8, 0xa3, 0xbc, 0xb5, 0xd4, 0x4b, 0x3f, 0x4e, 0xf4, 0x76, 0xbc,
  0xc8, 0xab, 0xb3, 0x3c, 0x7b, 0x79, 0x1e, 0xbf, 0xdc, 0xa3, 0x0c, 0x3f,
  0x75, 0x26, 0xad, 0x3d, 0xd6, 0x6a, 0xaf, 0xbd, 0x8d, 0x33, 0x22, 0xbe,
  0xb2, 0x90, 0x8b, 0x3d, 0xbf, 0xcc, 0x76, 0x3d, 0x0a, 0xf8, 0xd9, 0x3c,
  0x71, 0x2f, 0xa7, 0xbd, 0x88, 0x0e, 0xc8, 0xbd, 0x0a, 0xe5, 0xef, 0xbc,
  0x8f, 0x2b, 0x40, 0x3e, 0x47, 0x84, 0xa2, 0x3d, 0xbd, 0xc6, 0x4e, 0x3f,
  0xd4, 0xfb, 0xbb, 0x3d, 0x57, 0x80, 0x8c, 0xbd, 0x68, 0x06, 0x68, 0xbf,
  0x4e, 0x23, 0x08, 0xbe, 0x87, 0xc4, 0x16, 0xbe, 0xba, 0x5c, 0x1e, 0xbf,
  0xab, 0x26, 0x62, 0xbe, 0x0f, 0xb7, 0x5a, 0x3e, 0xf0, 0x80, 0xa5, 0x3d,
  0x51, 0x26, 0xea, 0x3d, 0x4f, 0x41, 0xb6, 0x3d, 0xa8, 0x55, 0x32, 0x3d,
  0xa5, 0x42, 0x69, 0x3e, 0x3a, 0x5e, 0x4a, 0xbf, 0x99, 0xbe, 0x78, 0x3e,
  0x2e, 0x85, 0x06, 0x3f, 0xef, 0x51, 0xd9, 0xbb, 0x55, 0x8d, 0x03, 0x3e,
  0x04, 0x18, 0x1c, 0xbe, 0x60, 0x04, 0x17, 0x3f, 0x53, 0x2a, 0xf0, 0x3e,
  0xbc, 0x25, 0xab, 0x3e, 0x74, 0xd6, 0xc6, 0xbe, 0x55, 0x82, 0x10, 0x3e,
  0x4e, 0xe3, 0x44, 0x3d, 0x80, 0x55, 0x04, 0xbf, 0x3c, 0x8d, 0x70, 0xbf,
  0x0c, 0x48, 0x17, 0xbf, 0xaa, 0x12, 0x07, 0x3e, 0x67, 0x24, 0x7c, 0x3e,
  0xf5, 0x01, 0x0d, 0xbf, 0x2e, 0x23, 0x97, 0xbe, 0xdc, 0xa0, 0x92, 0xbe,
  0x1d, 0xfd, 0x9b, 0xbc, 0x7d, 0xdc, 0xe0, 0x3d, 0x3b, 0xad, 0x0c, 0x3e,
  0x20, 0xbb, 0xaa, 0x3c, 0xc5, 0x88, 0x0a, 0x3e, 0xde, 0xcb, 0xc8, 0x3c,
  0xd6, 0x8e, 0x79, 0xbb, 0x59, 0x6d, 0x21, 0x3e, 0xaa, 0xa4, 0x1b, 0xbc,
  0x4b, 0x80, 0x86, 0xbe, 0x26, 0x5c, 0x0d, 0xbe, 0xc6, 0x5f, 0x45, 0xbd,
  0x4f, 0x64, 0xc0, 0x3d, 0xf2, 0x04, 0x5c, 0xbe, 0x07, 0x05, 0xee, 0xbc,
  0xc6, 0x8c, 0x83, 0xbc, 0xd7, 0xea, 0x70, 0xbe, 0xc5, 0xc1, 0xc7, 0xbd,
  0x6b, 0x5a, 0x12, 0x3e, 0x46, 0x50, 0xa3, 0xbc, 0xbe, 0x78, 0x9a, 0xbc,
  0xe2, 0xc1, 0xdc, 0x38, 0xb8, 0x06, 0x09, 0xbe, 0xc0, 0x36, 0x7a, 0xbe,
  0x58, 0xfc, 0x9b, 0x3b, 0xfd, 0x2b, 0x59, 0x3e, 0x06, 0xad, 0xba, 0x3d,
  0x3b, 0x05, 0xc8, 0x3d, 0x7a, 0x0f, 0x2f, 0xbd, 0x71, 0x53, 0x15, 0xbe,
  0xd0, 0x0a, 0x0d, 0xbd, 0x7b, 0xdb, 0x43, 0xbd, 0xb2, 0xb0, 0x1a, 0x3e,
  0xbd, 0xc8, 0x07, 0x3d, 0xe9, 0xfe, 0x32, 0x3e, 0x9a, 0xce, 0xde, 0x3d,
  0x32, 0xf1, 0xb4, 0x3d, 0xa3, 0x99, 0x96, 0x3d, 0x00, 0x44, 0x19, 0xbe,
  0xeb, 0x21, 0x0b, 0xbe, 0x9d, 0x64, 0xdb, 0xbd, 0x88, 0xb0, 0x60, 0xbb,
  0x65, 0xef, 0x56, 0x3d, 0xd0, 0x81, 0x1f, 0xbe, 0x65, 0xf7, 0xdc, 0xbd,
  0x14, 0xf3, 0x11, 0x3e, 0xf6, 0x56, 0xf6, 0xbd, 0x37, 0x2d, 0x3e, 0xbd,
  0xce, 0xae, 0x14, 0xbd, 0xe5, 0xbc, 0xbc, 0x3d, 0x80, 0x61, 0x96, 0x3e,
  0x88, 0x22, 0x71, 0xbd, 0xa0, 0x29, 0xd0, 0xbd, 0x5f, 0x21, 0xe1, 0x3d,
  0xda, 0x88, 0xd2, 0xbd, 0xe6, 0x49, 0xc5, 0xbe, 0x59, 0xfc, 0x5d, 0xbc,
  0x27, 0x62, 0x22, 0x3e, 0x58, 0x88, 0x1b, 0x3e, 0xf9, 0xcc, 0xb1, 0xbd,
  0xc9, 0x1e, 0x40, 0x3d, 0x51, 0x5d, 0xed, 0xbd, 0x79, 0x3f, 0xa8, 0xbd,
  0x29, 0x9b, 0x3d, 0x3d, 0xfe, 0x01, 0x19, 0x3c, 0x29, 0x85, 0x1a, 0x3e,
  0xef, 0x4b, 0xc2, 0x3d, 0x13, 0x9a, 0x36, 0x3d, 0x20, 0x3f, 0x5e, 0xbe,
  0x69, 0x89, 0x98, 0x3d, 0x21, 0xb6, 0xcf, 0xbd, 0x30, 0x07, 0xcf, 0xbe,
  0xd7, 0x52, 0x82, 0xbd, 0x80, 0x5c, 0xb3, 0x3d, 0x28, 0x54, 0x9c, 0x3d,
  0xc8, 0x52, 0xe9, 0xbd, 0x9b, 0x23, 0x8a, 0xbe, 0xc0, 0xa9, 0x49, 0x3e,
  0xce, 0x6b, 0x21, 0x3e, 0x65, 0xe8, 0xff, 0x3a, 0x1c, 0x06, 0x0b, 0xbd,
  0x62, 0xb7, 0x1e, 0xbe, 0x94, 0xa1, 0x18, 0xbf, 0x24, 0x32, 0x1b, 0xbe,
  0x33, 0x30, 0x51, 0xbe, 0xa7, 0x25, 0xcd, 0x3b, 0x88, 0xdc, 0x89, 0xbd,
  0x27, 0x67, 0x40, 0xbe, 0xf3, 0xa0, 0xb9, 0x3d, 0x84, 0x41, 0xc6, 0x3c,
  0xbb, 0x1f, 0xaf, 0xbc, 0x3e, 0xda, 0xc0, 0xbe, 0x9c, 0xe7, 0x0f, 0xbe,
  0x1c, 0x47, 0xfc, 0xbb, 0x77, 0x34, 0x86, 0x3d, 0xae, 0x8c, 0xb5, 0xbc,
  0x14, 0x01, 0x58, 0xbe, 0x2e, 0xaf, 0x23, 0x3d, 0x0d, 0x45, 0xf4, 0xbd,
  0xcc, 0xc6, 0x82, 0x3d, 0xa1, 0x10, 0x9f, 0x3d, 0x64, 0x5e, 0x90, 0xbe,
  0x99, 0x03, 0xcb, 0xbd, 0x12, 0xcf, 0x6f, 0xbe, 0xbb, 0x2e, 0x1d, 0xbe,
  0x32, 0xfd, 0xb4, 0xbb, 0x03, 0x77, 0x50, 0xbd, 0x4c, 0x31, 0xd5, 0x3d,
  0x22, 0xc5, 0x9d, 0x3d, 0xb5, 0x74, 0x21, 0xbe, 0x09, 0xd8, 0x12, 0xbe,
  0x4d, 0x1a, 0x7b, 0xbd, 0xd0, 0x59, 0x3d, 0xbc, 0x63, 0xd3, 0x8e, 0x3d,
  0xb2, 0x67, 0x13, 0x3d, 0xd3, 0x59, 0x6f, 0xbc, 0x4f, 0xe7, 0x51, 0xbd,
  0x8e, 0x12, 0x8b, 0xbe, 0x39, 0x54, 0x73, 0xbe, 0x06, 0x3c, 0x64, 0xbc,
  0xa8, 0x4c, 0x11, 0xbc, 0xf7, 0x40, 0x94, 0xbd, 0x54, 0x7f, 0x2f, 0xbd,
  0x5a, 0x6d, 0xb1, 0x3c, 0xb8, 0xfe, 0x6b, 0xbe, 0xe7, 0xc4, 0x80, 0xbd,
  0x90, 0x4d, 0xe1, 0xbd, 0x4d, 0xb7, 0x3b, 0xbe, 0x59, 0x45, 0x54, 0x3e,
  0xc6, 0xbf, 0x33, 0xbe, 0xc1, 0x30, 0xee, 0x3b, 0x57, 0x5c, 0x3e, 0xbe,
  0xb1, 0x1d, 0xde, 0x3d, 0x84, 0xe9, 0xcb, 0xbd, 0xd3, 0xf9, 0xa8, 0xbd,
  0x47, 0x65, 0x31, 0xbe, 0x07, 0xb2, 0xaa, 0x3d, 0xa4, 0x5a, 0xc6, 0x3c,
  0xe3, 0x00, 0xb1, 0xbd, 0x50, 0x5e, 0x67, 0xbe, 0x1e, 0x4e, 0x37, 0xbe,
  0xc7, 0x91, 0x2e, 0x3e, 0x08, 0x94, 0x03, 0xbe, 0x64, 0x68, 0x0b, 0x3d,
  0x99, 0xe4, 0x32, 0x3e, 0xa5, 0xfd, 0x31, 0xbe, 0x05, 0x11, 0xf5, 0x3d,
  0xca, 0x63, 0x03, 0xbe, 0x8d, 0xfc, 0x0f, 0x3e, 0x49, 0xb8, 0xd7, 0xbd,
  0x01, 0xfb, 0x17, 0xbd, 0x88, 0x08, 0x27, 0xbe, 0x2c, 0x98, 0x2b, 0x3d,
  0xec, 0x73, 0x9a, 0x3d, 0x4d, 0x6b, 0xdc, 0xba, 0x66, 0xd5, 0x14, 0xbe,
  0x7b, 0x40, 0x9e, 0xba, 0xaa, 0xe1, 0x71, 0xbe, 0x25, 0x3f, 0x73, 0x3d,
  0xcd, 0x74, 0xd9, 0xbc, 0x15, 0x23, 0x4e, 0x3e, 0x58, 0xd7, 0xb2, 0xbd,
  0xb6, 0x35, 0x95, 0x3d, 0xd0, 0x27, 0x0e, 0x3c, 0xe6, 0x52, 0x33, 0xbe,
  0x29, 0x60, 0x38, 0xbe, 0x5d, 0x48, 0x57, 0xbe, 0xd9, 0xdb, 0x53, 0xbe,
  0x17, 0xf8, 0x47, 0x3c, 0x29, 0x0c, 0xe1, 0xbd, 0xcd, 0x29, 0x32, 0xbe,
  0xe9, 0xf7, 0x3e, 0xbe, 0xf9, 0xf0, 0x17, 0x3e, 0x08, 0x90, 0xa5, 0x3b,
  0x9d, 0xcd, 0xed, 0xbd, 0xed, 0xe0, 0x43, 0xbd, 0x94, 0xff, 0x43, 0xbe,
  0xb6, 0x6d, 0xc4, 0x3d, 0x93, 0x59, 0x47, 0xbe, 0xf0, 0x49, 0x99, 0x3d,
  0x41, 0x4d, 0x7f, 0xbe, 0x25, 0x52, 0x49, 0xbe, 0xd3, 0xd9, 0x64, 0x3d,
  0x7e, 0x85, 0x17, 0xbd, 0xe5, 0xb1, 0xc7, 0xbd, 0x76, 0x3f, 0x0a, 0xbe,
  0xb6, 0xf6, 0xe0, 0xbd, 0xac, 0x57, 0x3f, 0x3d, 0x9f, 0x8d, 0xbe, 0xbc,
  0xbf, 0xce, 0x6c, 0xbe, 0xf7, 0x99, 0x90, 0x3d, 0x21, 0x12, 0x1b, 0xbc,
  0x2c, 0x7d, 0x23, 0x3d, 0xc5, 0xd1, 0xb4, 0xbd, 0x32, 0x7f, 0x4b, 0xbe,
  0x17, 0xc0, 0xaa, 0xbd, 0x47, 0xc8, 0xe8, 0xbc, 0xa4, 0xb7, 0x9c, 0xbe,
  0xc0, 0x89, 0xba, 0x3b, 0xce, 0x1f, 0x74, 0xbe, 0x55, 0x95, 0xf1, 0xbd,
  0xf4, 0x42, 0x3b, 0xbe, 0xcf, 0xdc, 0x9a, 0xbd, 0x3d, 0x3f, 0xc8, 0xbd,
  0x61, 0x0d, 0x83, 0xbd, 0xb5, 0x09, 0x84, 0x3d, 0xff, 0xa1, 0xde, 0xba,
  0x68, 0xd5, 0x79, 0xbd, 0x16, 0x47, 0x1d, 0xbe, 0x67, 0x69, 0x02, 0xbe,
  0x97, 0x29, 0x8b, 0xbd, 0xff, 0x00, 0x10, 0xbe, 0x16, 0x22, 0xbe, 0xbd,
  0x90, 0x14, 0x2b, 0x3e, 0xde, 0x37, 0xb1, 0xbd, 0x3c, 0x6c, 0x18, 0xbe,
  0xe0, 0xd3, 0x0e, 0x3e, 0xd6, 0x2c, 0x73, 0x3e, 0x72, 0x62, 0x19, 0x3e,
  0x0b, 0x4d, 0xb4, 0x3e, 0xde, 0x95, 0xd1, 0x3d, 0x35, 0xa4, 0x4d, 0x3e,
  0x5d, 0xd4, 0xc9, 0x3d, 0x33, 0x4d, 0xc8, 0x3d, 0xca, 0xb0, 0x54, 0x3d,
  0x58, 0xe0, 0x25, 0xbe, 0xbb, 0x0e, 0x09, 0x3e, 0x8b, 0xb8, 0x88, 0x3e,
  0x23, 0x9c, 0x12, 0xbe, 0x29, 0x23, 0xbd, 0x3c, 0x8e, 0x4b, 0x17, 0x3e,
  0xa9, 0x33, 0xb0, 0xbd, 0xec, 0x5a, 0x27, 0x3d, 0x9a, 0xa1, 0x34, 0x3e,
  0x54, 0x23, 0x89, 0x3d, 0x4c, 0x34, 0x25, 0xbd, 0xd0, 0xc4, 0xe7, 0x3c,
  0x3b, 0x7b, 0x15, 0x3e, 0x4c, 0xeb, 0x39, 0x3d, 0x90, 0x8c, 0xe6, 0xbd,
  0x55, 0xe2, 0x0e, 0xbe, 0x8e, 0x39, 0x83, 0xbe, 0x01, 0xab, 0xf5, 0x3d,
  0xf1, 0x72, 0xf3, 0x3e, 0xc3, 0x0f, 0x85, 0xbe, 0x34, 0x90, 0x01, 0xbe,
  0x9e, 0x4b, 0x84, 0x3c, 0x83, 0xc5, 0x10, 0x3d, 0x96, 0x68, 0x9d, 0xbc,
  0x88, 0xc3, 0x70, 0xbd, 0x56, 0x28, 0xb7, 0x3c, 0x35, 0x56, 0x5b, 0x3e,
  0xbf, 0x5e, 0xce, 0x3d, 0xcf, 0x47, 0x76, 0x3d, 0xcd, 0x46, 0xbb, 0x3b,
  0xf7, 0x23, 0x57, 0xbe, 0xdb, 0xd0, 0xcf, 0x3d, 0x98, 0xd5, 0x6d, 0x3c,
  0x15, 0x7d, 0x1b, 0x3e, 0xc8, 0xbd, 0x83, 0x3e, 0x0b, 0x6b, 0x4d, 0xbe,
  0x56, 0x52, 0x42, 0x3e, 0x1a, 0x85, 0x15, 0x3d, 0x10, 0x75, 0x86, 0xbe,
  0x4c, 0xc8, 0xab, 0xbe, 0x9f, 0xe5, 0x1f, 0xbe, 0xd5, 0x5b, 0x95, 0xbd,
  0x65, 0xa9, 0xb1, 0x3e, 0xf8, 0x36, 0xcd, 0xbd, 0x65, 0xfb, 0x47, 0x3e,
  0x46, 0x8d, 0x9f, 0x3d, 0x39, 0xb8, 0x8e, 0xbe, 0x8f, 0xd1, 0xab, 0xbe,
  0x10, 0x89, 0x12, 0x3e, 0x1e, 0x2c, 0x96, 0xbd, 0xb4, 0xbf, 0xfa, 0x3e,
  0x4a, 0x76, 0x04, 0xbe, 0xb7, 0x78, 0xaf, 0xbd, 0xd1, 0xd4, 0xad, 0x3d,
  0x3d, 0x6b, 0x46, 0xbe, 0xab, 0xb6, 0x82, 0xbc, 0x5b, 0x8c, 0xe9, 0xbd,
  0x52, 0x41, 0x7a, 0x3e, 0x9d, 0xf6, 0xaa, 0x3d, 0xf0, 0x3c, 0x0b, 0x3d,
  0x23, 0xcb, 0xc7, 0x3e, 0x0d, 0x7a, 0x42, 0xbd, 0xc6, 0x41, 0x3f, 0xbe,
  0x4a, 0xc8, 0x2f, 0x3e, 0xba, 0x7d, 0x6d, 0x3d, 0xe6, 0xe5, 0xba, 0xbd,
  0xa4, 0x58, 0x1b, 0x3e, 0x66, 0xa3, 0xd7, 0xbb, 0xa0, 0x89, 0x7f, 0xbe,
  0x3a, 0x38, 0x09, 0x3e, 0x2c, 0x82, 0xcb, 0xbb, 0x9b, 0x0e, 0xa4, 0xbe,
  0xc2, 0xe3, 0x4c, 0xbd, 0x40, 0x57, 0x8a, 0x3c, 0xa8, 0x11, 0x1f, 0x3e,
  0x5e, 0xc8, 0x32, 0x3d, 0x18, 0x32, 0x86, 0x3e, 0x9a, 0xb9, 0x2b, 0x3b,
  0xb0, 0xba, 0x5a, 0xbe, 0xc0, 0x95, 0x72, 0xbe, 0x9c, 0x5e, 0xda, 0xbc,
  0x8b, 0x39, 0x38, 0x3e, 0xb0, 0x22, 0xa3, 0x3d, 0x28, 0x32, 0x8f, 0x3e,
  0x15, 0x0e, 0xf8, 0xbd, 0xe9, 0xde, 0x7b, 0xbe, 0x23, 0x06, 0x27, 0x3e,
  0x90, 0xa7, 0x84, 0xbe, 0x75, 0x7f, 0x55, 0xbe, 0xc5, 0x46, 0xbd, 0xbe,
  0x45, 0x0f, 0x90, 0xbd, 0xbb, 0xd9, 0x4b, 0x3e, 0xdf, 0x33, 0xc5, 0x3e,
  0xfe, 0x58, 0x3d, 0xbd, 0x1c, 0x3a, 0x85, 0xbe, 0x0c, 0x7c, 0x68, 0x3e,
  0xdd, 0xbb, 0xc9, 0x3b, 0xa1, 0x35, 0xa8, 0x3d, 0xff, 0x9e, 0xe9, 0x3c,
  0xde, 0x1f, 0x0d, 0xbe, 0xa1, 0x29, 0xcc, 0xbd, 0xe0, 0xbe, 0x8e, 0xbe,
  0x88, 0xf7, 0xfe, 0x3c, 0xcd, 0x9a, 0x8d, 0x3c, 0x94, 0xf9, 0x4c, 0xbe,
  0x5a, 0x7c, 0x32, 0xbe, 0x03, 0x3c, 0x12, 0xbd, 0x9d, 0x3c, 0x78, 0xbc,
  0x09, 0x77, 0x40, 0xbe, 0x29, 0x7b, 0x89, 0xbe, 0x05, 0x57, 0x28, 0xbd,
  0xda, 0x6a, 0xfb, 0x3d, 0x4a, 0xf0, 0xe2, 0x3d, 0x1e, 0x56, 0xd0, 0x3d,
  0x36, 0x12, 0x15, 0xbe, 0x26, 0x00, 0x99, 0x3d, 0x4e, 0xfc, 0x2c, 0xbe,
  0x81, 0x13, 0xbe, 0x3d, 0x2f, 0xac, 0x6e, 0xbe, 0x4d, 0x86, 0x43, 0x3d,
  0x0f, 0x13, 0x7e, 0xbe, 0xe9, 0x89, 0x52, 0xbe, 0xa7, 0x1a, 0x93, 0x3d,
  0x15, 0xae, 0x56, 0xbb, 0xcf, 0x84, 0x24, 0xbc, 0x9c, 0x07, 0xe1, 0xbd,
  0x04, 0xe6, 0x05, 0xbe, 0x1a, 0x86, 0x2d, 0xbd, 0x6c, 0x87, 0xc0, 0xbd,
  0x3c, 0x54, 0x3a, 0xbd, 0xcc, 0x2a, 0xb3, 0x3b, 0x13, 0x1e, 0x39, 0xbe,
  0xe3, 0xdd, 0x76, 0xbe, 0x94, 0x8a, 0xd8, 0x3d, 0xa3, 0xcd, 0x72, 0xbe,
  0x69, 0x1e, 0x58, 0xbd, 0xff, 0xb1, 0x29, 0xbe, 0x12, 0x8f, 0x83, 0xbe,
  0xe7, 0xdb, 0xcd, 0x3d, 0x4b, 0xac, 0xf7, 0xbd, 0x3d, 0x42, 0x3d, 0x3e,
  0x0a, 0x2f, 0x0c, 0xbe, 0x22, 0xe3, 0x4d, 0xbe, 0xc8, 0xdf, 0x86, 0xbc,
  0xa3, 0x54, 0xdd, 0xbd, 0x2a, 0x30, 0xb0, 0xbd, 0x26, 0x1c, 0xe2, 0x3d,
  0xa7, 0xbc, 0x47, 0xbd, 0x29, 0xba, 0x62, 0xbd, 0x65, 0x61, 0x8b, 0xbd,
  0x39, 0x49, 0x8a, 0x3d, 0x0e, 0x76, 0x58, 0xbe, 0xc3, 0xb0, 0x6f, 0xbe,
  0xb6, 0xfd, 0x69, 0xbe, 0x23, 0x75, 0x30, 0x3d, 0x3a, 0x32, 0x1e, 0xbd,
  0x94, 0xd2, 0x3a, 0x3e, 0x62, 0x97, 0x7b, 0xbe, 0x83, 0x23, 0xe9, 0xbd,
  0xfb, 0x8b, 0x4c, 0x3e, 0xb9, 0x54, 0xef, 0x3d, 0xe7, 0x54, 0x8f, 0xbd,
  0x30, 0x97, 0x03, 0x3e, 0x8d, 0xbc, 0xa6, 0x3b, 0x3c, 0x5d, 0xd0, 0x3d,
  0x2c, 0x67, 0x18, 0xbe, 0xcc, 0x97, 0x30, 0xbe, 0xa0, 0x4b, 0x18, 0x3d,
  0x58, 0x59, 0xea, 0xbd, 0x4a, 0xea, 0xa1, 0x3d, 0x99, 0x2f, 0x03, 0x3e,
  0xbf, 0x77, 0x90, 0xbd, 0x81, 0x30, 0xb4, 0x3d, 0x5c, 0x06, 0xad, 0xbd,
  0x67, 0x2c, 0x52, 0xbd, 0xa1, 0x13, 0x46, 0x3e, 0x39, 0xcf, 0x6c, 0xbe,
  0xe8, 0x95, 0xee, 0x3d, 0xa5, 0x7e, 0x2e, 0xbe, 0xba, 0xaa, 0x51, 0xbe,
  0x49, 0x58, 0x84, 0xbe, 0x42, 0x42, 0x6f, 0xbe, 0xb2, 0x92, 0x24, 0xbe,
  0x6c, 0x16, 0xca, 0xbd, 0x5d, 0xee, 0x8f, 0xbc, 0xd3, 0x74, 0x48, 0xbe,
  0xe9, 0x61, 0xec, 0xbb, 0x5c, 0xef, 0x6e, 0xbe, 0x3a, 0xed, 0x54, 0xbd,
  0xd1, 0x8c, 0x95, 0x3d, 0xd6, 0x9b, 0x1b, 0xbe, 0x04, 0x41, 0x61, 0x3d,
  0xe4, 0xc7, 0xa7, 0x3d, 0x62, 0xc1, 0xb6, 0xbd, 0xd4, 0x05, 0x45, 0x3c,
  0x93, 0xf5, 0x54, 0xbe, 0x9c, 0x71, 0x57, 0xbe, 0xe1, 0xc8, 0x38, 0xbe,
  0xfe, 0x31, 0x9e, 0xbc, 0x74, 0x4c, 0x5a, 0xbe, 0x4c, 0x12, 0x04, 0xbe,
  0x50, 0xb0, 0x88, 0xbe, 0x59, 0x20, 0xa9, 0xbc, 0x28, 0xb3, 0x37, 0xbc,
  0x22, 0xd1, 0x45, 0xbe, 0x82, 0xf5, 0xa9, 0x3c, 0x08, 0x25, 0x50, 0xbe,
  0xa3, 0xb8, 0xf7, 0xbd, 0x14, 0x5b, 0xa9, 0xbd, 0x68, 0x79, 0x7f, 0xbe,
  0x60, 0xbb, 0xc8, 0xbe, 0x60, 0x53, 0xbe, 0xbe, 0x64, 0x7a, 0x1d, 0x3e,
  0xdb, 0x7c, 0x19, 0xbd, 0x29, 0x31, 0x61, 0xbe, 0xf0, 0xc1, 0xac, 0x3d,
  0x00, 0xce, 0xcd, 0x3e, 0x32, 0x9f, 0xdd, 0x3d, 0x6c, 0x0d, 0xb2, 0xbd,
  0xb5, 0xed, 0xcf, 0xbd, 0xe8, 0x78, 0xa2, 0x3e, 0xbd, 0xc4, 0xad, 0xbd,
  0xbd, 0x09, 0x2d, 0x3c, 0x40, 0x0f, 0x5c, 0x3e, 0x93, 0x70, 0x5c, 0xbe,
  0xfd, 0x21, 0xe9, 0xbd, 0xe5, 0x1e, 0xce, 0x3d, 0x72, 0x2e, 0x8f, 0x3d,
  0x09, 0x5c, 0x72, 0xbd, 0x38, 0xb3, 0x1c, 0x3d, 0x00, 0xbb, 0x9f, 0xbd,
  0xef, 0x8b, 0x9d, 0xbd, 0xd7, 0x15, 0xe7, 0xbc, 0x99, 0x49, 0xc6, 0x3e,
  0x4d, 0xd3, 0xe7, 0x3d, 0xc7, 0x4b, 0xb1, 0x3b, 0x40, 0xcd, 0x7b, 0x3e,
  0xc2, 0xcb, 0xc3, 0xbd, 0x9a, 0xdd, 0x86, 0xbd, 0xa7, 0x4a, 0x97, 0xbd,
  0xfd, 0xfe, 0xad, 0xbe, 0x24, 0xad, 0x7a, 0x3e, 0x67, 0x4f, 0xba, 0x3d,
  0xbb, 0xa9, 0x0a, 0x3e, 0x7b, 0x3f, 0xa5, 0xbc, 0x2a, 0x67, 0x68, 0x3d,
  0x81, 0x13, 0x76, 0x3d, 0xa3, 0x64, 0x3b, 0x3c, 0x35, 0xbf, 0x35, 0xbd,
  0x11, 0x1d, 0xb7, 0x3d, 0x31, 0x29, 0x2f, 0xbc, 0x9e, 0xb2, 0xfe, 0xbd,
  0x0b, 0xfa, 0x36, 0x3d, 0x76, 0x2e, 0x15, 0xbc, 0x1a, 0xbc, 0x45, 0xbe,
  0x82, 0x3b, 0xf6, 0xbc, 0x42, 0xfa, 0x4a, 0x3e, 0x05, 0xde, 0x65, 0x3c,
  0xdc, 0x59, 0xa4, 0x3e, 0x6b, 0x4b, 0xbe, 0xbe, 0x79, 0xfe, 0x51, 0xbc,
  0x52, 0xb8, 0xc7, 0xbd, 0x71, 0x5b, 0xf8, 0x3d, 0x68, 0x47, 0x16, 0x3c,
  0xb5, 0xd5, 0xc5, 0x3d, 0x2c, 0x2e, 0x44, 0x3e, 0xfd, 0xde, 0x41, 0xbe,
  0x99, 0xaf, 0x5e, 0xbe, 0x6d, 0xbf, 0xab, 0x3e, 0x04, 0x1a, 0xd4, 0xbd,
  0x9a, 0xe7, 0xcb, 0xbd, 0x34, 0x36, 0xa1, 0x3d, 0xfb, 0xfe, 0x88, 0xbe,
  0xab, 0x9f, 0x41, 0x3e, 0xd5, 0x4f, 0xdd, 0x3b, 0x70, 0xe0, 0x1a, 0xbe,
  0xc6, 0x8f, 0xb7, 0x3c, 0x18, 0x61, 0x13, 0xbc, 0xd4, 0xc5, 0x0b, 0xbd,
  0xab, 0xbe, 0x33, 0xbd, 0x77, 0x36, 0x01, 0xbd, 0xd9, 0xbf, 0x44, 0x3c,
  0x4d, 0xff, 0x58, 0xbe, 0x55, 0x3a, 0x85, 0xbe, 0xd9, 0x6e, 0x39, 0x3e,
  0xc9, 0xce, 0xe3, 0xbc, 0xbd, 0x74, 0x82, 0xbe, 0xd5, 0x10, 0xf6, 0x3c,
  0x61, 0x7a, 0x4b, 0xbe, 0x8b, 0x4b, 0x50, 0xbe, 0x4c, 0x14, 0x86, 0xbd,
  0xdf, 0x5d, 0x4b, 0x3e, 0xf3, 0xde, 0xeb, 0x3c, 0xc9, 0x23, 0x5b, 0x3d,
  0xe1, 0x87, 0x34, 0xbe, 0xaf, 0x63, 0x2c, 0xbe, 0xa7, 0xfb, 0xca, 0x3d,
  0x92, 0x9d, 0x97, 0x3d, 0x98, 0xb5, 0xfc, 0xbc, 0xf1, 0x95, 0xd1, 0xbe,
  0xc1, 0x90, 0xb9, 0x3e, 0x35, 0xfc, 0x2e, 0xbe, 0x25, 0xfb, 0x60, 0x3c,
  0x40, 0x91, 0xa3, 0xbc, 0x22, 0x96, 0xf9, 0x3d, 0x47, 0x3b, 0xb5, 0x3d,
  0x2d, 0x59, 0xb9, 0x3e, 0xee, 0xcb, 0xc4, 0x3c, 0x67, 0xef, 0xfb, 0x3c,
  0x05, 0xd3, 0x27, 0xbe, 0xaf, 0x54, 0x37, 0xbe, 0x1b, 0xc8, 0x81, 0xbe,
  0x66, 0x73, 0x70, 0x3d, 0xbd, 0xc0, 0x06, 0x3c, 0xb1, 0x97, 0xf1, 0xb9,
  0x57, 0x1f, 0x35, 0x3e, 0xee, 0xb4, 0xa4, 0x3e, 0x39, 0x45, 0xbf, 0xbb,
  0xde, 0xe4, 0x0e, 0xbe, 0x2c, 0x04, 0x3f, 0x3d, 0xe2, 0xb8, 0xc3, 0x3d,
  0xe7, 0x34, 0x9e, 0x3e, 0xac, 0x66, 0xb6, 0xbe, 0xab, 0x3b, 0xab, 0xbd,
  0x45, 0x2d, 0x26, 0xbe, 0x67, 0x5e, 0x04, 0xbd, 0xf5, 0xfe, 0x63, 0xbe,
  0x1e, 0x3c, 0xad, 0x3d, 0x19, 0x64, 0x74, 0xbe, 0x68, 0x53, 0x3f, 0xbe,
  0xa7, 0xca, 0x41, 0xbd, 0x51, 0xc9, 0x9e, 0xbe, 0x74, 0x2f, 0x45, 0xbe,
  0x29, 0xb3, 0x0f, 0x3e, 0xe8, 0x24, 0x92, 0xbe, 0xef, 0x8a, 0x11, 0x3f,
  0x5f, 0x46, 0x03, 0xbe, 0x51, 0xf5, 0xa4, 0x3f, 0xd4, 0xdd, 0x72, 0xbe,
  0xda, 0xf3, 0x75, 0xbe, 0x53, 0x29, 0x3d, 0xbe, 0x9b, 0x2c, 0x86, 0x3d,
  0x9c, 0x04, 0xb2, 0xbe, 0xbb, 0xae, 0xb9, 0x3d, 0x7e, 0x81, 0x7a, 0x3d,
  0x32, 0x96, 0x62, 0xbe, 0x77, 0x0e, 0x04, 0xbd, 0x54, 0x0c, 0x82, 0xbe,
  0xea, 0xa1, 0x31, 0xbe, 0x65, 0x70, 0x2c, 0x3d, 0x03, 0xdf, 0x01, 0xbe,
  0xe5, 0x56, 0xed, 0x3e, 0x10, 0xc5, 0x56, 0xbe, 0x20, 0x4a, 0x81, 0x3f,
  0x7b, 0x08, 0xac, 0x3d, 0x2e, 0xe4, 0x4e, 0xbd, 0x3e, 0x78, 0x71, 0xbe,
  0xcb, 0x87, 0xd5, 0xbd, 0xc9, 0x13, 0x3c, 0xbb, 0xc4, 0xf0, 0x2b, 0x3e,
  0xb2, 0x10, 0x05, 0xbe, 0x7a, 0x16, 0xe6, 0xbd, 0x48, 0xd8, 0xe6, 0xbd,
  0x47, 0x71, 0x4a, 0xbd, 0x30, 0xe4, 0x74, 0x3d, 0x17, 0xfd, 0xc2, 0x3e,
  0xd3, 0x8f, 0x46, 0xbe, 0x0d, 0x5b, 0x17, 0x3f, 0x50, 0xf0, 0x8a, 0xbe,
  0x05, 0x39, 0x2f, 0x3f, 0x16, 0x0a, 0x68, 0x3d, 0x3b, 0x71, 0x96, 0xbe,
  0xc1, 0x7b, 0x2e, 0xbc, 0x99, 0x25, 0xe2, 0xbd, 0x06, 0xd7, 0xb3, 0xbe,
  0x58, 0x28, 0x27, 0xbd, 0x77, 0xcf, 0xa7, 0xbe, 0x3d, 0xc6, 0xc8, 0xbe,
  0x87, 0xca, 0x9b, 0x3c, 0xa9, 0x57, 0x99, 0x3d, 0xe8, 0x47, 0x05, 0x3e,
  0xc0, 0x1b, 0x9f, 0x3e, 0x7e, 0x9d, 0x7d, 0xbe, 0x27, 0xbf, 0x17, 0x3f,
  0xc6, 0xac, 0x04, 0xbe, 0xb8, 0xc5, 0x2f, 0x3f, 0x98, 0x90, 0x71, 0xbe,
  0xf2, 0xef, 0x83, 0xbe, 0xee, 0x15, 0x59, 0xbe, 0xeb, 0xf6, 0x80, 0x3d,
  0xea, 0x8b, 0x45, 0xbe, 0xbc, 0xa2, 0xd2, 0x3d, 0xef, 0x55, 0x68, 0xbe,
  0xd5, 0x33, 0x60, 0x3d, 0x6c, 0x02, 0x41, 0xbc, 0x6c, 0x86, 0x90, 0xbe,
  0x98, 0xa7, 0x2a, 0xbe, 0xcd, 0xf5, 0xdb, 0x3e, 0xa4, 0x84, 0x75, 0xbe,
  0x4b, 0xd8, 0xf5, 0x3e, 0x9a, 0xd4, 0xef, 0x3d, 0x2d, 0x76, 0x1f, 0x3f,
  0x87, 0xb5, 0x40, 0xbd, 0xd5, 0x71, 0x54, 0xbe, 0xf3, 0x5e, 0x03, 0xbe,
  0xd0, 0x28, 0x5d, 0xbd, 0x90, 0xf0, 0x8e, 0xbe, 0xa0, 0xa2, 0x53, 0x3d,
  0xbe, 0x9e, 0x8b, 0xbd, 0xfc, 0x79, 0x41, 0xbe, 0x00, 0x59, 0x39, 0xbe,
  0xea, 0x9c, 0xc9, 0x3d, 0x24, 0x79, 0xa0, 0x3d, 0x5d, 0x2c, 0x04, 0xbe,
  0x42, 0x6c, 0x42, 0xbe, 0xac, 0x45, 0x3a, 0x3f, 0xd2, 0x56, 0x26, 0x3e,
  0x0c, 0x25, 0x73, 0x3e, 0x5e, 0x64, 0xb4, 0x3d, 0x55, 0x28, 0xf7, 0xbd,
  0x5b, 0x5d, 0x87, 0xbe, 0x17, 0x8c, 0x31, 0xbc, 0x3d, 0xa2, 0x45, 0xbe,
  0x4f, 0x24, 0x19, 0x3d, 0x82, 0x8c, 0x7f, 0xbe, 0x45, 0xf2, 0x94, 0xbe,
  0x7d, 0xde, 0xa3, 0x3b, 0x93, 0x96, 0x22, 0xbe, 0xc2, 0xc4, 0x24, 0x3e,
  0x8d, 0x65, 0x03, 0x3e, 0xbc, 0x1b, 0xb4, 0xbe, 0xe3, 0xd7, 0xdd, 0x3e,
  0x2c, 0xb3, 0xa7, 0xbe, 0xa0, 0x77, 0xf2, 0x3d, 0x93, 0xf4, 0x07, 0x3e,
  0x64, 0x51, 0xa4, 0x3e, 0x74, 0x5b, 0xd0, 0xbe, 0x3b, 0x99, 0x96, 0x3d,
  0xc3, 0x38, 0x0e, 0x3d, 0x3e, 0x08, 0xdb, 0xbe, 0x86, 0x48, 0x33, 0xbf,
  0xf2, 0x43, 0xe5, 0xbe, 0x80, 0x8b, 0x5f, 0xbb, 0xf6, 0x4c, 0x82, 0x3e,
  0x58, 0xf4, 0xc5, 0xbd, 0x33, 0x03, 0x59, 0x3e, 0xb1, 0x5c, 0x2b, 0xbe,
  0x78, 0x3a, 0xc3, 0x3e, 0x48, 0xbd, 0x9a, 0x3d, 0xdd, 0x5c, 0x73, 0x3e,
  0xc1, 0xfb, 0x0d, 0xbe, 0xf6, 0x77, 0xd6, 0xbc, 0x0c, 0xb7, 0x00, 0xbe,
  0x34, 0x68, 0x18, 0xbe, 0x3b, 0xfb, 0x48, 0x3d, 0xa1, 0x88, 0xb0, 0xbd,
  0x51, 0xe8, 0xc4, 0xbe, 0xa2, 0x80, 0xd2, 0xbe, 0x22, 0x99, 0xba, 0x3b,
  0xc9, 0x11, 0x80, 0xbd, 0x76, 0x0c, 0x74, 0xbe, 0xa4, 0x70, 0xa6, 0x3e,
  0x84, 0x97, 0x06, 0xbe, 0x07, 0xb7, 0x31, 0x3d, 0x7e, 0x5d, 0x84, 0xbd,
  0xd1, 0xc5, 0x54, 0x3e, 0x79, 0xdf, 0xa9, 0xbd, 0x11, 0x13, 0x12, 0x3e,
  0x72, 0x3e, 0x0d, 0x3e, 0xe1, 0x74, 0x90, 0x3d, 0x8d, 0xaf, 0xa3, 0xbd,
  0xe5, 0x8b, 0x81, 0x3b, 0x3c, 0x03, 0xf1, 0x3c, 0x5c, 0xea, 0x50, 0xbe,
  0xf0, 0xc5, 0xfd, 0x3d, 0x03, 0xb1, 0xcd, 0xbd, 0x64, 0xf1, 0x86, 0xbe,
  0x0b, 0x3a, 0x61, 0x3e, 0x86, 0xc3, 0x36, 0xbe, 0x1d, 0x39, 0xc2, 0x3e,
  0x71, 0x7b, 0xb8, 0xbd, 0x56, 0x35, 0xbc, 0x3e, 0x10, 0x05, 0x62, 0x3e,
  0x7e, 0x59, 0xd3, 0x3b, 0xfd, 0xbc, 0xd2, 0x3c, 0x93, 0xb1, 0x4d, 0xbd,
  0x7a, 0x2a, 0x9a, 0xbd, 0x0e, 0x51, 0x24, 0xbb, 0x77, 0x1e, 0x9e, 0x3d,
  0xc3, 0x72, 0xd2, 0x3d, 0x54, 0xa2, 0x01, 0x3d, 0x2a, 0x2f, 0x3b, 0xbd,
  0x40, 0xcc, 0x8b, 0xbe, 0xd2, 0x5a, 0x10, 0x3e, 0x2b, 0xb1, 0x9d, 0xbd,
  0x2b, 0xfd, 0xb7, 0x3d, 0x7c, 0xbf, 0xeb, 0x3d, 0x61, 0x15, 0x21, 0x3e,
  0xd7, 0x3a, 0xd2, 0x3d, 0x39, 0x3e, 0xc3, 0x3c, 0x76, 0x1a, 0xac, 0xbd,
  0x70, 0xc6, 0xd0, 0xbd, 0xad, 0x1a, 0x95, 0xbd, 0x65, 0xb2, 0x53, 0xbd,
  0x80, 0x90, 0x0d, 0x3d, 0x21, 0x05, 0x49, 0xbd, 0x31, 0xad, 0x99, 0xbc,
  0x1b, 0x17, 0x72, 0xbc, 0x6b, 0xc7, 0x2c, 0x3d, 0x60, 0x38, 0x9b, 0x3e,
  0xf3, 0x84, 0x91, 0xbd, 0x48, 0x5b, 0xa0, 0x3e, 0xa0, 0xc8, 0x0c, 0x3e,
  0x86, 0x19, 0xd1, 0x3e, 0x34, 0xb4, 0x17, 0x3e, 0x97, 0xba, 0x80, 0xbd,
  0x32, 0x22, 0x32, 0x3e, 0x76, 0x87, 0x89, 0xbe, 0x30, 0xfb, 0x61, 0xbe,
  0x0b, 0x3f, 0xa4, 0x3d, 0xcf, 0x52, 0x3f, 0x3e, 0xb8, 0xd7, 0x7f, 0xbc,
  0xbb, 0xdd, 0x53, 0x3d, 0x4c, 0xd3, 0x92, 0x3a, 0x03, 0x97, 0xd9, 0x3c,
  0xe3, 0xab, 0xcf, 0x3e, 0x17, 0xf7, 0x84, 0x3d, 0x54, 0xff, 0xfe, 0x3e,
  0x05, 0xcb, 0x0c, 0x3d, 0xcc, 0x0d, 0x01, 0xbf, 0x6f, 0x30, 0x71, 0xbd,
  0xe1, 0x62, 0xbe, 0xbe, 0xdf, 0x28, 0x46, 0x3e, 0x52, 0x16, 0x6f, 0xbe,
  0x13, 0x6e, 0x9c, 0xbe, 0xa7, 0x5e, 0x16, 0xbd, 0xfd, 0x07, 0x41, 0x3e,
  0xc5, 0xb1, 0x73, 0xbd, 0xc3, 0x4e, 0xf5, 0xbe, 0xb4, 0x04, 0xd9, 0xbe,
  0x07, 0xb5, 0x3f, 0xbc, 0xc7, 0x6d, 0x20, 0x3e, 0xc5, 0x77, 0x75, 0xbd,
  0xf7, 0x15, 0x74, 0x3e, 0x2a, 0x4c, 0xc6, 0x3d, 0xcb, 0x4c, 0x79, 0xbe,
  0x65, 0xa8, 0x88, 0xbd, 0x96, 0x7f, 0xb0, 0xbd, 0xd3, 0xc6, 0x55, 0x3e,
  0x49, 0x6e, 0x20, 0x3e, 0x1c, 0x9f, 0x18, 0xbe, 0x13, 0x8d, 0x85, 0xbd,
  0xb1, 0xc3, 0x3f, 0x3e, 0xa8, 0x78, 0x01, 0xbd, 0xd2, 0x66, 0x31, 0xbd,
  0xdc, 0x18, 0xf2, 0xbd, 0xc5, 0x61, 0xa4, 0xbd, 0x41, 0x55, 0xee, 0xbc,
  0x3b, 0x98, 0x13, 0xbd, 0x42, 0xf8, 0xe3, 0x3d, 0xc9, 0x26, 0x4c, 0xbe,
  0x1c, 0xea, 0x48, 0xbe, 0x1d, 0x72, 0xab, 0x3d, 0x90, 0xb3, 0x1a, 0xbe,
  0x98, 0xce, 0x19, 0x3e, 0x88, 0x3f, 0xcb, 0x3c, 0x13, 0x11, 0x90, 0xbe,
  0xc6, 0x4c, 0x17, 0xbc, 0x94, 0x32, 0x94, 0xbb, 0xfc, 0xf6, 0x09, 0x3e,
  0xca, 0xfd, 0x7e, 0x3d, 0x5d, 0x9d, 0xe0, 0xbd, 0xf8, 0x9c, 0xd2, 0x3d,
  0x21, 0xde, 0x94, 0xbd, 0x74, 0x8f, 0xb1, 0xbb, 0xae, 0x3b, 0x7e, 0x3e,
  0x1b, 0x30, 0xf1, 0x3b, 0xca, 0x31, 0xac, 0x3e, 0xd4, 0x6a, 0xf1, 0x3d,
  0x52, 0x8e, 0x31, 0xbe, 0x2f, 0xa3, 0xad, 0xbd, 0x61, 0xd8, 0x30, 0xbe,
  0x31, 0x5f, 0x97, 0xbe, 0xe1, 0xcd, 0xde, 0x3c, 0x44, 0xbe, 0xae, 0x3d,
  0xce, 0x1e, 0x6c, 0x3d, 0x4c, 0x02, 0x50, 0x3e, 0xa0, 0x9c, 0x07, 0x3e,
  0xe3, 0x4d, 0xa2, 0xbe, 0xb3, 0x93, 0x21, 0xbe, 0x47, 0xc8, 0xb8, 0xbd,
  0x64, 0x98, 0x08, 0x3e, 0x65, 0xe4, 0x04, 0xbe, 0xc6, 0x17, 0x72, 0xbe,
  0x5a, 0x64, 0xa1, 0x3e, 0x82, 0x47, 0x33, 0xbe, 0x00, 0x32, 0xc4, 0xbc,
  0x1a, 0x64, 0xbc, 0x3d, 0xf9, 0x7e, 0x51, 0xbe, 0x21, 0xc9, 0xe6, 0xbc,
  0x10, 0xcd, 0xcb, 0xbc, 0xab, 0xbf, 0xa5, 0xbd, 0xd6, 0x6c, 0xb6, 0xbd,
  0x72, 0x44, 0xd2, 0xbd, 0x98, 0xf7, 0x14, 0x3d, 0x33, 0x22, 0x54, 0xbe,
  0xa8, 0x33, 0xb8, 0xbe, 0x24, 0x15, 0xf6, 0x3a, 0xd8, 0x70, 0xec, 0x3d,
  0x0f, 0x27, 0x6d, 0x3e, 0xe2, 0x18, 0x45, 0x3e, 0xac, 0x81, 0xec, 0x3c,
  0xb0, 0x72, 0x68, 0x3d, 0x18, 0x83, 0x74, 0xbd, 0xdc, 0xfb, 0xa5, 0xbe,
  0xa5, 0x36, 0x7d, 0xbe, 0x39, 0xaf, 0x09, 0x3d, 0x62, 0x47, 0x35, 0x3d,
  0xd6, 0x4f, 0x13, 0x3e, 0x37, 0x3f, 0x54, 0x3d, 0x5c, 0x73, 0x22, 0xbd,
  0x90, 0x03, 0x55, 0xbd, 0xbf, 0x0c, 0x01, 0xbd, 0x87, 0xd7, 0x59, 0x3d,
  0x2c, 0x07, 0x38, 0xbd, 0xdb, 0xd6, 0x43, 0xbd, 0xcb, 0x6d, 0x85, 0x3e,
  0x82, 0x4f, 0x64, 0x3d, 0x86, 0xe9, 0xdf, 0x3d, 0xd5, 0x4f, 0x40, 0xbe,
  0x22, 0xca, 0xd4, 0xbc, 0x10, 0xe2, 0x99, 0xbe, 0x61, 0x17, 0xd7, 0xbd,
  0xca, 0x24, 0x1e, 0xbe, 0xf6, 0x05, 0xc4, 0x3d, 0xab, 0x44, 0xca, 0x3d,
  0x17, 0x58, 0x7e, 0x3d, 0xa3, 0xd9, 0xf4, 0xbc, 0x10, 0x94, 0x2a, 0x3c,
  0x44, 0x10, 0x7d, 0xbc, 0x12, 0xb3, 0x69, 0x3e, 0x89, 0x8d, 0x1d, 0x3c,
  0x0d, 0xda, 0x83, 0xbd, 0xa4, 0x26, 0x06, 0x3e, 0x39, 0x4b, 0x86, 0xbd,
  0x4b, 0x76, 0xd1, 0xbd, 0x9b, 0x9c, 0x29, 0xbd, 0x81, 0x96, 0x5d, 0xbe,
  0xc8, 0x2e, 0x68, 0xbe, 0x9b, 0x24, 0xba, 0xbe, 0x44, 0x14, 0x2a, 0xbe,
  0x09, 0x54, 0xba, 0xbc, 0x7b, 0x5e, 0xda, 0x3d, 0x97, 0xbb, 0x1f, 0x3d,
  0x25, 0xe7, 0xca, 0xbd, 0x0f, 0xf3, 0xff, 0x3d, 0x7f, 0xa6, 0x1d, 0xbe,
  0xd7, 0x0b, 0x22, 0x3f, 0xec, 0x09, 0xd6, 0x3e, 0xe2, 0xc7, 0x60, 0x3e,
  0xb8, 0x04, 0xcf, 0xbe, 0xe7, 0xa4, 0x1c, 0x3d, 0x82, 0xfc, 0xec, 0x3c,
  0xa4, 0xc4, 0xd2, 0xbe, 0x1a, 0xc0, 0x65, 0xbf, 0xd9, 0x0e, 0xf6, 0xbe,
  0x47, 0xe0, 0x0d, 0x3e, 0xac, 0x81, 0x58, 0x3e, 0xa1, 0xc3, 0xa1, 0xbe,
  0xf5, 0xf3, 0xc4, 0xbe, 0x22, 0x07, 0xa1, 0xbe, 0xb4, 0x21, 0xc7, 0x3d,
  0x32, 0x40, 0x04, 0x3e, 0x29, 0xed, 0x91, 0x3e, 0x0c, 0xc9, 0x12, 0x3e,
  0x94, 0x7f, 0xc6, 0xbc, 0xb9, 0xa6, 0x40, 0x3d, 0xea, 0x4f, 0x66, 0xbe,
  0x4d, 0x39, 0x02, 0x3e, 0x1e, 0xfe, 0xc8, 0x3d, 0x7e, 0xda, 0x6a, 0xbe,
  0x99, 0x32, 0x53, 0xbe, 0xae, 0x44, 0xa7, 0xbd, 0x59, 0xf9, 0x72, 0xbd,
  0xf3, 0xcd, 0xd2, 0xbd, 0x5a, 0x6b, 0xb6, 0xbe, 0x02, 0xe7, 0xc9, 0xbd,
  0x91, 0x42, 0x1f, 0xbe, 0xf5, 0x64, 0xc4, 0xbc, 0x93, 0xee, 0xd7, 0xbd,
  0x7c, 0x65, 0xb2, 0xbc, 0x8a, 0x29, 0xba, 0xbd, 0x37, 0x3c, 0x0a, 0x3d,
  0xbd, 0x24, 0x06, 0xbe, 0x80, 0x0b, 0x9b, 0xbc, 0x0b, 0x89, 0x3b, 0xbd,
  0x4b, 0x1a, 0x0e, 0x3e, 0xd6, 0x7b, 0x43, 0x3d, 0xf8, 0x5d, 0x4b, 0x3d,
  0x8b, 0xf7, 0x72, 0x3d, 0x69, 0x1e, 0xe3, 0x3d, 0x45, 0x62, 0x2b, 0xbe,
  0xa8, 0xf7, 0x85, 0xbc, 0xa4, 0x98, 0x82, 0xbd, 0xc6, 0xbf, 0x00, 0xbe,
  0x83, 0x85, 0x97, 0xbd, 0x0f, 0xcc, 0x41, 0xbe, 0x47, 0x09, 0x21, 0xbe,
  0x01, 0xec, 0xb4, 0x3c, 0xa1, 0xe6, 0x38, 0xbe, 0xdd, 0x3a, 0xec, 0xbd,
  0x67, 0x5c, 0xc9, 0xbd, 0xe4, 0xb1, 0x1c, 0x3e, 0xc4, 0x53, 0xe9, 0x3c,
  0x06, 0x44, 0x33, 0x3e, 0xee, 0xce, 0x44, 0xbd, 0xc3, 0xe6, 0xb9, 0xbd,
  0xec, 0x9b, 0xab, 0xbd, 0x30, 0x04, 0x0b, 0xbd, 0xaa, 0xa8, 0xdf, 0x3b,
  0x89, 0x73, 0xb0, 0xbd, 0xe6, 0x3f, 0x45, 0x3e, 0x2e, 0xc4, 0x0a, 0xbe,
  0x4c, 0x8b, 0x15, 0xbe, 0x66, 0x75, 0x8f, 0xbc, 0x81, 0x69, 0xc2, 0xbe,
  0xc4, 0xba, 0x80, 0xbd, 0xc3, 0x7a, 0xeb, 0x3c, 0x6d, 0x63, 0x8c, 0xbb,
  0xeb, 0x91, 0x15, 0x3c, 0x42, 0x0e, 0x76, 0x3d, 0x89, 0xa4, 0xdb, 0xbd,
  0x43, 0x85, 0x33, 0x3e, 0x97, 0xc4, 0x3c, 0xbe, 0xab, 0x15, 0x90, 0x3d,
  0xb6, 0x25, 0x70, 0xbe, 0x3c, 0xd3, 0x8e, 0x3c, 0x03, 0x3a, 0x3d, 0x3f,
  0x99, 0x2c, 0x01, 0x3e, 0x17, 0xf5, 0x04, 0xbe, 0x02, 0x20, 0xc1, 0x3d,
  0x30, 0xd2, 0x30, 0xbe, 0xd3, 0xca, 0x5f, 0xbe, 0x57, 0x05, 0xe7, 0x3c,
  0xaf, 0x5d, 0xad, 0x3d, 0x31, 0x0f, 0xd8, 0x3d, 0x06, 0xce, 0x89, 0xbd,
  0xe8, 0x6f, 0x75, 0x3e, 0x37, 0xb9, 0xbd, 0x3d, 0x19, 0x1a, 0xb4, 0x3b,
  0x2a, 0x00, 0xa2, 0x3a, 0x82, 0x6d, 0xad, 0xbe, 0xca, 0x13, 0x96, 0x3e,
  0x3c, 0x8e, 0x16, 0xbf, 0xb7, 0x21, 0x37, 0xbe, 0xd1, 0xa7, 0xbb, 0xbe,
  0x99, 0x17, 0x4e, 0x3e, 0xfe, 0xae, 0xe8, 0xbe, 0x77, 0x1d, 0xf6, 0xbe,
  0x5c, 0x61, 0xb2, 0xbc, 0x9f, 0x4a, 0x04, 0x3e, 0x38, 0xff, 0x1d, 0xbd,
  0x01, 0xb7, 0x87, 0xbf, 0xa6, 0x98, 0x17, 0xbf, 0x01, 0xce, 0xf4, 0x3d,
  0x74, 0x92, 0x78, 0xbe, 0x90, 0x30, 0x3c, 0x3d, 0x74, 0x65, 0xbd, 0xbe,
  0xc8, 0x46, 0x0e, 0x3e, 0xaa, 0x21, 0x02, 0xbc, 0xbf, 0x9d, 0x16, 0x3e,
  0x45, 0x8e, 0xf6, 0x3e, 0x17, 0xee, 0xd5, 0xbe, 0x6f, 0xef, 0x25, 0xbf,
  0x78, 0xb0, 0x70, 0xbe, 0x6e, 0x3a, 0x11, 0xbf, 0xd7, 0xb7, 0x0d, 0xbf,
  0x8a, 0xfa, 0x09, 0xbf, 0x4e, 0x46, 0xfc, 0xbe, 0xef, 0xc7, 0x23, 0x3f,
  0x51, 0x3a, 0x5f, 0xbe, 0xb2, 0xf9, 0x91, 0x3e, 0x87, 0x44, 0x8b, 0xbe,
  0xd7, 0x1f, 0x47, 0x3f, 0xb1, 0x78, 0x2a, 0xbe, 0xef, 0x84, 0x7c, 0x3f,
  0x76, 0xc6, 0x11, 0xbd, 0x2a, 0x8d, 0xbe, 0xbb, 0xea, 0xd5, 0x4b, 0x3e,
  0x61, 0x9a, 0x28, 0xbe, 0x42, 0x1a, 0xbf, 0xbd, 0x0a, 0x83, 0x33, 0xbe,
  0x8b, 0x9e, 0x42, 0xbe, 0x88, 0x81, 0x04, 0xbe, 0xed, 0xb7, 0x1e, 0xbe,
  0xc8, 0x20, 0xa2, 0x3c, 0x46, 0x15, 0x33, 0x3d, 0xb2, 0xe9, 0x0f, 0x3f,
  0x70, 0xf1, 0x33, 0xbb, 0x8c, 0xf6, 0xe5, 0x3e, 0x81, 0x3d, 0x79, 0xbe,
  0x4c, 0x2c, 0x08, 0x3f, 0x77, 0xd0, 0xe4, 0x3d, 0xa5, 0x19, 0x05, 0xbe,
  0x5f, 0xd5, 0xb7, 0xbe, 0x08, 0x02, 0xfc, 0x3d, 0x1b, 0x74, 0xc7, 0xbc,
  0xc1, 0xcd, 0x15, 0xbd, 0xa5, 0xf9, 0x85, 0x3d, 0x84, 0xad, 0x87, 0xbd,
  0xe0, 0x68, 0x4a, 0xbc, 0x05, 0x9e, 0x16, 0xbe, 0xc6, 0x5f, 0x5c, 0xbe,
  0x85, 0x8c, 0x41, 0x3f, 0xa9, 0x07, 0x57, 0xbd, 0x92, 0x04, 0x2e, 0x3f,
  0xc3, 0x0d, 0x96, 0xbe, 0x93, 0x32, 0xa1, 0x3e, 0x54, 0x46, 0x81, 0xbc,
  0x7c, 0x2c, 0xba, 0xbd, 0x58, 0x1e, 0x9e, 0xbe, 0x59, 0x94, 0x5f, 0x3d,
  0x26, 0x46, 0x22, 0x3c, 0x4e, 0xc5, 0x14, 0x3b, 0xb5, 0x3f, 0x83, 0xbd,
  0xac, 0xb9, 0x91, 0x3c, 0x6e, 0x8a, 0x41, 0x3d, 0x17, 0x12, 0x4e, 0xbe,
  0xa6, 0xf5, 0x43, 0xbe, 0xc1, 0xb0, 0x3c, 0x3f, 0x5f, 0x97, 0x11, 0x3d,
  0x5c, 0xb6, 0x37, 0x3f, 0xed, 0x23, 0x5b, 0xbe, 0xea, 0xc8, 0x15, 0x3e,
  0xc2, 0xb6, 0x4b, 0x3e, 0x4a, 0x63, 0x15, 0xbe, 0x39, 0x4b, 0x05, 0xbd,
  0xa9, 0x7c, 0x40, 0x3e, 0xad, 0x19, 0x29, 0x3c, 0xf5, 0xcd, 0x26, 0xba,
  0x28, 0x36, 0x13, 0x3c, 0x97, 0xfd, 0x1e, 0x3c, 0x5d, 0x2e, 0xd5, 0x3c,
  0xf1, 0x2d, 0x67, 0xbe, 0xe6, 0xcd, 0x88, 0xbd, 0xf2, 0x30, 0x40, 0x3f,
  0x86, 0x7d, 0x50, 0x3c, 0xcf, 0x03, 0xfd, 0x3e, 0x9b, 0x9a, 0xd6, 0xbe,
  0x8a, 0xa8, 0x01, 0x3f, 0xc2, 0x85, 0x62, 0xbe, 0x5a, 0x3c, 0xd5, 0xbe,
  0x25, 0x06, 0xa4, 0xbd, 0x9f, 0xf7, 0x49, 0x3e, 0x88, 0xe4, 0x25, 0x3d,
  0x57, 0xc3, 0xbd, 0x3b, 0x7f, 0x21, 0xef, 0xbd, 0x57, 0x8a, 0x1a, 0xbd,
  0x85, 0xc2, 0x94, 0x3e, 0x96, 0xa2, 0x5b, 0xbe, 0xa5, 0x0a, 0xce, 0x3d,
  0x9a, 0xd5, 0x31, 0x3f, 0xc7, 0x61, 0xaf, 0x3d, 0xd9, 0x43, 0x40, 0x3f,
  0xbb, 0x08, 0x20, 0xbf, 0xad, 0x30, 0xaa, 0xbe, 0x0c, 0x41, 0x1d, 0xbe,
  0x2d, 0xba, 0x47, 0xbf, 0x7d, 0xde, 0x91, 0xbd, 0x4c, 0x72, 0xfb, 0x3d,
  0xf9, 0x94, 0x60, 0x3c, 0x40, 0x1d, 0x3b, 0x3d, 0x4f, 0xba, 0x8a, 0x3d,
  0x28, 0xcd, 0x51, 0x3b, 0x59, 0x2d, 0xc4, 0x3d, 0xbf, 0x02, 0x61, 0xbf,
  0x8b, 0xbb, 0xa9, 0x3d, 0x44, 0xb8, 0xd4, 0x3d, 0xa1, 0x8b, 0xe0, 0x3c,
  0xe1, 0x73, 0xf5, 0x3e, 0x92, 0xa5, 0x72, 0x3e, 0x08, 0xa0, 0xeb, 0xbd,
  0x89, 0x43, 0xa8, 0xbe, 0x0b, 0x69, 0x0c, 0xbf, 0x84, 0xd6, 0x67, 0x3e,
  0x2a, 0x18, 0x5e, 0x3e, 0xf5, 0x21, 0x19, 0x3e, 0x7f, 0x82, 0xd4, 0xbc,
  0xe0, 0xf2, 0x14, 0x3e, 0x36, 0xe3, 0xa8, 0x3e, 0x77, 0xa2, 0x6a, 0x3c,
  0xe6, 0x63, 0x29, 0xbf, 0xdb, 0x29, 0x3b, 0x3e, 0x77, 0x77, 0xe9, 0xbc,
  0x46, 0xcb, 0x6e, 0x3d, 0x41, 0x99, 0xe4, 0x3d, 0xf8, 0x02, 0x78, 0x3d,
  0xed, 0x08, 0x03, 0xbf, 0x44, 0xc5, 0xe2, 0x3d, 0xcb, 0x57, 0x00, 0xbe,
  0x21, 0x5a, 0xb2, 0xbd, 0x40, 0x05, 0xbb, 0x3d, 0x51, 0x5c, 0x03, 0x3e,
  0xdf, 0x54, 0x78, 0xbe, 0x72, 0x1e, 0x24, 0x3e, 0xe0, 0xc6, 0x9b, 0x3e,
  0x26, 0x50, 0x24, 0x3d, 0xbb, 0x7f, 0x85, 0xbe, 0x22, 0x55, 0x91, 0x3e,
  0xf8, 0xc6, 0xbd, 0xbd, 0x23, 0xea, 0x13, 0xbe, 0x56, 0x06, 0x4f, 0x3d,
  0x32, 0x80, 0xbd, 0x3c, 0xb3, 0x03, 0x8e, 0x3e, 0x4a, 0x2e, 0x3e, 0x3e,
  0xc8, 0xf7, 0x63, 0x3d, 0x6e, 0x53, 0xed, 0xbd, 0xc3, 0xc0, 0xb5, 0x3d,
  0x4c, 0x9a, 0x08, 0xbd, 0x2d, 0xdc, 0x6b, 0xbe, 0x85, 0x50, 0xc4, 0x3d,
  0xf2, 0x0e, 0x6f, 0x3e, 0x0e, 0x24, 0x8d, 0xbd, 0xf1, 0x84, 0x1c, 0xbe,
  0xfe, 0x37, 0x1e, 0x3e, 0xf6, 0x02, 0x7d, 0xbc, 0x58, 0xac, 0x94, 0xbe,
  0xbe, 0x41, 0x1f, 0x3e, 0x77, 0x26, 0x7d, 0x3c, 0x4a, 0x68, 0x82, 0x3e,
  0x01, 0xe2, 0xa2, 0x3e, 0x3e, 0xaa, 0x24, 0xbe, 0xdd, 0xea, 0xdc, 0x3d,
  0x70, 0xf7, 0xfa, 0x3d, 0x44, 0x30, 0xf8, 0x3d, 0xc4, 0xdb, 0x96, 0xbe,
  0xcc, 0xfc, 0x55, 0x3d, 0xbb, 0x7e, 0xcf, 0x3d, 0xec, 0x61, 0xc7, 0x3d,
  0x7b, 0xfe, 0xbf, 0xbd, 0xd1, 0xb5, 0x2e, 0x3d, 0x2e, 0x50, 0xcd, 0xbc,
  0xf1, 0xa6, 0x18, 0xbd, 0x30, 0x45, 0xfc, 0xbc, 0xef, 0xf2, 0xfb, 0x3d,
  0xe9, 0x96, 0x56, 0x3e, 0x9b, 0x1d, 0xa8, 0x3e, 0x6b, 0x21, 0x6e, 0xbe,
  0xc7, 0xae, 0x2f, 0x3e, 0xe7, 0x0f, 0x61, 0x3d, 0x3b, 0xaf, 0x0a, 0x3e,
  0x9a, 0xf3, 0x8e, 0xbe, 0xc1, 0x13, 0xb7, 0x3c, 0x01, 0x13, 0x9f, 0x3d,
  0x86, 0x46, 0x61, 0xbd, 0x98, 0xb7, 0x43, 0xbe, 0x47, 0xd1, 0x52, 0x3e,
  0xba, 0x92, 0x0f, 0xbe, 0x1a, 0xb1, 0xbb, 0xbd, 0xd0, 0x6c, 0x68, 0x3e,
  0x37, 0x0f, 0x2a, 0x3d, 0x2f, 0xdc, 0xb6, 0xbd, 0xd4, 0x44, 0x08, 0x3f,
  0x38, 0xff, 0x65, 0x3c, 0xb0, 0xe9, 0x9d, 0x3d, 0x0e, 0x32, 0x37, 0xbe,
  0xaf, 0x72, 0x1f, 0x3d, 0xf7, 0xa4, 0x4c, 0xbe, 0x1e, 0x52, 0xcc, 0x3c,
  0xc9, 0x16, 0x7e, 0xbc, 0xdb, 0xc7, 0x01, 0x3e, 0xe1, 0x30, 0xa6, 0xbe,
  0xe2, 0x2f, 0xcb, 0x3e, 0x16, 0xa8, 0x28, 0xbe, 0xa2, 0x0d, 0x07, 0xbe,
  0x50, 0x70, 0x9a, 0x3c, 0x4b, 0x75, 0xfa, 0x3a, 0xd1, 0x17, 0x34, 0x3e,
  0x43, 0x31, 0xa8, 0x3e, 0x28, 0x2c, 0xb1, 0x3e, 0xfc, 0x1d, 0xcb, 0xbb,
  0x72, 0xf0, 0x1c, 0x3b, 0xf4, 0x9d, 0x86, 0x3d, 0xba, 0xa7, 0x93, 0xbe,
  0x9f, 0x78, 0x45, 0xbe, 0xcb, 0xe8, 0xd7, 0xbd, 0x3c, 0xe7, 0x52, 0xbc,
  0x70, 0x37, 0x99, 0x3e, 0xbf, 0xd0, 0xb1, 0x3d, 0x3f, 0xfc, 0x24, 0xbe,
  0x66, 0xb9, 0xbc, 0xbd, 0x73, 0x2d, 0x21, 0x3d, 0x06, 0x2e, 0xc5, 0xbe,
  0xa5, 0x67, 0x74, 0x3e, 0xc6, 0x61, 0xaa, 0x3d, 0x8d, 0x80, 0x43, 0xbd,
  0x0f, 0xeb, 0x14, 0xbf, 0xb1, 0xba, 0x97, 0xbd, 0xa9, 0x8c, 0x67, 0x3d,
  0x04, 0x26, 0x39, 0xbf, 0x7b, 0x9d, 0x50, 0xbf, 0xb9, 0x62, 0xc3, 0xbe,
  0xdc, 0xbc, 0x05, 0x3e, 0x78, 0xe2, 0x0d, 0xbd, 0xcb, 0x97, 0xe9, 0xbd,
  0x70, 0xa5, 0x6f, 0xbc, 0xea, 0xb1, 0x3a, 0xbe, 0xea, 0xa5, 0x83, 0x3d,
  0x29, 0xbe, 0x3e, 0xbe, 0xa4, 0xd2, 0x4f, 0x3e, 0xbd, 0xbb, 0x14, 0x3e,
  0x61, 0x13, 0xbf, 0xbd, 0xe4, 0x6d, 0x55, 0xbe, 0x54, 0xbe, 0xb9, 0xbe,
  0x5a, 0x91, 0x86, 0xbd, 0xdf, 0xb4, 0xb2, 0xbd, 0xef, 0x7b, 0x21, 0xbf,
  0xc2, 0x68, 0x11, 0xbe, 0xac, 0x8b, 0xbb, 0x3d, 0x83, 0x5f, 0xfd, 0xbd,
  0xe3, 0xd2, 0x29, 0xbd, 0x20, 0xc8, 0xab, 0x3c, 0x5e, 0xb0, 0xa0, 0xbc,
  0x1e, 0xca, 0xc3, 0xbd, 0x58, 0x70, 0x15, 0x3c, 0xa9, 0x37, 0xfc, 0xbd,
  0x54, 0xd3, 0xcc, 0x3d, 0xc2, 0x54, 0xdd, 0xbd, 0x37, 0xfc, 0xe6, 0x3c,
  0xdf, 0x2c, 0xd0, 0xbe, 0xcf, 0xfe, 0x26, 0x3d, 0xa8, 0x1a, 0x52, 0x3e,
  0x79, 0xc3, 0xb9, 0xbd, 0x0b, 0x31, 0x86, 0xba, 0x2f, 0x35, 0xab, 0x3d,
  0x67, 0x04, 0x44, 0x3c, 0x60, 0x1c, 0xa6, 0x3b, 0xbd, 0xd5, 0x24, 0xbe,
  0x3f, 0xdb, 0x86, 0x3d, 0xf8, 0xb9, 0xbe, 0x3d, 0x34, 0xd9, 0x8e, 0xbd,
  0xfe, 0xe6, 0xcb, 0x3d, 0x9e, 0xeb, 0xfe, 0xbc, 0xea, 0x8b, 0x55, 0xbd,
  0xb2, 0xc4, 0xce, 0x3d, 0x6c, 0x93, 0x86, 0xbd, 0x51, 0x5f, 0x89, 0x3d,
  0x59, 0x66, 0xf4, 0xbd, 0x9a, 0x77, 0x14, 0xbc, 0xed, 0x15, 0x11, 0x3d,
  0x4c, 0xf9, 0xb8, 0xbd, 0x00, 0xfa, 0xb9, 0x3c, 0x3b, 0x8b, 0x6c, 0xbe,
  0x59, 0xfc, 0x10, 0xbe, 0xd9, 0x6a, 0xa6, 0x3c, 0x4c, 0x19, 0x87, 0x3e,
  0x1b, 0xb7, 0xb6, 0xbd, 0x52, 0x66, 0x51, 0x3e, 0x0f, 0x30, 0xb8, 0x3d,
  0x58, 0xc1, 0xfd, 0x3a, 0x6c, 0xee, 0xf5, 0x3d, 0xe8, 0xf4, 0x35, 0xbe,
  0xbc, 0x7e, 0x85, 0xbd, 0x44, 0x9b, 0x4c, 0x3d, 0xe5, 0xfa, 0xfe, 0x3d,
  0x82, 0xf3, 0xb8, 0x3c, 0x40, 0x8c, 0x34, 0x3e, 0x3b, 0x01, 0xa1, 0xbd,
  0x66, 0x86, 0x98, 0xbd, 0x39, 0x92, 0xbc, 0xbd, 0x3a, 0x70, 0x69, 0xbd,
  0xcf, 0xd6, 0x1a, 0x3b, 0x05, 0x38, 0x04, 0x3e, 0x14, 0x68, 0x0e, 0x3f,
  0x53, 0x9a, 0xed, 0xbc, 0xcf, 0xe6, 0x83, 0x3d, 0x0b, 0x65, 0x93, 0x3d,
  0x3c, 0x88, 0xb4, 0xbe, 0x30, 0xc0, 0x26, 0xbe, 0xb4, 0x05, 0x97, 0x3b,
  0x7c, 0x4d, 0x41, 0x3e, 0xc2, 0xd5, 0x83, 0x3d, 0xdc, 0x9f, 0x5a, 0x3d,
  0x3b, 0xc0, 0x0e, 0x3d, 0xea, 0xdb, 0x38, 0x3d, 0xce, 0x9f, 0x64, 0xbe,
  0xed, 0x73, 0x96, 0xbd, 0x27, 0xb8, 0x01, 0xbe, 0x85, 0x14, 0xa7, 0x3e,
  0x9b, 0x2b, 0xd6, 0xbe, 0x9f, 0xa6, 0x7f, 0xbe, 0xba, 0x83, 0xbd, 0xbe,
  0xef, 0x4b, 0x7c, 0x3e, 0xdf, 0xd1, 0xdf, 0xbe, 0x5b, 0xd2, 0xbf, 0xbe,
  0xe4, 0xbf, 0x73, 0x3d, 0x8d, 0x93, 0xb4, 0x3d, 0xb1, 0xc9, 0x6a, 0x3c,
  0xcc, 0x2f, 0x2b, 0xbf, 0x70, 0xc2, 0xa2, 0xbe, 0xd7, 0x56, 0x43, 0x3e,
  0xfd, 0x0b, 0x14, 0xbe, 0x0d, 0x63, 0x08, 0x3d, 0xe8, 0x4b, 0xb3, 0xbd,
  0xca, 0x2a, 0x9d, 0x3b, 0xcd, 0x4c, 0x71, 0xbc, 0x7b, 0x77, 0x37, 0x3e,
  0xeb, 0x9a, 0x52, 0x3e, 0x62, 0x88, 0xa7, 0xbe, 0x7d, 0x13, 0x11, 0xbe,
  0xf9, 0x5b, 0x5c, 0xbe, 0xcd, 0x3d, 0x2c, 0xbe, 0xa3, 0x0b, 0x58, 0xbe,
  0xb5, 0x76, 0x2b, 0xbe, 0x39, 0x57, 0xbb, 0x3d, 0xf9, 0x28, 0xb2, 0x3e,
  0xf2, 0xdd, 0x6d, 0xbe, 0xd5, 0x29, 0x56, 0x3d, 0x72, 0x51, 0x43, 0xbe,
  0x90, 0xb8, 0xc8, 0xbb, 0x34, 0x85, 0x1d, 0x3b, 0x82, 0x45, 0x82, 0x3f,
  0x24, 0x7d, 0x93, 0x3e, 0x61, 0xf3, 0x03, 0x3e, 0x51, 0xac, 0x9b, 0xbc,
  0x86, 0xb3, 0x18, 0xbe, 0x8c, 0x57, 0x21, 0xbe, 0xf7, 0x77, 0x65, 0xbd,
  0x5b, 0x0b, 0x3b, 0xbe, 0xad, 0xdd, 0x14, 0xbe, 0x57, 0x94, 0x2a, 0xbc,
  0xdf, 0xee, 0xe5, 0x3d, 0x81, 0x82, 0x17, 0x3e, 0xf7, 0x74, 0x91, 0x3e,
  0x94, 0xb7, 0x04, 0xbe, 0xd4, 0x25, 0xa2, 0xbd, 0x05, 0xdf, 0x1b, 0xbe,
  0x6d, 0x9b, 0xb0, 0x3e, 0x9e, 0xfc, 0xa7, 0x3d, 0x9e, 0x8c, 0xdc, 0xbb,
  0x92, 0xcf, 0xdf, 0xbe, 0x6e, 0xfa, 0x01, 0xbe, 0xd5, 0x43, 0x0b, 0xbe,
  0xb8, 0xd7, 0x70, 0xbd, 0xca, 0x70, 0x6b, 0x3c, 0x7e, 0x68, 0x50, 0xbe,
  0xd4, 0x7d, 0x2a, 0x3e, 0xe9, 0x75, 0xb6, 0xbb, 0x43, 0xcb, 0x5a, 0xbd,
  0x9b, 0xf9, 0x3d, 0x3f, 0x6a, 0x7e, 0x8c, 0xbd, 0x8c, 0x02, 0xa5, 0x3e,
  0xb4, 0xe4, 0x2a, 0xbe, 0xad, 0xca, 0x22, 0x3e, 0x86, 0xcd, 0xd4, 0x3d,
  0x81, 0xb4, 0x8c, 0xbd, 0xe5, 0xf5, 0x0a, 0xbf, 0xcd, 0xd9, 0x74, 0xbc,
  0xe5, 0x17, 0x93, 0xbd, 0x70, 0xe1, 0xff, 0x3d, 0x77, 0xa5, 0x07, 0xbd,
  0xea, 0x0f, 0xf7, 0xbd, 0xa8, 0x7b, 0x69, 0x3d, 0xe1, 0x7d, 0x9b, 0xbc,
  0x33, 0x02, 0x80, 0xbe, 0x23, 0x04, 0xa8, 0x3e, 0xa9, 0x91, 0x8c, 0xbd,
  0x43, 0xd3, 0x83, 0x3e, 0x39, 0xe7, 0xac, 0xbe, 0x14, 0x24, 0x87, 0x3d,
  0x45, 0x96, 0x5b, 0xbe, 0xe7, 0xee, 0x26, 0x3c, 0x95, 0x8e, 0x5d, 0xbe,
  0x35, 0xb7, 0x9e, 0xbd, 0x71, 0x4b, 0xf7, 0xbd, 0x42, 0x85, 0x8e, 0xbd,
  0x4a, 0x6c, 0x95, 0xbd, 0x33, 0x3a, 0x1f, 0xbe, 0xac, 0x1b, 0x2b, 0x3e,
  0x73, 0x36, 0x94, 0xbd, 0xc5, 0x68, 0x6e, 0xbd, 0x13, 0xc7, 0x9b, 0x3e,
  0x86, 0xbf, 0x9d, 0xbd, 0xa2, 0xf8, 0xa7, 0x3e, 0x93, 0xb2, 0xf5, 0xbe,
  0x49, 0xda, 0xac, 0x3e, 0x70, 0x6a, 0x39, 0x3e, 0xb2, 0xa1, 0x8a, 0xbd,
  0x12, 0xc3, 0xc6, 0x3c, 0xdf, 0x25, 0x54, 0x3d, 0xb5, 0x8c, 0x86, 0xbd,
  0x2c, 0x9a, 0x83, 0xbd, 0xd2, 0x79, 0x2c, 0xbe, 0xe5, 0xf2, 0xb6, 0xbe,
  0x7a, 0x34, 0x2c, 0xbe, 0x61, 0x7a, 0x79, 0x3e, 0x0e, 0x89, 0xfc, 0x3e,
  0x8a, 0x96, 0x56, 0x3e, 0x2e, 0xa2, 0x8e, 0x3e, 0xa3, 0x87, 0x86, 0x3e,
  0x27, 0x00, 0x1b, 0xbf, 0xfd, 0x23, 0x81, 0x3c, 0xea, 0xf9, 0xa0, 0xbe,
  0x06, 0xba, 0x0c, 0xbf, 0x37, 0xb7, 0x57, 0xbe, 0x1f, 0x0d, 0xaa, 0x3e,
  0xa0, 0x12, 0x9a, 0x3e, 0x6c, 0xa9, 0xdb, 0x3d, 0x45, 0x0b, 0xe8, 0x3d,
  0x44, 0x55, 0xc2, 0x3d, 0xbd, 0xb6, 0xdd, 0x3d, 0xb2, 0x5a, 0x11, 0xbf,
  0x75, 0xe2, 0xc9, 0x3d, 0xe6, 0xeb, 0x41, 0x3e, 0x38, 0xa9, 0x06, 0x3e,
  0x8c, 0x46, 0x3e, 0x3e, 0xa7, 0x09, 0x10, 0xbe, 0x0d, 0x2f, 0x96, 0x3e,
  0xd8, 0x6e, 0xbc, 0xbc, 0xb2, 0x69, 0x45, 0x3d, 0x02, 0x4a, 0x77, 0x3e,
  0xaa, 0x13, 0xa6, 0xbd, 0xd8, 0x4e, 0x48, 0xbc, 0x85, 0x52, 0xac, 0x3c,
  0xad, 0x79, 0xad, 0x3d, 0x5c, 0x31, 0x7a, 0x3e, 0x25, 0x58, 0xd3, 0x3e,
  0xa7, 0xea, 0x44, 0xbe, 0x47, 0x8d, 0x40, 0x3e, 0xe1, 0x17, 0x57, 0xbe,
  0x31, 0x47, 0x47, 0x3e, 0x97, 0x99, 0xbf, 0x3e, 0x41, 0x7b, 0xb3, 0xbe,
  0x52, 0x46, 0xfa, 0xbe, 0xc2, 0xba, 0x0b, 0x3d, 0x3e, 0x59, 0x13, 0xbe,
  0x14, 0x91, 0xa9, 0xbd, 0xd5, 0x0e, 0xc6, 0xbd, 0xc1, 0x5c, 0x27, 0x3e,
  0xb8, 0xb9, 0xc0, 0xbd, 0xfc, 0x87, 0x3b, 0x3e, 0x15, 0x3a, 0x5c, 0x3d,
  0x8b, 0xda, 0x61, 0xbd, 0xa5, 0x47, 0x57, 0xbb, 0x78, 0x19, 0xf7, 0x3e,
  0x42, 0xb8, 0xb4, 0xbe, 0x4a, 0x1a, 0x95, 0xbc, 0xdd, 0x2b, 0x50, 0x3e,
  0xa1, 0x8b, 0x90, 0xbe, 0x04, 0xb4, 0xcd, 0xbc, 0x22, 0xbe, 0x8d, 0x3e,
  0x55, 0x41, 0x8c, 0xbc, 0x09, 0xaf, 0x12, 0xbe, 0x76, 0xcc, 0x93, 0xbe,
  0x59, 0xe5, 0x1a, 0x3e, 0x41, 0x79, 0xf4, 0xbd, 0xa4, 0x15, 0x10, 0xbe,
  0xb0, 0xcc, 0xca, 0xbc, 0x36, 0xca, 0xf1, 0x3d, 0xa0, 0xde, 0x0b, 0x3e,
  0xc7, 0x8c, 0xb5, 0x3e, 0x69, 0x22, 0xac, 0xbe, 0x47, 0x12, 0xbf, 0x3d,
  0xba, 0xff, 0xd1, 0x3e, 0x58, 0xd8, 0x2d, 0xbe, 0xdd, 0xdd, 0x26, 0x3d,
  0x8c, 0xf8, 0xce, 0xbc, 0x1f, 0xf5, 0xd8, 0xbc, 0xb0, 0x2e, 0x22, 0xbe,
  0x99, 0xcf, 0xc7, 0xbe, 0x29, 0xf1, 0x42, 0x3c, 0x21, 0x75, 0xfd, 0xbd,
  0xfa, 0xc7, 0x2d, 0xbd, 0x67, 0x0d, 0xde, 0x3d, 0x19, 0xe8, 0x0c, 0xbe,
  0xa4, 0x41, 0x5c, 0x3d, 0xf7, 0x7e, 0x81, 0x3e, 0x49, 0x36, 0x89, 0xbe,
  0xb4, 0x7e, 0x9e, 0x3d, 0x5a, 0x70, 0xd0, 0x3e, 0x48, 0x6e, 0x52, 0xbd,
  0x36, 0x1a, 0xb9, 0x3e, 0xed, 0x2e, 0x82, 0x3d, 0xc0, 0x76, 0xd8, 0x3c,
  0xcf, 0xd5, 0x39, 0xbe, 0x1c, 0x5f, 0x44, 0xbd, 0x88, 0x62, 0xad, 0x3d,
  0x4f, 0x36, 0x24, 0xbe, 0x9c, 0x17, 0x2b, 0xbc, 0x8c, 0x2e, 0x10, 0x3e,
  0x37, 0xee, 0x63, 0xbd, 0x07, 0x21, 0xa8, 0x3d, 0x69, 0x58, 0x7e, 0x3e,
  0xb2, 0xf6, 0xc1, 0xbe, 0xe3, 0xb1, 0x00, 0x3d, 0x24, 0x48, 0xcc, 0x3e,
  0xe1, 0x95, 0x1f, 0xbe, 0xa0, 0xec, 0x15, 0xbf, 0x06, 0x82, 0x16, 0x3d,
  0x3e, 0xca, 0xb7, 0x3a, 0x5a, 0x6c, 0xda, 0xbd, 0x6a, 0x07, 0x43, 0xbe,
  0x8b, 0x58, 0xdc, 0x3c, 0x62, 0xf5, 0x17, 0xbe, 0xe2, 0xf1, 0x5e, 0xbd,
  0x93, 0xd4, 0x63, 0x3d, 0x53, 0x83, 0xe3, 0xbd, 0xcb, 0x8a, 0x19, 0xbe,
  0xf0, 0x06, 0x8b, 0x3d, 0xd3, 0xc8, 0x16, 0xbf, 0x57, 0x7e, 0x97, 0xbd,
  0xb2, 0x34, 0x7f, 0x3f, 0x27, 0x63, 0xef, 0xbe, 0x81, 0xcb, 0xa2, 0x3d,
  0x50, 0x12, 0x40, 0x3e, 0xdd, 0x5a, 0x33, 0x3e, 0x2e, 0x58, 0x9d, 0xbe,
  0x82, 0x0f, 0x8e, 0xbe, 0xe2, 0x18, 0x1d, 0xbc, 0x8a, 0x98, 0x24, 0xbe,
  0x80, 0x38, 0x23, 0xbe, 0xc1, 0x42, 0xda, 0xbd, 0x26, 0x33, 0x0e, 0xbe,
  0x1f, 0x5c, 0x11, 0x3e, 0x21, 0xee, 0x0b, 0xbc, 0xba, 0xa4, 0x43, 0xbe,
  0xd9, 0x93, 0xb1, 0xbd, 0xe4, 0x5b, 0x90, 0xbd, 0x12, 0x49, 0x7f, 0xbd,
  0x9b, 0xf4, 0xef, 0x3d, 0xf2, 0xa5, 0x24, 0x3e, 0x7e, 0x58, 0xb6, 0xbb,
  0x07, 0xc9, 0x03, 0x3f, 0xdf, 0x9f, 0x0a, 0x3e, 0x2f, 0xf2, 0xb4, 0x3d,
  0x25, 0xa7, 0x14, 0xbe, 0x6f, 0x8b, 0x7b, 0x3e, 0xfe, 0x83, 0xab, 0x3e,
  0x35, 0x75, 0x6a, 0x3e, 0x0c, 0x08, 0x9e, 0xbe, 0x3f, 0x6d, 0xa7, 0x3e,
  0x78, 0x2a, 0x14, 0xbe, 0xb3, 0xaa, 0x53, 0x3e, 0xd1, 0x2e, 0x34, 0x3e,
  0xbc, 0x53, 0x46, 0xbd, 0xf7, 0xda, 0xd2, 0xbe, 0x78, 0x79, 0x41, 0xbd,
  0x1e, 0x5b, 0x52, 0xbe, 0x18, 0xc6, 0x73, 0xbe, 0xf1, 0x2b, 0x19, 0xbe,
  0x9c, 0x42, 0x82, 0xbd, 0xc8, 0xe3, 0x8b, 0xbe, 0xe8, 0xf9, 0x77, 0x3e,
  0x22, 0xa9, 0x75, 0x3e, 0x8b, 0x52, 0x4a, 0x3e, 0xf4, 0x1a, 0xf3, 0xbd,
  0x42, 0x2b, 0x89, 0x3e, 0x36, 0x2c, 0x66, 0xbe, 0x21, 0xa9, 0x15, 0xbc,
  0x8c, 0xcc, 0x5d, 0x3e, 0x50, 0x78, 0x90, 0xbd, 0x17, 0x71, 0xe3, 0x3d,
  0x32, 0x85, 0xb7, 0x3e, 0x80, 0xe2, 0x03, 0xbe, 0x66, 0x88, 0xe3, 0xbd,
  0x0e, 0x78, 0x67, 0xbc, 0x27, 0x5b, 0x74, 0xbb, 0xc3, 0xbd, 0xbd, 0xbe,
  0xb2, 0xb0, 0xec, 0x3b, 0x73, 0xd8, 0xaa, 0x3d, 0x3e, 0xac, 0x00, 0xbe,
  0x76, 0x42, 0x8c, 0x3d, 0xdf, 0x3b, 0x1a, 0x3e, 0xc4, 0xc9, 0xc1, 0xbe,
  0x9a, 0x7d, 0x70, 0xbd, 0x20, 0x8d, 0x28, 0x3e, 0x6f, 0xc4, 0x16, 0x3e,
  0x9c, 0x41, 0x82, 0x3c, 0xe2, 0xdc, 0x02, 0x3e, 0x53, 0xf2, 0x07, 0xbe,
  0x61, 0xc8, 0x94, 0xbd, 0xee, 0xdb, 0x29, 0xbd, 0xca, 0x8b, 0x99, 0x3d,
  0x0f, 0xc4, 0x87, 0xbe, 0x28, 0xad, 0x70, 0x3d, 0x9a, 0x57, 0x72, 0x3d,
  0xae, 0xe9, 0x33, 0xbd, 0x89, 0xfc, 0x9a, 0xbd, 0x55, 0xa0, 0x91, 0x3e,
  0xca, 0x0c, 0xa8, 0xbc, 0x74, 0xaf, 0xe2, 0x3d, 0x4d, 0x33, 0x36, 0x3e,
  0x34, 0xc5, 0x61, 0x3d, 0xcf, 0xc0, 0xf7, 0x3d, 0x06, 0xe7, 0xa8, 0x3d,
  0x1d, 0xa2, 0xb2, 0xbd, 0x67, 0xb0, 0x35, 0xbe, 0xa9, 0x28, 0xd9, 0xbd,
  0xc9, 0x27, 0x47, 0x3d, 0x09, 0xe6, 0x5d, 0xbe, 0xce, 0xef, 0xbe, 0x3c,
  0xd1, 0xf9, 0xd7, 0x3d, 0x39, 0xaf, 0xab, 0x3d, 0x25, 0xd6, 0xf3, 0xbd,
  0x9b, 0x51, 0x95, 0x3e, 0x19, 0x9f, 0x8f, 0xbd, 0x98, 0x63, 0x98, 0x3d,
  0x09, 0x44, 0x68, 0x3e, 0xd6, 0xe2, 0x6c, 0xbd, 0xb3, 0x4f, 0x08, 0xbf,
  0x64, 0x89, 0xc2, 0x3e, 0xef, 0xf2, 0xc3, 0xbd, 0xec, 0xd8, 0x6a, 0xbe,
  0xdf, 0xab, 0x77, 0xbe, 0x99, 0xaa, 0x19, 0xbd, 0x52, 0x5c, 0x8b, 0xbe,
  0x42, 0x2f, 0x16, 0xbe, 0x0b, 0x23, 0x2c, 0x3e, 0x34, 0x55, 0x81, 0x3d,
  0x9b, 0xae, 0xa2, 0xbe, 0xe4, 0xca, 0x7e, 0xbc, 0xec, 0x8e, 0xcc, 0xbd,
  0xed, 0x9e, 0x1b, 0xbd, 0x3c, 0xa1, 0x16, 0x3f, 0xcc, 0x94, 0xe6, 0xbd,
  0xe6, 0x6c, 0x40, 0x3d, 0x63, 0xbe, 0xac, 0x3e, 0xa4, 0xe8, 0x60, 0x3d,
  0x9c, 0xfe, 0xb8, 0xbe, 0x99, 0xb8, 0x0f, 0xbe, 0xf9, 0xe8, 0x95, 0x3c,
  0x9c, 0xc7, 0xd7, 0xba, 0xb0, 0x25, 0xc2, 0xbd, 0x6f, 0x79, 0xd1, 0xbd,
  0xcd, 0xef, 0x70, 0xbd, 0x38, 0x9e, 0x7f, 0x3e, 0xc8, 0x0a, 0xf9, 0x3d,
  0x7d, 0x19, 0xca, 0x3d, 0x0a, 0xec, 0x29, 0xbe, 0xcd, 0x64, 0x68, 0x3e,
  0x66, 0xfd, 0xff, 0xff, 0x10, 0x00, 0x00, 0x00, 0x07, 0x00, 0x00, 0x00,
  0x14, 0x00, 0x00, 0x00, 0x2c, 0x00, 0x00, 0x00, 0x02, 0x00, 0x00, 0x00,
  0x10, 0x00, 0x00, 0x00, 0x70, 0x00, 0x00, 0x00, 0x17, 0x00, 0x00, 0x00,
  0x73, 0x65, 0x71, 0x75, 0x65, 0x6e, 0x74, 0x69, 0x61, 0x6c, 0x2f, 0x64,
  0x65, 0x6e, 0x73, 0x65, 0x2f, 0x4d, 0x61, 0x74, 0x4d, 0x75, 0x6c, 0x00,
  0xd0, 0xfc, 0xff, 0xff, 0xda, 0xfd, 0xff, 0xff, 0x04, 0x00, 0x00, 0x00,
  0x08, 0x00, 0x00, 0x00, 0xff, 0xff, 0xff, 0xff, 0x70, 0x00, 0x00, 0x00,
  0x00, 0x00, 0x0e, 0x00, 0x18, 0x00, 0x08, 0x00, 0x07, 0x00, 0x0c, 0x00,
  0x10, 0x00, 0x14, 0x00, 0x0e, 0x00, 0x00, 0x00, 0x00, 0x00, 0x00, 0x02,
  0x10, 0x00, 0x00, 0x00, 0x06, 0x00, 0x00, 0x00, 0x10, 0x00, 0x00, 0x00,
  0x2c, 0x00, 0x00, 0x00, 0x01, 0x00, 0x00, 0x00, 0x02, 0x00, 0x00, 0x00,
  0x18, 0x00, 0x00, 0x00, 0x73, 0x65, 0x71, 0x75, 0x65, 0x6e, 0x74, 0x69,
  0x61, 0x6c, 0x2f, 0x66, 0x6c, 0x61, 0x74, 0x74, 0x65, 0x6e, 0x2f, 0x43,
  0x6f, 0x6e, 0x73, 0x74, 0x00, 0x00, 0x00, 0x00, 0x38, 0xfd, 0xff, 0xff,
  0x42, 0xfe, 0xff, 0xff, 0x04, 0x00, 0x00, 0x00, 0x0c, 0x00, 0x00, 0x00,
  0x56, 0x80, 0x08, 0xbf, 0x49, 0xae, 0xf7, 0xbf, 0x51, 0x44, 0xa1, 0x3f,
  0x26, 0xfe, 0xff, 0xff, 0x10, 0x00, 0x00, 0x00, 0x05, 0x00, 0x00, 0x00,
  0x10, 0x00, 0x00, 0x00, 0x44, 0x00, 0x00, 0x00, 0x01, 0x00, 0x00, 0x00,
  0x03, 0x00, 0x00, 0x00, 0x32, 0x00, 0x00, 0x00, 0x73, 0x65, 0x71, 0x75,
  0x65, 0x6e, 0x74, 0x69, 0x61, 0x6c, 0x2f, 0x64, 0x65, 0x6e, 0x73, 0x65,
  0x5f, 0x31, 0x2f, 0x42, 0x69, 0x61, 0x73, 0x41, 0x64, 0x64, 0x2f, 0x52,
  0x65, 0x61, 0x64, 0x56, 0x61, 0x72, 0x69, 0x61, 0x62, 0x6c, 0x65, 0x4f,
  0x70, 0x2f, 0x72, 0x65, 0x73, 0x6f, 0x75, 0x72, 0x63, 0x65, 0x00, 0x00,
  0xa8, 0xfd, 0xff, 0xff, 0xb2, 0xfe, 0xff, 0xff, 0x04, 0x00, 0x00, 0x00,
  0x40, 0x00, 0x00, 0x00, 0x74, 0xdd, 0x43, 0x3f, 0xce, 0x83, 0x6a, 0xbf,
  0x2b, 0x2e, 0x5d, 0xbe, 0xe2, 0xaa, 0x8b, 0xbe, 0x77, 0x5b, 0x63, 0xbe,
  0xac, 0x45, 0xa8, 0xbe, 0x33, 0x90, 0x78, 0x3f, 0x71, 0x75, 0x6e, 0xbe,
  0x92, 0xa0, 0x07, 0xbe, 0xc0, 0xdd, 0x72, 0xbf, 0xb1, 0x56, 0x35, 0x3f,
  0x4e, 0x79, 0xd1, 0x3e, 0x45, 0x31, 0x66, 0xbf, 0x01, 0x91, 0x9b, 0x3e,
  0x2e, 0x30, 0xd8, 0x3e, 0x8b, 0x38, 0x2c, 0x3f, 0xca, 0xfe, 0xff, 0xff,
  0x10, 0x00, 0x00, 0x00, 0x04, 0x00, 0x00, 0x00, 0x10, 0x00, 0x00, 0x00,
  0x44, 0x00, 0x00, 0x00, 0x01, 0x00, 0x00, 0x00, 0x10, 0x00, 0x00, 0x00,
  0x30, 0x00, 0x00, 0x00, 0x73, 0x65, 0x71, 0x75, 0x65, 0x6e, 0x74, 0x69,
  0x61, 0x6c, 0x2f, 0x64, 0x65, 0x6e, 0x73, 0x65, 0x2f, 0x42, 0x69, 0x61,
  0x73, 0x41, 0x64, 0x64, 0x2f, 0x52, 0x65, 0x61, 0x64, 0x56, 0x61, 0x72,
  0x69, 0x61, 0x62, 0x6c, 0x65, 0x4f, 0x70, 0x2f, 0x72, 0x65, 0x73, 0x6f,
  0x75, 0x72, 0x63, 0x65, 0x00, 0x00, 0x00, 0x00, 0x4c, 0xfe, 0xff, 0xff,
  0x56, 0xff, 0xff, 0xff, 0x04, 0x00, 0x00, 0x00, 0x40, 0x00, 0x00, 0x00,
  0x04, 0x17, 0x50, 0xbd, 0xff, 0xb5, 0x01, 0x40, 0x14, 0xd6, 0x0c, 0xbe,
  0xd9, 0xd9, 0xf3, 0xbc, 0xfb, 0x4d, 0xa8, 0xbe, 0x08, 0xd2, 0x63, 0xbe,
  0xf6, 0xb7, 0xa6, 0xbe, 0x44, 0xbc, 0x37, 0x3f, 0x08, 0x2b, 0xa1, 0xbd,
  0x00, 0x99, 0x30, 0xbf, 0x2a, 0x20, 0xa1, 0xbe, 0x39, 0x62, 0x31, 0xbe,
  0xab, 0x02, 0x3d, 0xbf, 0x8b, 0x20, 0xe4, 0x3e, 0xa9, 0x4a, 0x9b, 0xbe,
  0xb4, 0x87, 0xfe, 0x3e, 0x6e, 0xff, 0xff, 0xff, 0x10, 0x00, 0x00, 0x00,
  0x03, 0x00, 0x00, 0x00, 0x10, 0x00, 0x00, 0x00, 0x48, 0x00, 0x00, 0x00,
  0x01, 0x00, 0x00, 0x00, 0x10, 0x00, 0x00, 0x00, 0x33, 0x00, 0x00, 0x00,
  0x73, 0x65, 0x71, 0x75, 0x65, 0x6e, 0x74, 0x69, 0x61, 0x6c, 0x2f, 0x63,
  0x6f, 0x6e, 0x76, 0x32, 0x64, 0x5f, 0x31, 0x2f, 0x42, 0x69, 0x61, 0x73,
  0x41, 0x64, 0x64, 0x2f, 0x52, 0x65, 0x61, 0x64, 0x56, 0x61, 0x72, 0x69,
  0x61, 0x62, 0x6c, 0x65, 0x4f, 0x70, 0x2f, 0x72, 0x65, 0x73, 0x6f, 0x75,
  0x72, 0x63, 0x65, 0x00, 0x04, 0x00, 0x06, 0x00, 0x04, 0x00, 0x00, 0x00,
  0x00, 0x00, 0x06, 0x00, 0x08, 0x00, 0x04, 0x00, 0x06, 0x00, 0x00, 0x00,
  0x04, 0x00, 0x00, 0x00, 0x20, 0x00, 0x00, 0x00, 0xa4, 0xb3, 0x0b, 0xbf,
  0x98, 0x03, 0xac, 0x3e, 0xb9, 0x51, 0x63, 0x3e, 0x07, 0xdc, 0xf2, 0xbe,
  0x78, 0x03, 0xdf, 0x3d, 0xb6, 0x02, 0x82, 0xbf, 0x20, 0x1b, 0xc8, 0x3f,
  0x3c, 0xc9, 0xc9, 0xbe, 0x00, 0x00, 0x0e, 0x00, 0x14, 0x00, 0x04, 0x00,
  0x00, 0x00, 0x08, 0x00, 0x0c, 0x00, 0x10, 0x00, 0x0e, 0x00, 0x00, 0x00,
  0x10, 0x00, 0x00, 0x00, 0x02, 0x00, 0x00, 0x00, 0x10, 0x00, 0x00, 0x00,
  0x44, 0x00, 0x00, 0x00, 0x01, 0x00, 0x00, 0x00, 0x08, 0x00, 0x00, 0x00,
  0x31, 0x00, 0x00, 0x00, 0x73, 0x65, 0x71, 0x75, 0x65, 0x6e, 0x74, 0x69,
  0x61, 0x6c, 0x2f, 0x63, 0x6f, 0x6e, 0x76, 0x32, 0x64, 0x2f, 0x42, 0x69,
  0x61, 0x73, 0x41, 0x64, 0x64, 0x2f, 0x52, 0x65, 0x61, 0x64, 0x56, 0x61,
  0x72, 0x69, 0x61, 0x62, 0x6c, 0x65, 0x4f, 0x70, 0x2f, 0x72, 0x65, 0x73,
  0x6f, 0x75, 0x72, 0x63, 0x65, 0x00, 0x00, 0x00, 0x90, 0xff, 0xff, 0xff,
  0x14, 0x00, 0x18, 0x00, 0x04, 0x00, 0x00, 0x00, 0x08, 0x00, 0x0c, 0x00,
  0x10, 0x00, 0x00, 0x00, 0x00, 0x00, 0x14, 0x00, 0x14, 0x00, 0x00, 0x00,
  0x14, 0x00, 0x00, 0x00, 0x01, 0x00, 0x00, 0x00, 0x20, 0x00, 0x00, 0x00,
  0x44, 0x00, 0x00, 0x00, 0x2c, 0x00, 0x00, 0x00, 0x04, 0x00, 0x00, 0x00,
  0x01, 0x00, 0x00, 0x00, 0x40, 0x00, 0x00, 0x00, 0x03, 0x00, 0x00, 0x00,
  0x01, 0x00, 0x00, 0x00, 0x0c, 0x00, 0x00, 0x00, 0x63, 0x6f, 0x6e, 0x76,
  0x32, 0x64, 0x5f, 0x69, 0x6e, 0x70, 0x75, 0x74, 0x00, 0x00, 0x00, 0x00,
  0x04, 0x00, 0x00, 0x00, 0xff, 0xff, 0xff, 0xff, 0x40, 0x00, 0x00, 0x00,
  0x03, 0x00, 0x00, 0x00, 0x01, 0x00, 0x00, 0x00, 0xfc, 0xff, 0xff, 0xff,
  0x04, 0x00, 0x04, 0x00, 0x04, 0x00, 0x00, 0x00
};


unsigned int model_tflite_len = 13052;// Fill the int in `src/model.cc` here
